<unk>	0
<s>	0
</s>	0
.	-2.94966
,	-3.66586
▁	-4.33991
="	-4.74786
ம்	-4.88369
doc	-4.97337
க்	-5.00481
ப்	-5.02685
"	-5.17534
்	-5.21687
கள்	-5.21737
)	-5.30643
▁(	-5.35248
▁மற்றும்	-5.41003
▁ஒரு	-5.4282
த்	-5.4514
d	-5.51237
/	-5.54495
>	-5.59768
ta	-5.62697
?	-5.63795
▁<	-5.63954
://	-5.6556
org	-5.65963
https	-5.66324
▁</	-5.66464
wikipedia	-5.66488
wiki	-5.66488
url	-5.66557
curi	-5.66636
▁id	-5.66673
▁title	-5.66686
">	-5.67529
▁"	-5.77793
▁இந்த	-5.84639
ச்	-5.93686
ும்	-5.98267
து	-6.0445
ல்	-6.06194
ு	-6.08888
-	-6.10729
▁ஊராட்சி	-6.11908
ன்	-6.12034
ின்	-6.14566
▁இது	-6.21839
யில்	-6.23255
▁என்ற	-6.24128
க்கு	-6.27995
த்தில்	-6.29369
▁ஆகும்	-6.29911
:	-6.30433
▁உள்ள	-6.31375
ர்	-6.33302
களை	-6.36917
▁ஆம்	-6.38037
யின்	-6.38332
ஸ்	-6.38947
ய	-6.41654
களில்	-6.43194
▁ஆண்டு	-6.4484
களின்	-6.48808
▁என்பது	-6.53757
▁இவர்	-6.55188
ங்கள்	-6.56706
▁அல்லது	-6.57209
▁உள்ளது	-6.5787
▁பல	-6.5995
▁கோயில்	-6.59997
த்தின்	-6.6132
ன	-6.61964
ில்	-6.62134
▁மக்கள்	-6.62815
ட்	-6.64078
யை	-6.66869
▁என்று	-6.71234
சு	-6.71281
யும்	-6.71823
க	-6.72959
▁இருந்து	-6.73632
ஆம்	-6.75514
த்தை	-6.758
▁("	-6.76958
▁முதல்	-6.77071
▁க	-6.77469
ி	-6.79093
ை	-6.79414
▁இந்திய	-6.80755
▁அ	-6.81934
வை	-6.81969
வ	-6.85234
களும்	-6.88023
ப்படுகிறது	-6.90509
▁என	-6.90645
▁என்னும்	-6.91486
சி	-6.92043
த	-6.93158
ம	-6.93649
▁போன்ற	-6.98227
▁7	-6.99704
டி	-6.99741
வர்	-7.00725
▁இ	-7.01156
▁சில	-7.0167
▁அமைந்துள்ள	-7.02518
வும்	-7.02863
▁தொகை	-7.03258
ார்	-7.04666
ா	-7.04912
மாக	-7.05449
ரி	-7.0546
த்த	-7.0655
▁கொண்ட	-7.06588
வி	-7.07246
கா	-7.08269
ப	-7.08487
▁-	-7.09802
▁அவர்	-7.09969
க்க	-7.10234
பி	-7.10897
▁மேலும்	-7.11009
▁இல்	-7.11117
ச	-7.11734
ுள்ளது	-7.12687
மான	-7.14494
மா	-7.16831
லி	-7.2062
தி	-7.20742
லா	-7.21815
ப்பட்ட	-7.21879
யாக	-7.21991
ர	-7.22197
ரா	-7.22781
த்து	-7.23454
களுக்கு	-7.2364
வின்	-7.24443
=	-7.25132
னர்	-7.25738
▁இக்கோயில்	-7.25909
▁ஆண்டில்	-7.26401
ந்த	-7.27739
யா	-7.28432
▁பயன்படுத்த	-7.28441
▁அமைந்துள்ளது	-7.28557
▁உள்ளன	-7.28629
அ	-7.2876
▁வரை	-7.2922
னி	-7.29357
வு	-7.30115
ங்களில்	-7.30657
மை	-7.30997
னா	-7.32007
▁இதன்	-7.32271
ிய	-7.32928
;	-7.33454
ட	-7.33474
▁கி	-7.33555
ல	-7.33956
),	-7.34583
▁மாவட்டம்	-7.35262
▁பின்னர்	-7.35571
s	-7.35675
டு	-7.37393
ப்ப	-7.37871
ப்பு	-7.38015
▁பி	-7.38227
▁இருக்கும்	-7.38618
வா	-7.3934
▁மூலம்	-7.41189
மும்	-7.41385
▁ச	-7.42475
கு	-7.42679
வே	-7.43821
▁தொகுதிக்கும்	-7.4385
▁கொண்டு	-7.44378
▁பேரும்	-7.44561
▁இரு	-7.4457
")	-7.44677
க்கும்	-7.45808
ாக	-7.46209
ப்பட்டது	-7.46713
மி	-7.46969
▁த	-7.47074
▁ஆகிய	-7.48322
சா	-7.48451
▁மாவட்டத்தில்	-7.48733
ங்	-7.48842
▁தனது	-7.49467
வில்	-7.4988
▁சி	-7.50885
▁ஆனால்	-7.51174
▁அதன்	-7.51257
▁முக்கிய	-7.5163
▁இரண்டு	-7.51823
கி	-7.52484
தா	-7.53047
லை	-7.5344
▁தமிழ்	-7.5375
ரை	-7.54758
ால்	-7.54796
▁18	-7.55761
▁வளர்ச்சி	-7.55808
களையும்	-7.55823
▁இக்கோயிலில்	-7.56071
ப்படும்	-7.56735
யான	-7.56782
▁மொழி	-7.57648
▁போது	-7.58484
பா	-7.58548
ங்களை	-7.58796
த்திற்கு	-7.59453
▁தமிழ்நாடு	-7.59483
▁கொண்டுள்ளது	-7.59877
▁ப	-7.60124
▁அந்த	-7.60241
ான	-7.60739
▁வி	-7.61227
▁ஆவார்	-7.61265
'	-7.6207
▁துடுப்பாட்டப்	-7.62142
▁பெயர்	-7.62395
▁பெரிய	-7.6288
ே	-7.63086
▁இந்து	-7.64087
▁பெண்கள்	-7.64727
▁ஏ	-7.65053
தாக	-7.6537
▁இவை	-7.65736
▁எ	-7.6684
▁இருந்த	-7.67699
▁2011	-7.68075
மு	-7.68221
▁கு	-7.68247
▁மொத்த	-7.68332
ந்து	-7.68773
னை	-7.70226
▁சட்டமன்றத்	-7.70339
▁ம	-7.70883
▁என்றும்	-7.71055
▁பட்டியல்	-7.71566
த்தி	-7.71629
▁மு	-7.71657
▁முறை	-7.73074
யே	-7.73215
▁தேர்ந்தெடுக்க	-7.7325
(	-7.73532
களைக்	-7.73683
களால்	-7.76332
▁அது	-7.76453
▁சு	-7.76517
▁உள்ளனர்	-7.76962
▁மூன்று	-7.77128
இல்	-7.77584
டன்	-7.77655
▁வேண்டும்	-7.77669
கோ	-7.78065
▁1	-7.78158
▁தேசிய	-7.78243
▁நிலை	-7.78631
▁மா	-7.78915
▁மிகவும்	-7.79305
▁இங்கு	-7.79873
▁சா	-7.79896
▁ஆ	-7.80136
▁டி	-7.80176
▁அவரது	-7.80266
▁அரசு	-7.80755
▁கா	-7.81594
மே	-7.81605
▁தமிழ்நாட்டில்	-7.81718
▁தகவல்	-7.81822
▁திரு	-7.82258
ப்படுகின்றன	-7.82722
▁பூசை	-7.82793
▁பெற்ற	-7.82927
ுக்கு	-7.82934
▁கல்வி	-7.83428
▁பிற	-7.8378
▁கீழ்	-7.8389
ரோ	-7.84033
▁ஊரில்	-7.84282
▁எனும்	-7.84649
ரு	-7.84723
▁மே	-7.84782
▁ஒன்று	-7.84927
▁கே	-7.85259
▁செ	-7.8544
டை	-7.85642
▁கோ	-7.86256
லாம்	-7.86344
பு	-7.86928
▁மக்களவைத்	-7.87023
ங்களின்	-7.87037
▁தி	-7.87877
சன்	-7.88034
▁மாதம்	-7.88352
▁கால	-7.88475
▁ஆண்கள்	-7.88695
ப்பட்டு	-7.88739
▁2015	-7.88931
▁மன்ற	-7.89387
கை	-7.89401
ற்ற	-7.8954
ள	-7.90341
▁வந்த	-7.90676
▁பா	-7.90693
▁உ	-7.90732
னின்	-7.9128
▁தமிழ்நாட்டின்	-7.9173
▁தன்	-7.91825
2	-7.91874
▁பின்	-7.9248
இ	-7.92683
▁நிர்வகிக்க	-7.92821
ின்றனர்	-7.93325
ணி	-7.93352
▁இவற்றில்	-7.93947
ரின்	-7.94042
▁ஐ	-7.94153
▁கட்டுப்பாட்டில்	-7.94194
▁அவை	-7.94339
▁இருந்தது	-7.94372
யோ	-7.94496
▁2	-7.95192
▁சேர்ந்தது	-7.95268
▁அமெரிக்க	-7.96002
களாக	-7.96102
▁வகை	-7.96147
▁செய்ய	-7.96238
▁மொத்தம்	-7.9632
▁இதில்	-7.9686
டா	-7.97012
தை	-7.97459
▁கோயிலாகும்	-7.97462
ணக்கெடுப்பின்படி	-7.98003
▁5	-7.98057
▁அதிக	-7.98116
▁கலந்து	-7.98347
▁17	-7.98395
▁நூற்றாண்டைச்	-7.98437
▁தா	-7.98568
ட்டு	-7.98718
ச்சி	-7.99087
▁பல்வேறு	-7.99206
▁'	-7.99348
▁சேர்ந்த	-7.99518
▁வகைப்பாட்டில்	-7.9974
▁புதிய	-8.00061
▁பொதுவாக	-8.00215
3	-8.00407
வ்	-8.00677
▁செய்து	-8.00852
▁6	-8.00904
y	-8.00961
▁10	-8.0146
காலப்	-8.0155
▁இவர்களில்	-8.01563
ங்க	-8.01651
▁ஓர்	-8.01902
ட்டி	-8.02026
▁அறநிலையத்துறைய	-8.0203
▁பகுதி	-8.02815
▁போர்	-8.02907
ண	-8.02933
"),	-8.03182
▁ஆறு	-8.03487
▁ஆர்	-8.04069
▁மிக	-8.04252
▁திருக்கோயில்	-8.0502
▁4	-8.0513
ுதல்	-8.0538
▁துறையின்	-8.05465
▁உலக	-8.05864
▁ந	-8.0616
மீ	-8.06691
ோ	-8.07161
▁3	-8.07478
யாகும்	-8.08212
ஜி	-8.08299
ங்களும்	-8.0924
றி	-8.09336
ிலும்	-8.09477
▁அன்று	-8.09824
▁முதன்மைத்	-8.10014
வது	-8.10369
▁இவரது	-8.10487
▁அணி	-8.10611
யர்	-8.10679
மாகும்	-8.10705
ரே	-8.10833
▁தொகுக்கப்பட்ட	-8.11401
களுடன்	-8.1171
▁விட	-8.11761
▁பகுதியில்	-8.11849
களைப்	-8.1223
▁ஊரக	-8.12395
▁தொகுதி	-8.12459
▁கீழ்க்கண்ட	-8.12604
▁இந்தியாவின்	-8.13105
▁பிறகு	-8.1325
0	-8.13381
▁அடி	-8.13614
▁15	-8.1424
▁தொகுதிகளைக்	-8.14541
ஆ	-8.14626
▁பணி	-8.14638
▁தர	-8.14745
▁16	-8.1482
▁நீர்	-8.14863
▁மன்றத்	-8.15033
▁காலத்தில்	-8.15271
▁அளவு	-8.15277
க்கி	-8.15658
▁ஊராட்சியில்	-8.15668
▁பரம்பரை	-8.15736
▁Gram	-8.15785
▁கலை	-8.15792
▁இட	-8.15845
▁Panchayat	-8.16002
▁படி	-8.16158
▁தரவின்படி	-8.16364
▁உறுப்பினர்களைத	-8.16498
▁காரணமாக	-8.16733
▁அவர்கள்	-8.16811
▁உட்பட்டதாக	-8.16967
▁துடுப்பாட்ட	-8.17112
▁ஆண்டுத்	-8.17174
▁தொடர்ந்து	-8.17215
▁தான்	-8.1728
ினார்	-8.17346
▁பூ	-8.17353
▁நடக்கின்றது	-8.17389
லோ	-8.174
▁நாள்	-8.17405
",	-8.17638
▁வட்டாரத்தில்	-8.17711
▁அல்லாத	-8.18416
n	-8.18584
▁கை	-8.18964
ய்	-8.19206
▁ஊராட்சித்	-8.19609
வோ	-8.19895
P	-8.20262
யுடன்	-8.20327
க்கா	-8.20393
ுகிறது	-8.20592
▁இசை	-8.20675
▁பத்தொன்பதாம்	-8.20728
▁நான்கு	-8.20829
▁வெற்றி	-8.21147
▁8	-8.2135
▁ஒவ்வொரு	-8.21754
▁போ	-8.22015
▁அனைத்து	-8.22101
▁12	-8.22345
ட்ட	-8.22666
லே	-8.2284
S	-8.23043
கே	-8.23045
ற	-8.23156
யானது	-8.23248
கம்	-8.23335
▁சிற்றூர்கள	-8.23512
▁வெளிவந்த	-8.23671
▁ஓ	-8.24036
5	-8.2427
▁சிறந்த	-8.2443
▁பொருள்	-8.24508
▁மற்ற	-8.24583
வன்	-8.24583
று	-8.24602
▁அமைப்பு	-8.24607
▁மலை	-8.24778
ாத	-8.24886
ப்பட்டுள்ளது	-8.2491
▁அறங்காவலர்	-8.24958
▁மீது	-8.25206
▁பு	-8.25407
▁நா	-8.25416
▁மட்டுமே	-8.25753
ிற்கு	-8.25934
போது	-8.26066
ான்	-8.26091
கர்	-8.26128
டோ	-8.26693
தான்	-8.26712
தால்	-8.26719
க்கான	-8.26744
ஷ்	-8.27495
விட	-8.27595
னோ	-8.27971
▁சென்னை	-8.28129
வர்கள்	-8.2869
களிலும்	-8.28897
▁வெளி	-8.28932
▁ஆய்வு	-8.28998
al	-8.29056
▁சார்ந்த	-8.29551
▁து	-8.29785
ப்பட	-8.29987
▁அரச	-8.30442
ுடன்	-8.30459
▁இலங்கை	-8.30552
▁பல்கலைக்கழக	-8.30588
▁நடைபெறுகிறது	-8.30668
ள்	-8.30767
ானது	-8.31047
போ	-8.31068
▁திரைப்பட	-8.31162
யிலும்	-8.31465
▁பெண்	-8.31904
▁9	-8.32
ுள்ள	-8.3204
▁இதனால்	-8.32089
▁அமைப்பால்	-8.321
▁சிறு	-8.32107
யால்	-8.32135
▁20	-8.32224
▁உருவாக்க	-8.3239
▁சிறிய	-8.32479
▁பற்றிய	-8.32481
A	-8.32558
▁எண்	-8.32706
▁உற்பத்தி	-8.32716
▁துணை	-8.32781
ிலிருந்து	-8.3282
நிலை	-8.3283
னார்	-8.3297
▁பெற்றார்	-8.33134
▁நில	-8.33176
▁மனித	-8.33203
C	-8.33309
▁மேல்	-8.33378
▁வட	-8.33412
▁மாற்ற	-8.33491
1	-8.33512
▁இயக்க	-8.33554
யி	-8.33727
யைக்	-8.33797
▁நோய்	-8.33804
▁முன்	-8.3392
லின்	-8.3415
▁ஈ	-8.34271
மோ	-8.34337
▁பள்ளி	-8.34444
▁ஐக்கிய	-8.34448
▁இன	-8.3447
▁பெற	-8.34564
▁பெரும்	-8.34749
4	-8.34789
▁என்பவர்	-8.34818
▁மாநில	-8.3487
யு	-8.35043
ச்ச	-8.35175
ாமல்	-8.35227
ண்ட	-8.35437
▁சமூக	-8.35766
▁14	-8.35771
உ	-8.3578
▁தென்	-8.35933
▁குறிப்பிட்ட	-8.35963
தே	-8.36283
▁கொ	-8.36297
ியல்	-8.36317
▁வரும்	-8.36319
யிலிருந்து	-8.3637
த்துக்கு	-8.36394
▁மெ	-8.36798
வர	-8.37001
▁படை	-8.37093
த்திலும்	-8.37578
▁வழி	-8.37641
▁பிறப்பு	-8.3776
▁ஒரே	-8.3829
ாகும்	-8.38309
சோ	-8.38367
▁சட்ட	-8.38409
▁பற்றி	-8.38426
▁மீண்டும்	-8.38555
ளி	-8.38644
ப்பி	-8.3872
▁வ	-8.38892
செ	-8.38906
▁பெ	-8.38942
க்கள்	-8.39351
▁பொது	-8.39392
▁வர	-8.39493
B	-8.39608
ியது	-8.39804
▁இருப்பினும்	-8.39885
ண்டு	-8.4009
▁போட்டிகளில்	-8.4028
▁கொள்ள	-8.40452
▁[[	-8.41092
▁எஸ்	-8.41506
M	-8.41541
▁ஆட்சி	-8.41729
▁இரண்டாம்	-8.42377
▁நகர	-8.42501
]]	-8.42591
▁இந்தியா	-8.42619
த்தா	-8.42668
ுள்ளார்	-8.42967
▁வினை	-8.43046
மானது	-8.43323
▁தேர்வுத்	-8.43418
▁தலை	-8.43552
▁நூல்	-8.43577
▁மேற்கு	-8.43905
ங்கு	-8.43938
E	-8.44049
▁பட்ட	-8.44293
ப்பா	-8.44486
வில்லை	-8.44549
ஏ	-8.44625
த்துடன்	-8.44638
எ	-8.44827
படி	-8.45033
ட்டா	-8.45063
▁ஒ	-8.45371
▁இன்	-8.45427
புரம்	-8.45561
சை	-8.45638
▁அறிவியல்	-8.45676
▁பட	-8.45856
ங்களுக்கு	-8.45967
▁ஸ்	-8.46169
▁11	-8.46383
▁வேலை	-8.46429
ையும்	-8.46493
▁அம்மன்	-8.46745
ழி	-8.46785
மன்	-8.46821
ுவது	-8.47318
▁இல்லை	-8.47365
▁S	-8.47536
o	-8.47745
ிருந்த	-8.47869
8	-8.4792
▁எம்	-8.48016
▁தற்போது	-8.48041
▁வழங்க	-8.48146
ழ	-8.48279
▁செய்த	-8.48405
▁காணப்படும்	-8.48419
6	-8.48985
▁தீ	-8.49014
▁நி	-8.49099
▁துறை	-8.49143
▁சே	-8.49436
முறை	-8.49437
▁கூட	-8.49746
▁வா	-8.49972
▁கதை	-8.50045
▁செல்ல	-8.50047
▁பிர	-8.50117
▁ஆக	-8.50162
யூ	-8.50192
▁ஒளி	-8.5028
க்கூடிய	-8.50405
▁கிழக்கு	-8.50469
யையும்	-8.5053
▁கட்சி	-8.50756
த்திலிருந்து	-8.50855
ோர்	-8.511
▁அளவில்	-8.51266
யைப்	-8.51309
▁of	-8.51692
%	-8.51699
p	-8.51773
ற்று	-8.51784
க்கோ	-8.51904
▁நாடு	-8.51953
▁முடியும்	-8.5211
யம்	-8.52296
ுகின்றன	-8.52366
”	-8.52399
▁தொடர்	-8.52496
க்காக	-8.5264
▁தனி	-8.52741
▁கொண்டது	-8.52751
u	-8.52778
▁இடம்	-8.52883
▁மின்	-8.52951
▁உயர்	-8.53028
களுக்கும்	-8.53166
ர்கள்	-8.53214
னே	-8.53319
▁சோ	-8.53394
▁பே	-8.53495
▁உணவு	-8.53788
ைக்	-8.54094
ாலும்	-8.54134
▁ஜ	-8.54142
▁தந்தை	-8.54266
▁13	-8.54285
▁மர	-8.54836
நா	-8.54902
O	-8.54911
ிறது	-8.54978
ுள்ளன	-8.55152
in	-8.55203
▁கடல்	-8.55282
▁நாட்டின்	-8.55295
தன்	-8.5535
ஞ்ச	-8.55534
▁உண்டு	-8.55562
▁நிறுவனம்	-8.55729
▁அதே	-8.55764
ரிய	-8.55792
வரை	-8.55824
▁அரசியல்	-8.55994
▁நிலையில்	-8.56034
▁போல	-8.56066
▁ஐந்து	-8.56304
▁அடிப்படையில்	-8.56371
த்தால்	-8.56386
▁அக்டோபர்	-8.56874
▁வணிக	-8.56914
ரும்	-8.57147
▁பெரும்பாலும்	-8.57183
▁சிறப்பு	-8.57352
▁மி	-8.57553
t	-8.57794
▁சுமார்	-8.57956
▁ஒன்றாகும்	-8.58024
▁என்பதை	-8.58329
ள்ள	-8.58338
▁கரு	-8.58338
▁ஹ	-8.58475
▁மத்திய	-8.58486
ங்கி	-8.58607
r	-8.58638
▁இணைந்து	-8.58723
an	-8.58761
ந	-8.58808
▁ஆகியவை	-8.58818
த்தையும்	-8.5901
▁இதை	-8.59181
▁என்	-8.59267
▁மணி	-8.59273
ிருக்கும்	-8.59491
▁முதல்தர	-8.60075
ட்டை	-8.60213
▁முதலில்	-8.6025
▁C	-8.60312
▁இதற்கு	-8.60435
ண்	-8.60862
▁மீ	-8.61025
▁–	-8.6105
▁குறைந்த	-8.61198
▁இங்கிலாந்து	-8.613
▁எனப்படும்	-8.61358
9	-8.61587
▁திருவிழாவாக	-8.6161
வியல்	-8.6172
▁கூடிய	-8.61873
▁சமய	-8.61895
▁இருக்கிறது	-8.61912
▁குழு	-8.62184
தாகவும்	-8.62211
▁இதனை	-8.62426
▁பாட	-8.62502
▁சென்று	-8.62643
▁நிற	-8.62645
▁இந்தியாவில்	-8.62684
e	-8.62868
▁தேவை	-8.62929
D	-8.6295
சாமி	-8.6308
▁தொழில்	-8.63205
▁கல்லூரி	-8.63393
▁குறிப்பிட	-8.63558
டர்	-8.6356
▁ஆண்டுகளில்	-8.63596
▁பேர்	-8.63656
றை	-8.63719
F	-8.63769
▁ஆங்கில	-8.63808
▁காலம்	-8.63823
ஜ	-8.63973
’	-8.63992
▁எனவே	-8.64131
▁எந்த	-8.64163
▁கோவில்	-8.64179
▁அணியின்	-8.64271
▁சேவை	-8.64289
▁நவம்பர்	-8.64342
▁சீ	-8.644
தாகும்	-8.6444
ூர்	-8.64462
▁மாவட்ட	-8.64532
i	-8.64596
▁விருது	-8.64609
ினால்	-8.64679
▁மீட்டர்	-8.64695
ுவதற்கு	-8.64814
▁காண	-8.6491
c	-8.64913
▁வடிவ	-8.65183
▁வெப்ப	-8.65287
▁எழுதிய	-8.65412
▁இருந்தார்	-8.65764
ண்டி	-8.65967
▁கண்ட	-8.66152
▁கிராம	-8.66347
N	-8.66368
டைய	-8.66591
▁ஒலி	-8.66638
ந்தி	-8.66671
▁வேறு	-8.6694
ருக்கு	-8.67194
▁வெ	-8.67537
▁கட்ட	-8.67573
க்காரர்	-8.67986
▁வீர	-8.68035
▁நிலையம்	-8.68164
▁அங்கு	-8.68495
சே	-8.68565
▁முறையில்	-8.6867
b	-8.6868
▁கார்	-8.68745
▁வருகிறது	-8.68888
▁மருத்துவ	-8.68915
▁சிவ	-8.68993
▁குழந்தை	-8.69054
m	-8.69143
▁எனினும்	-8.6929
ற்	-8.69465
பூ	-8.6954
லு	-8.69622
ண்ட்	-8.69728
H	-8.69738
▁உயிர்	-8.69933
களுக்கான	-8.70195
)"	-8.70217
▁புற	-8.70239
▁மூல	-8.70439
▁எனவும்	-8.70488
தர	-8.70675
▁சதுர	-8.70997
▁செப்டம்பர்	-8.71103
▁அதில்	-8.7111
a	-8.71169
டே	-8.71171
▁குரு	-8.71172
▁பெற்றது	-8.715
7	-8.71557
▁பெருமாள்	-8.71559
▁போட்டியில்	-8.71663
▁வே	-8.71703
▁வழியாக	-8.72071
▁சங்க	-8.72176
▁நடந்த	-8.72226
▁பங்கு	-8.72309
▁A	-8.72356
▁நல்ல	-8.72416
எஸ்	-8.7253
ங்களையும்	-8.72674
ராக	-8.7272
▁ர	-8.72734
ஜ்	-8.72753
த்தைக்	-8.72759
களான	-8.72775
▁பொ	-8.72912
▁குறிப்பிடத்தக்க	-8.72929
▁விளக்க	-8.73054
▁P	-8.73191
லில்	-8.73285
▁மறு	-8.73295
▁மாத	-8.73353
ur	-8.73467
▁மைய	-8.73468
▁பாடல்	-8.73507
▁இந்தப்	-8.73623
யன்	-8.73685
▁மகா	-8.73688
▁பிறந்த	-8.73697
▁தொடர்பு	-8.73708
▁திரைப்படம்	-8.73709
▁செய்யும்	-8.73825
தில்	-8.7385
T	-8.73937
▁ஸ்ரீ	-8.74249
▁குறிப்பாக	-8.74277
▁தோ	-8.74583
▁பெரு	-8.74895
▁ஆகியோர்	-8.749
▁கொண்டுள்ளார்	-8.74954
▁போட்டிகளிலும்	-8.7503
ப்பட்டன	-8.75117
▁2008	-8.75446
ரியா	-8.75554
▁தமிழ்த்	-8.7559
▁பகுதிகளில்	-8.75648
பே	-8.75811
on	-8.75918
▁“	-8.75995
L	-8.76033
▁"(	-8.76055
▁மட்டும்	-8.76078
ணை	-8.76108
▁சொல்ல	-8.7614
ஐ	-8.76177
பர்	-8.7633
▁உடல்	-8.76412
▁வகையில்	-8.76478
தோ	-8.76512
▁வடக்கு	-8.76717
க்கை	-8.76882
வரும்	-8.77035
▁B	-8.77145
▁30	-8.7716
▁ஏற்படும்	-8.77239
G	-8.77282
▁ஏற்பட்ட	-8.77285
▁இலக்கிய	-8.77286
ங்களிலும்	-8.77446
ழு	-8.77589
▁தலைவர்	-8.77717
en	-8.77761
▁இரண்டாவது	-8.77788
▁நாடுகளில்	-8.7782
மலை	-8.7787
▁காட்சி	-8.77911
னால்	-8.7792
ப்பட்டார்	-8.77971
▁சிகிச்சை	-8.78372
▁தன்மை	-8.78445
ினை	-8.78537
▁பால	-8.786
▁அதற்கு	-8.78616
▁மதுரை	-8.78764
▁நகரம்	-8.78992
▁அதை	-8.79129
க்ஸ்	-8.79175
பூர்	-8.79441
▁மில்லியன்	-8.79576
▁முழு	-8.79772
er	-8.79808
▁புனித	-8.79855
▁சொல்	-8.79924
g	-8.80013
▁போன்றவை	-8.80272
▁இடத்தில்	-8.80347
▁நேர	-8.80509
▁ஜி	-8.80647
▁பிரிவு	-8.8077
▁செல்லும்	-8.80831
▁காணப்படுகிறது	-8.80987
கன்	-8.81122
ப்பட்டுள்ளன	-8.81184
ar	-8.81345
ம்பு	-8.81367
சர்	-8.81382
▁செய்யப்பட்ட	-8.81467
▁கிலோ	-8.81561
சின்	-8.81609
▁பிறந்தார்	-8.81651
▁எனக்	-8.8202
▁இருக்க	-8.82078
▁போட்டி	-8.82156
▁பெற்று	-8.82202
▁மத	-8.82377
ச்சு	-8.82382
▁25	-8.82475
h	-8.82513
ப்படுத்த	-8.82658
வாக	-8.827
▁பெரும்பாலான	-8.82786
▁கெ	-8.82944
▁ஏப்ரல்	-8.82991
விற்கு	-8.8316
▁(19	-8.83182
ங்கா	-8.83344
▁லா	-8.83401
▁சம	-8.83486
கிறது	-8.83787
க்குப்	-8.83788
▁அமைந்த	-8.83957
▁ஆண்ட	-8.83981
x	-8.84343
▁அணு	-8.84372
தல்	-8.84604
▁பாதுகாப்பு	-8.84758
▁2009	-8.8478
▁நூற்றாண்டில்	-8.84857
▁அதிகமாக	-8.84897
▁எதிர்	-8.84927
I	-8.84999
▁ஊர்	-8.85
▁ஆராய்ச்சி	-8.85105
or	-8.85126
▁முக்கியமான	-8.8516
▁எழுத	-8.85308
▁அடிப்படை	-8.855
▁நாட்டு	-8.85517
யார்	-8.8555
ப்படுகின்றது	-8.85586
வழி	-8.85604
களைத்	-8.85624
▁வந்து	-8.85718
▁முறைப்படி	-8.85723
▁பிரி	-8.85734
▁பயிற்சி	-8.85857
▁சீன	-8.86008
▁பழைய	-8.86053
னிய	-8.86135
ஸ்ட்	-8.86163
▁பதி	-8.86285
▁ஒருவர்	-8.863
▁அல்	-8.86311
▁தொலைக்காட்சி	-8.8653
▁ஊ	-8.86532
▁இறுதி	-8.86718
▁காணப்படுகின்றன	-8.86997
▁தமிழக	-8.87051
▁உதவி	-8.87108
▁வந்தது	-8.87114
br	-8.87173
வான	-8.87177
ைப்	-8.87294
▁மக்களின்	-8.87591
▁ஆண்டின்	-8.87918
▁நடைபெற்ற	-8.87954
▁வைத்து	-8.8797
▁தலைமை	-8.87993
▁நிதி	-8.88056
▁தங்கள்	-8.88096
தம்	-8.88148
▁M	-8.88551
▁இயற்கை	-8.88779
▁சட்டமன்ற	-8.88785
▁அருகில்	-8.88948
▁19	-8.89326
சிய	-8.89414
▁விளையாட்டு	-8.89415
▁=	-8.89544
▁பயன்படுத்தி	-8.8967
R	-8.89693
ing	-8.89794
▁மன	-8.89832
த்தைப்	-8.89836
▁பிரித்தானிய	-8.89968
▁வட்ட	-8.90045
ளை	-8.90061
ாகவும்	-8.90093
தற்கு	-8.90271
▁அழைக்க	-8.90305
▁அக	-8.90325
▁எல்லா	-8.9051
19	-8.90575
▁கூட்ட	-8.90717
▁சராசரி	-8.90726
▁மூலமாக	-8.90735
பின்	-8.90899
▁வழக்கு	-8.90942
னும்	-8.9111
k	-8.91214
f	-8.91268
▁2010	-8.91303
▁நீண்ட	-8.91446
சார்	-8.9153
▁இணை	-8.91555
களுள்	-8.91603
▁குறிக்கும்	-8.91638
▁திகதி	-8.91714
▁நோக்க	-8.91717
▁‘	-8.91784
ப்பட்டி	-8.91914
▁காட்ட	-8.92049
ப்பை	-8.92148
▁பால்	-8.92199
▁ஆண்	-8.92299
▁மாநிலத்தில்	-8.92427
▁தங்க	-8.9257
▁தமது	-8.92574
▁பெயரில்	-8.92579
▁தெற்கு	-8.92646
▁செய்தார்	-8.92713
▁நியூ	-8.92719
▁ரா	-8.92722
ின	-8.92733
ோடு	-8.92884
▁முதன்மை	-8.92932
▁2007	-8.93015
ுகின்றனர்	-8.93096
20	-8.93178
னுக்கு	-8.9319
▁விமான	-8.93284
ங்களைக்	-8.93346
▁கணினி	-8.93583
ுகிறார்	-8.93602
▁வரலாறு	-8.93683
▁உறுப்பினர்	-8.93851
▁உறுப்பினராக	-8.94077
▁இத்திரைப்படத்த	-8.94134
▁முக	-8.94474
சீ	-8.94606
▁கோட்டை	-8.94655
ிட	-8.94748
▁தொலைவில்	-8.94786
|	-8.94828
▁விட்டு	-8.94946
▁எண்ண	-8.95029
பட்ட	-8.95201
▁பை	-8.95206
▁பொருளாதார	-8.95276
▁ஒன்றாக	-8.95278
த்தல்	-8.95393
யைத்	-8.95457
V	-8.95527
K	-8.95683
▁அவருடைய	-8.95692
▁நோ	-8.95696
▁கருதப்படுகிறது	-8.95859
பட	-8.9593
கொ	-8.95953
▁இவருக்கு	-8.96026
▁எண்ணிக்கை	-8.96078
▁புள்ளி	-8.96158
ஃப்	-8.96177
த்துறை	-8.96225
பெ	-8.96236
▁24	-8.96317
கள	-8.96355
▁பதிவு	-8.96451
▁நிலைய	-8.96526
ஞ்சி	-8.9653
▁குடும்ப	-8.96585
என்	-8.96703
▁நகர்	-8.96719
▁தடை	-8.96765
▁தேதி	-8.96857
▁நகரில்	-8.96928
▁இவ்வ	-8.97307
▁நீ	-8.97343
▁formula	-8.9744
ங்களாக	-8.97444
▁எரி	-8.97467
ஹ	-8.97528
▁முயற்சி	-8.97558
ூ	-8.9756
க்கப்பட்ட	-8.97731
ரெ	-8.97787
▁மேற்பட்ட	-8.97845
▁மகன்	-8.97893
▁சேர்ந்து	-8.97928
▁குறித்த	-8.97966
▁மனைவி	-8.98268
▁அவருக்கு	-8.98303
ுகின்றது	-8.98344
▁2006	-8.98397
▁ஏரி	-8.98601
வுக்கு	-8.98603
▁முழுவதும்	-8.98652
▁பதவி	-8.98708
▁வாழ்க்கை	-8.98712
ிக்க	-8.98734
▁எந்தவொரு	-8.9874
▁இடங்களில்	-8.98784
▁மாரியம்மன்	-8.98882
▁G	-8.98906
▁அதாவது	-8.99087
▁நோக்கி	-8.99094
மணி	-8.99183
]	-8.99498
ும்போது	-8.99588
▁பேர	-8.99592
▁பக்க	-8.99639
▁அறிய	-8.99798
▁நாடுகள்	-8.9999
தர்	-9.00124
us	-9.00184
ஷ	-9.00268
▁திட்ட	-9.00326
▁டை	-9.00329
ப்படி	-9.00332
▁பங்குகொண்டார்	-9.00405
விய	-9.00433
வாய்	-9.00517
▁செலுத்த	-9.00601
▁கொள்கை	-9.00612
▁சூ	-9.00671
▁போட்டியிலும்	-9.00742
▁ஆண்டுகள்	-9.00745
▁உலகின்	-9.00829
▁மோ	-9.00836
▁இவர்கள்	-9.00895
ரீ	-9.00937
▁ரோ	-9.00959
▁அடுத்த	-9.01051
▁எல்லை	-9.01108
▁தொழில்நுட்ப	-9.01111
▁F	-9.01197
யாகவும்	-9.01216
▁இவ்வாறு	-9.01313
ஹா	-9.0139
▁H	-9.01435
▁வரலாற்று	-9.01442
▁ஆற்றல்	-9.01453
▁ராஜ	-9.01587
ட்டோ	-9.01782
▁தவிர	-9.019
▁பீ	-9.01929
▁செல்வ	-9.02057
▁மதிப்பு	-9.02141
மாகவும்	-9.02179
▁நூற்றாண்டு	-9.02232
ுள்ளனர்	-9.02338
▁சோதனை	-9.02353
▁உள்ளிட்ட	-9.02358
▁பார்	-9.02499
▁தேர்தல்	-9.02651
▁அவரை	-9.02743
வுடன்	-9.02749
▁நிர்வாக	-9.02772
▁சக்தி	-9.02876
▁மார்ச்	-9.02886
▁திருவிழா	-9.02984
பட்டி	-9.03302
▁இணைய	-9.03392
ஜா	-9.03398
▁கருத்து	-9.03407
ிருந்தது	-9.03487
வெ	-9.03489
▁நடைமுறை	-9.03502
▁தேவ	-9.0364
வந்த	-9.03674
ம்ப	-9.03855
▁தாய்	-9.04068
▁இந்தக்	-9.0407
▁நடவடிக்கை	-9.04107
▁நாடக	-9.04471
▁தே	-9.046
லூர்	-9.04617
பை	-9.04619
▁வரிசை	-9.04702
▁சென்ற	-9.04748
▁பட்டம்	-9.04751
▁உரிமை	-9.04864
▁இடையே	-9.04893
யின	-9.05006
மார்	-9.05079
ிக்	-9.05156
ீ	-9.05181
▁தீவு	-9.05182
▁கிளை	-9.0542
el	-9.05513
▁யூ	-9.0553
▁கூ	-9.05617
▁சின்ன	-9.05629
▁அரசின்	-9.05674
லீ	-9.05684
▁கருவி	-9.05833
த்தார்	-9.0584
▁ஆசிரியர்	-9.05918
▁மாநிலத்தின்	-9.05983
மான்	-9.06081
▁அவற்றின்	-9.06156
▁1,	-9.06301
▁எதிராக	-9.06443
லெ	-9.06454
னு	-9.0652
▁திருமணம்	-9.06585
▁பெர்	-9.06716
▁2001	-9.0682
▁அப்போது	-9.06843
▁கடைசியாக	-9.06964
ரம்	-9.07013
▁சுற்றி	-9.07037
ிடம்	-9.0711
▁நிறுவன	-9.07111
am	-9.07233
ரால்	-9.07241
அழைக்கப்படுகிறது	-9.07316
▁திட்டத்தின்	-9.0742
▁மொ	-9.07535
▁திரைப்படமாகும்	-9.07537
▁பிரதேச	-9.077
▁இருப்பதால்	-9.07724
களே	-9.07874
▁கள	-9.07922
ப்பகுதி	-9.07963
▁மொழியில்	-9.08044
▁வேண்டிய	-9.08065
▁நம்பிக்கை	-9.08095
▁21	-9.08224
மொழி	-9.0828
▁இறப்பு	-9.08285
▁தாக்க	-9.08292
▁உரை	-9.08397
l	-9.08398
▁சாலை	-9.08438
▁சிவன்	-9.08496
பதி	-9.08506
▁the	-9.08729
ின்றன	-9.08745
▁சூரிய	-9.08773
▁முடிவு	-9.088
த்திய	-9.0889
▁உருவாக்கப்பட்ட	-9.09107
மெ	-9.0915
▁விலை	-9.09157
▁அலை	-9.09214
ாது	-9.09221
ெ	-9.0933
வால்	-9.09408
▁கூற	-9.09415
மங்கலம்	-9.0943
▁முன்னாள்	-9.09442
▁போல்	-9.09476
▁செயல்	-9.09497
▁மற்றொரு	-9.09688
னில்	-9.09825
▁லி	-9.09975
–	-9.10378
▁புகழ்	-9.10417
எம்	-9.10549
10	-9.10685
50	-9.10734
▁கால்	-9.1076
▁D	-9.10784
▁வை	-9.10884
▁வரி	-9.10932
▁ஆரம்ப	-9.11024
▁செய்தி	-9.11084
▁கல	-9.11125
▁உடன்	-9.11309
▁குறித்து	-9.11342
நி	-9.11553
▁வெள்ளை	-9.11583
▁புது	-9.1172
னியா	-9.11859
ட்ஸ்	-9.11883
திரு	-9.11904
வன	-9.12004
▁தாவர	-9.12019
▁அமில	-9.12065
யைச்	-9.12091
தும்	-9.12178
▁விடுதலை	-9.1225
▁யா	-9.12473
▁வாழும்	-9.12492
▁ரி	-9.12645
▁ஆகியவற்றை	-9.12682
▁இலங்கையின்	-9.12764
▁உள்ளார்	-9.12765
▁கொண்டார்	-9.12798
லம்	-9.12895
▁அமெரிக்கா	-9.12898
சம்	-9.12915
த்தைச்	-9.12932
ிலுள்ள	-9.13028
▁தேர்வு	-9.1324
▁தேர்தலில்	-9.13301
▁தெ	-9.13493
வீ	-9.13649
▁விதி	-9.13726
கல்	-9.13742
த்தினை	-9.13809
▁எழுத்து	-9.13879
▁வந்தார்	-9.13966
▁பன்னாட்டு	-9.14086
ண்டா	-9.14115
யுள்ள	-9.1414
▁ஏற்ற	-9.14184
il	-9.14229
▁வாழ்ந்த	-9.14249
▁குடி	-9.14363
வல்	-9.1442
ch	-9.14439
▁இக்	-9.14471
▁தொடர்பான	-9.14507
ந்தா	-9.14534
▁2014	-9.14561
ாளர்	-9.14578
▁ஐரோப்பிய	-9.14725
▁சுவாமி	-9.14951
னூர்	-9.15026
▁பார்க்கப்பட்ட	-9.15071
ரன்	-9.15082
ஸ	-9.1513
ிருந்தார்	-9.15192
▁மன்னர்	-9.15235
▁N	-9.15298
▁கரை	-9.15303
▁ஏழு	-9.15353
▁எனப்	-9.15379
▁ஒத்த	-9.15413
மர்	-9.15497
▁வசதி	-9.15619
▁வகையான	-9.15644
▁இயக்கத்தில்	-9.15649
கிரி	-9.15663
▁தள	-9.15698
▁அவர்களின்	-9.15775
வான்	-9.15778
கால	-9.16025
▁சனவரி	-9.16056
யினை	-9.16164
_	-9.16166
▁கான்	-9.1627
▁ஜான்	-9.16419
▁வங்கி	-9.16487
ைத்	-9.16537
▁தம்	-9.16574
▁நடித்த	-9.16633
ri	-9.16681
களாகும்	-9.16717
▁பேச	-9.16811
ழை	-9.17025
திரைப்படம்	-9.17227
த்தூர்	-9.17261
▁2012	-9.17266
▁அதனால்	-9.17378
▁தயாரிக்க	-9.17442
▁இரத்த	-9.17455
▁ஒன்றை	-9.17519
கர	-9.17542
▁மாதிரி	-9.17593
▁27	-9.17632
▁சட்டம்	-9.17674
▁மூன்றாம்	-9.17767
▁டிசம்பர்	-9.17778
▁மறை	-9.17809
▁புவி	-9.17882
முக	-9.17919
▁சேர்த்து	-9.17923
▁டெ	-9.17953
▁ஆடி	-9.17967
▁இல்லாத	-9.17993
▁வைக்க	-9.18017
le	-9.18117
▁அதிகமான	-9.18134
▁தமிழ	-9.18182
▁ஜா	-9.1821
▁மாகாண	-9.18235
ப்போ	-9.18354
▁தொடக்க	-9.184
ol	-9.18478
▁சர்வதேச	-9.18623
▁கண்	-9.18731
ளா	-9.18876
▁அதனை	-9.18945
▁ஹா	-9.19097
▁நெ	-9.19182
சுவாமி	-9.19381
▁எழுத்தாளர்	-9.19398
▁நவீன	-9.19455
▁கொள்ளவில்லை	-9.19466
சூ	-9.19729
ic	-9.19733
▁22	-9.19742
கார்	-9.19783
▁விளையாட்டுவீரர்	-9.19848
ணு	-9.20009
▁விபரக்குறிப்பு	-9.20142
▁தஞ்சாவூர்	-9.20172
▁மிகப்பெரிய	-9.20226
▁E	-9.2037
க்கல்	-9.20568
ஓ	-9.20612
ரான	-9.20625
▁திறன்	-9.20696
லும்	-9.20718
▁2005	-9.20763
▁மிகப்	-9.21003
▁வானூர்தி	-9.21061
▁இராணுவ	-9.21102
▁இடை	-9.21248
சியா	-9.21304
பாளையம்	-9.21315
▁குறி	-9.21323
▁உலோக	-9.21337
▁வேதியியல்	-9.21488
▁சபை	-9.21579
▁வெப்பநிலை	-9.21622
▁தமிழர்	-9.21751
▁ட	-9.21864
30	-9.21868
▁சிங்	-9.22214
▁பகுதிகள்	-9.22258
▁ஆல்	-9.22327
ra	-9.2248
▁உயர்ந்த	-9.2254
▁கீ	-9.22581
▁குறிக்க	-9.22583
▁பொதுவான	-9.22689
at	-9.22719
▁மூ	-9.22833
ன்ஸ்	-9.22842
▁கிரேக்க	-9.22903
▁விற்பனை	-9.22942
▁ஜெ	-9.22965
▁அறிமுகப்படுத்த	-9.23034
▁நூற்றாண்டின்	-9.23221
U	-9.23238
▁இருக்கலாம்	-9.23244
▁வயது	-9.23429
▁நடத்த	-9.2345
▁முன்னர்	-9.23452
ஆர்	-9.23462
▁செல்	-9.23676
▁எழுதி	-9.23785
▁டா	-9.23883
▁ஆண்டுகளுக்கு	-9.24068
தீ	-9.24101
▁மரபு	-9.24234
டின்	-9.24243
▁)	-9.24306
ணம்	-9.24419
▁100	-9.24655
▁இவரின்	-9.24712
▁கட்டிட	-9.24747
றிய	-9.24803
▁பரவலாக	-9.25078
▁தொகுப்பு	-9.25084
▁நாக	-9.25375
ுடைய	-9.2539
ாய்	-9.2541
▁சை	-9.25418
!	-9.25418
▁மிகுந்த	-9.25492
ல்லா	-9.255
பீ	-9.25555
▁தலைவராக	-9.25579
▁பருவ	-9.25731
த்திற்கான	-9.25931
▁நிறுத்த	-9.2598
▁அடுத்து	-9.26079
▁இன்று	-9.26156
க்குள்	-9.2616
▁முனை	-9.26249
ரூ	-9.26276
▁கருத	-9.26378
யிட	-9.26379
ுக்கும்	-9.26427
▁மாவட்டத்தின்	-9.26493
ிருக்கிறது	-9.26541
▁கிமீ	-9.26649
▁இருந்தன	-9.26708
ாள்	-9.26717
மர	-9.26773
▁நடு	-9.26976
▁அமைக்கப்பட்ட	-9.2699
▁T	-9.27025
▁மண	-9.27095
▁ஓட்ட	-9.2731
▁குறைவான	-9.27367
ற்ப	-9.27405
னாக	-9.27413
ைச்	-9.27597
▁2004	-9.27761
▁2013	-9.27779
த்தான்	-9.27784
▁மார்	-9.27837
▁கொண்டிருக்கும்	-9.27886
▁எதிரான	-9.27942
▁அணை	-9.28026
▁நேரத்தில்	-9.28098
▁23	-9.2818
▁மண்டல	-9.28214
▁ஹெ	-9.28265
▁நடிகர்	-9.28334
வார்	-9.2836
▁கரிம	-9.28523
▁இப்	-9.28562
வகை	-9.28628
களைச்	-9.28683
▁கட்டுப்படுத்த	-9.28942
▁இராம	-9.28945
▁வீரர்	-9.28975
பொ	-9.29113
ுவதற்காக	-9.29239
▁பரிசு	-9.29289
▁உறுதி	-9.29435
களிலிருந்து	-9.29489
▁சந்தை	-9.29551
▁2000	-9.29563
லர்	-9.29608
▁தமிழில்	-9.29675
▁நிகழ்ச்சி	-9.29693
▁முதலாம்	-9.29768
▁இறந்த	-9.29842
ாள	-9.2985
▁வார	-9.29966
ளவு	-9.29984
▁பனி	-9.30007
▁[	-9.30046
▁K	-9.30067
ப்பர்	-9.30105
▁அவற்றை	-9.30109
z	-9.30234
▁குண	-9.30267
▁ல்	-9.30393
▁கல்	-9.30449
▁பௌத்த	-9.30499
▁விநாயகர்	-9.30516
▁லெ	-9.30554
டெ	-9.30555
▁பிள்ளை	-9.30566
▁பல்	-9.30607
▁பாடல்கள்	-9.30647
▁உடைய	-9.30657
▁நாட்டில்	-9.30738
▁தன்னுடைய	-9.3074
▁குல	-9.30776
▁முன்பு	-9.30901
னம்	-9.31063
▁ல	-9.31114
▁உட்பட	-9.3119
▁பொருட்கள்	-9.31279
▁பார்க்க	-9.31344
ினர்	-9.31371
▁பகுதியாக	-9.31396
▁மீன்	-9.31434
▁பாரம்பரிய	-9.31493
யூர்	-9.31634
▁விழா	-9.31732
▁I	-9.31897
படுத்த	-9.32068
▁இத்தகைய	-9.32106
0,000	-9.32158
பிறப்பு	-9.32163
▁சோழ	-9.32181
முனை	-9.32202
புரி	-9.32222
▁பர	-9.3229
தற்காக	-9.32367
▁நெடுஞ்சாலை	-9.32455
▁அழைக்கப்படும்	-9.32477
▁எட்டு	-9.32579
▁அமெரிக்காவில்	-9.32688
ணா	-9.32725
▁பூங்கா	-9.32849
மின்	-9.32863
it	-9.32868
▁கட்டி	-9.32889
ட்டர்	-9.32936
▁பத்து	-9.33018
ட்டில்	-9.33061
▁கல்வியறிவு	-9.33079
▁அத்துடன்	-9.33101
ாவின்	-9.33263
is	-9.3354
▁புகழ்பெற்ற	-9.33638
▁அதிகம்	-9.33694
▁பணியாற்றினார்	-9.33714
தாகக்	-9.338
ிருக்க	-9.3384
▁ஆக்க	-9.33866
▁கல்லூரியில்	-9.33874
▁சூலை	-9.34201
▁கண	-9.34235
▁2016	-9.34245
▁உள்	-9.34309
▁L	-9.34325
40	-9.34441
▁உருவ	-9.34557
▁இடையில்	-9.3456
களுக்காக	-9.3457
▁இறுதியில்	-9.34596
▁சுதந்திர	-9.34615
குடி	-9.34645
விட்டு	-9.34814
▁தொடருந்து	-9.3484
வராக	-9.34929
தான	-9.34948
▁தேவையான	-9.35041
▁உரு	-9.35042
▁அல்ல	-9.35074
▁இர	-9.35083
டல்	-9.35091
ஷா	-9.35175
▁R	-9.35216
▁ஆட்ட	-9.35233
▁நேர்	-9.35244
th	-9.35263
ரில்	-9.35381
▁கண்டுபிடிக்க	-9.35467
▁வெளியிட	-9.35499
▁கொண்டாட	-9.3551
▁கோட்ட	-9.35524
▁சொ	-9.35543
லிய	-9.35624
நூல்	-9.35643
▁போக்குவரத்து	-9.35659
▁நாடுகளின்	-9.35787
▁பல்கலைக்கழகம்	-9.35946
▁எடை	-9.35962
▁வழக்க	-9.36012
▁குறை	-9.36124
யாளர்	-9.36149
▁ஷா	-9.36198
▁பெயர	-9.36321
த்தைத்	-9.36346
▁பறவை	-9.36445
▁இதுவே	-9.36484
ம்பட்டி	-9.36541
▁வெவ்வேறு	-9.36569
▁சரி	-9.36573
▁கீழே	-9.36617
▁கூட்டு	-9.36633
▁யு	-9.3665
▁இருக்கின்றன	-9.36657
▁W	-9.36676
▁எல்	-9.36705
▁நெல்	-9.36731
வெளி	-9.37016
▁நான்	-9.371
▁பிப்ரவரி	-9.37113
▁உட்	-9.37186
▁ஜோ	-9.37361
▁கண்ண	-9.37375
▁பயன்படுகிறது	-9.37407
as	-9.37466
▁இந்தத்	-9.37469
த்திற்கும்	-9.37486
கொண்ட	-9.37513
▁நீர	-9.37567
▁கனிம	-9.37668
▁மாறி	-9.3774
யியல்	-9.37749
சில்	-9.37946
▁ஜே	-9.38099
▁26	-9.38105
▁அச்ச	-9.38111
லுக்கு	-9.3815
▁கட்டுரை	-9.38161
▁டே	-9.38176
▁தன்னை	-9.38219
▁நூல்கள்	-9.38341
▁கவிதை	-9.38352
▁பண்டைய	-9.38605
▁மக	-9.38685
▁சூன்	-9.38867
▁திருத்தந்தை	-9.38945
▁ஆகவும்	-9.38969
▁எடுத்து	-9.38983
▁ஒன்றிய	-9.39079
▁50	-9.39087
▁திருநெல்வேலி	-9.39097
▁வீ	-9.39203
ed	-9.39425
னெ	-9.39479
ation	-9.39508
▁வாழ்	-9.39602
▁அக்	-9.39612
டிய	-9.39908
es	-9.4006
60	-9.40077
▁காரணம்	-9.4015
-19	-9.40188
▁அமைக்க	-9.4032
▁இடம்பெற்ற	-9.40325
ுகின்ற	-9.40334
ிலேயே	-9.40438
▁கிராமம்	-9.40536
▁செய்யப்பட்டது	-9.40574
▁மழை	-9.40718
▁அவன்	-9.40804
▁திரும்ப	-9.40815
▁:	-9.40815
▁மேல	-9.40837
▁and	-9.40871
ai	-9.40877
சல்	-9.40909
வேண்டும்	-9.41088
கூ	-9.41126
▁பின்ன	-9.41184
ஷன்	-9.41212
▁முடி	-9.41226
▁எதிர்ப்பு	-9.41238
▁தொகுதியில்	-9.41255
▁28	-9.41359
யெ	-9.41417
▁ஒருநாள்	-9.41448
▁கண்டு	-9.41465
▁காந்தி	-9.41654
▁அமைப்ப	-9.41676
▁நிறுவனத்தின்	-9.41678
மற்ற	-9.41687
▁என்பன	-9.41782
ுக்கான	-9.41847
த்தன்மை	-9.4187
W	-9.41931
ஃ	-9.41948
▁தரவு	-9.41996
▁காட்டு	-9.42002
▁பேரரசு	-9.42004
▁முன்னணி	-9.42075
ப்படை	-9.42192
▁கொடுக்க	-9.42235
35	-9.42241
li	-9.4225
▁வள	-9.4233
▁நேரம்	-9.4234
▁மை	-9.42353
பார்	-9.42419
டம்	-9.42432
ங்களுடன்	-9.42468
வள	-9.42509
▁அர	-9.4259
▁இம்	-9.42621
25	-9.42668
▁மக்கள்தொகை	-9.42709
ங்களைப்	-9.4273
ப்படவில்லை	-9.42731
▁வருகின்றன	-9.42763
ஒ	-9.42858
▁பழ	-9.42878
▁வேத	-9.42912
▁அரை	-9.43004
▁யாழ்ப்பாண	-9.43039
ுமாறு	-9.43132
▁1990	-9.43201
▁பெயரை	-9.43308
ம்பி	-9.43331
▁காற்று	-9.43345
ப்பின்	-9.43471
▁வயதில்	-9.43634
ச்சா	-9.43637
▁ஆக்கைவில	-9.43654
▁விசை	-9.43732
▁வெளியான	-9.43799
▁போன்று	-9.43844
▁முதலாவது	-9.4387
▁பயன்பாடு	-9.43882
▁இந்தியத்	-9.43888
▁கடந்த	-9.43904
சன	-9.43943
▁மருந்து	-9.43951
▁கதிர்	-9.44042
ா்	-9.44052
▁தோற்ற	-9.44071
▁சண்டை	-9.44153
▁வர்த்தக	-9.44159
▁சிறப்பாக	-9.44173
கின்றன	-9.4419
▁ஆவர்	-9.44339
▁ஆஃப்	-9.44415
▁உட்பட்ட	-9.44431
▁ஆவது	-9.44467
um	-9.44632
▁எழுதப்பட்ட	-9.4465
▁உயர	-9.44768
▁நிறுவனங்கள்	-9.44821
▁செயல்முறை	-9.44833
▁கிறித்தவ	-9.44888
▁வருவாய்	-9.44933
▁மூன்றாவது	-9.44967
பால	-9.44996
ழ்	-9.45018
▁வாங்க	-9.45033
▁சுந்தர	-9.45115
▁நீக்க	-9.45155
▁சன்னதி	-9.45307
▁வாயு	-9.45389
▁அறை	-9.45428
ுவதற்கான	-9.4545
▁அறிக்கை	-9.45469
▁நடித்தார்	-9.45522
க்கொண்டு	-9.45544
▁அளிக்க	-9.45604
▁இயேசு	-9.45691
▁திசை	-9.45762
▁விகிதம்	-9.46012
89	-9.46038
ங்கோ	-9.46084
▁குள	-9.46142
▁நாடாளுமன்ற	-9.46283
ப்படாத	-9.4632
மாகக்	-9.46377
▁தாக்குதல்	-9.4638
▁கன	-9.4638
க்குடி	-9.46411
w	-9.46482
▁உலகப்	-9.46623
▁அடர்த்தி	-9.46692
▁வாய்ந்த	-9.4673
▁தூ	-9.46811
▁மண்	-9.46846
▁ஆனது	-9.46848
▁தத்துவ	-9.46882
▁மட	-9.46906
த்திர	-9.46927
▁ரே	-9.46991
▁இன்னும்	-9.4704
களிடம்	-9.47072
ுவதை	-9.47088
▁அனுப்ப	-9.47093
▁திட்டம்	-9.47264
▁சொந்த	-9.47307
▁அய்யனார்	-9.47313
▁இவ்	-9.47316
கெ	-9.47342
▁மிக்க	-9.47345
▁தகுதி	-9.47375
99	-9.47517
▁புல	-9.47539
த்தோ	-9.47666
ந்தை	-9.47691
▁முந்தைய	-9.47693
கல	-9.47719
றா	-9.47729
▁வெள்ள	-9.4778
▁ஜனவரி	-9.47801
யற்ற	-9.47812
▁அடங்கும்	-9.47838
▁மாற	-9.47856
▁வான்	-9.47939
▁ஹோ	-9.48012
▁ஏற்பட	-9.48038
re	-9.48074
▁சேர	-9.48186
▁தற்போதைய	-9.48189
பால்	-9.48197
▁கடற்கரை	-9.48246
▁கட்சியின்	-9.48283
ுவர்	-9.48298
பர	-9.48357
▁விழுப்புரம்	-9.48369
▁புலவர்	-9.48377
▁கணித	-9.48401
▁விருப்ப	-9.48414
▁ஒற்றை	-9.4844
ிறார்	-9.48496
▁வருகிறார்	-9.48562
▁கூறினார்	-9.48593
▁வட்டம்	-9.48594
நில	-9.48605
▁சாதாரண	-9.48656
▁ஃபி	-9.48747
▁உப்பு	-9.48761
▁பிரெஞ்சு	-9.48761
ாவில்	-9.48816
▁பொழுது	-9.48949
▁மாற்றம்	-9.48976
▁முதன்	-9.49069
கான்	-9.49076
▁நடிகை	-9.49127
▁கிடைக்கும்	-9.49132
▁இவரை	-9.49138
▁பயண	-9.49144
▁பாக	-9.49191
பிர	-9.49222
டிக்	-9.49227
▁1980	-9.49243
▁சந்திர	-9.49298
▁ஆதி	-9.49325
▁கார	-9.49358
▁வைத்த	-9.49433
ேன்	-9.49466
ஷி	-9.49482
▁பொருள	-9.495
▁கிராமக்	-9.49531
▁அதிகார	-9.49637
ந்திர	-9.49712
11	-9.4977
▁தொடங்கி	-9.49798
த்திற்காக	-9.49927
ுவதாக	-9.49962
▁அழுத்த	-9.49976
▁s	-9.50008
▁V	-9.50019
▁டோ	-9.50091
ir	-9.50145
ார்கள்	-9.50175
ஸி	-9.50223
▁ஏற்படுத்த	-9.5024
▁மாணவர்	-9.50322
▁அங்க	-9.50393
▁40	-9.50397
▁பண	-9.50406
▁பர்	-9.50603
▁போரில்	-9.50615
▁கத்தோலிக்க	-9.50643
▁வண்ண	-9.50681
▁என்ன	-9.50861
▁இரட்டை	-9.50899
▁திரைப்படத்தில்	-9.51
▁வாய்ப்பு	-9.51115
▁வெள்ளி	-9.51156
▁என்றால்	-9.51159
▁வல்ல	-9.5122
▁பதிப்பு	-9.5126
▁அருகே	-9.51391
எடுத்துக்காட்டாக	-9.51402
முடி	-9.51406
▁இவருடைய	-9.51427
▁முன்ன	-9.5146
▁வெளியிட்ட	-9.51499
▁1.	-9.515
▁கிலோமீட்டர்	-9.51503
▁சர்	-9.5151
▁கடைசி	-9.51545
▁கழக	-9.51577
▁இலை	-9.516
▁மேற்	-9.51605
ுக்	-9.51673
▁ஆகியன	-9.5178
▁யானை	-9.51782
▁பாதை	-9.51829
முள்ள	-9.51917
▁ஆகியவற்றின்	-9.51959
▁கர	-9.5198
▁கீழ	-9.52001
ந்	-9.52057
▁விண்மீன்	-9.52076
▁திருமண	-9.52129
▁சேர்க்க	-9.52165
க்கம்	-9.5218
ிருக்கிறார்	-9.52226
யல்	-9.5224
▁பஞ்ச	-9.52242
பகுப்பு	-9.52293
யம்மன்	-9.52351
எல்	-9.52418
ஹி	-9.52468
▁உண்மை	-9.52472
▁அறிவு	-9.52476
▁நீல	-9.52532
▁ஏறத்தாழ	-9.52565
▁பலரும்	-9.52623
12	-9.52643
▁இளம்	-9.52709
▁பின்வருமாறு	-9.52745
▁படம்	-9.52833
▁உள்ளூர்	-9.52927
ுவதால்	-9.52946
விலும்	-9.52952
▁ஜூன்	-9.52954
▁விண்வெளி	-9.53046
▁அமெரிக்காவின்	-9.53081
▁இருந்தாலும்	-9.53093
▁அளவை	-9.53109
▁கழகம்	-9.53139
ப்பான	-9.53207
▁அயனி	-9.53231
▁ஆப்	-9.53257
▁பார்வை	-9.53259
▁p	-9.53312
▁வழங்கி	-9.5333
80	-9.53393
▁பன்னாட்டுத்	-9.53398
▁சொற்	-9.53399
▁பென்	-9.53423
▁மெய்	-9.53462
ட்டின்	-9.53474
யிலுள்ள	-9.53479
▁இப்போது	-9.53482
15	-9.53482
▁தொடங்கியது	-9.53604
et	-9.53624
▁நட்சத்திர	-9.53726
▁தயாரிப்பு	-9.53731
j	-9.53839
▁மாற்றி	-9.53886
▁31	-9.53905
▁குறு	-9.53906
▁அனுமதி	-9.5391
▁வான	-9.5396
பாடு	-9.53966
யினால்	-9.5397
▁தேவி	-9.53982
க்களை	-9.53985
ப்பில்	-9.54055
▁திரை	-9.54063
▁ஊடக	-9.54071
▁என்பதால்	-9.54087
ia	-9.54287
▁புரட்சி	-9.54295
▁கட்டப்பட்ட	-9.54339
க்குச்	-9.54415
▁நேபாள	-9.54418
▁இலங்கையில்	-9.54432
▁ஒப்பந்த	-9.54463
▁பகுதியை	-9.54473
▁சைவ	-9.5448
ொ	-9.54481
▁29	-9.5454
ப்பூர்	-9.54551
▁ரெ	-9.54699
பன்	-9.54732
கட	-9.54753
டீ	-9.548
▁ஒன்றியம்	-9.54942
▁வழங்கப்பட்டது	-9.55032
▁நாட்கள்	-9.55116
▁அவ்வ	-9.55148
▁ஆகத்து	-9.55162
▁இணைந்த	-9.55175
68	-9.553
▁திராவிட	-9.55306
78	-9.55325
▁இல்லாமல்	-9.55337
18	-9.55467
▁நிறுவ	-9.55489
▁முத்து	-9.55774
வல	-9.55792
வினை	-9.55863
▁இதய	-9.55901
▁திரி	-9.55914
நல்லூர்	-9.55937
மூ	-9.55943
▁2011.	-9.56039
▁தை	-9.56125
▁குதிரை	-9.56172
ணர்	-9.56199
▁2003	-9.56317
▁பலர்	-9.5639
▁விலங்கு	-9.56431
ரண	-9.56461
ஃபி	-9.56477
▁ஆன	-9.56545
▁விளையாட	-9.56546
▁புத்த	-9.56586
▁அமையும்	-9.56587
▁மாலை	-9.56626
த்துக்	-9.56686
மிக்க	-9.56797
▁ஏனைய	-9.56858
ட்சி	-9.56893
▁அவ	-9.56991
▁அமிலம்	-9.57051
▁விளைவாக	-9.57116
▁விளம்பர	-9.57205
ௌ	-9.57214
ர்களின்	-9.57263
▁வெளியிடப்பட்டது	-9.5729
▁ஆசிய	-9.57414
▁சமுதாய	-9.57439
▁விட்ட	-9.57465
ப்பொருள்	-9.57519
67	-9.57602
▁நடைபெறும்	-9.57633
▁மேம்படுத்த	-9.57641
▁மேலாண்மை	-9.57676
ண்ண	-9.5769
▁விரும்ப	-9.57729
▁செயல	-9.57767
▁பின்பு	-9.57783
நாடு	-9.57938
▁குழந்தைகள்	-9.57958
33	-9.57984
te	-9.58036
த்தே	-9.58041
நாத	-9.58049
▁நுட்ப	-9.58059
▁தோன்றிய	-9.58081
▁கடை	-9.58153
▁நன்கு	-9.58254
▁திருவண்ணாமலை	-9.5827
▁அறியப்பட்ட	-9.583
மைய	-9.58307
81	-9.58317
▁பயன்	-9.58381
▁ஏனெனில்	-9.58381
▁இச்	-9.58433
▁தொடங்கினார்	-9.58533
▁தேச	-9.5857
▁ஆலய	-9.5858
▁வானொலி	-9.58622
▁இருவரும்	-9.5883
▁பொறியியல்	-9.5884
▁பச்சை	-9.58923
▁வகுப்பு	-9.59011
95	-9.59037
▁அரசாங்க	-9.59064
கின்	-9.59094
▁பதிலாக	-9.59107
▁அடை	-9.59112
▁உடை	-9.59153
la	-9.59238
▁துவக்க	-9.59258
▁இவற்றின்	-9.59278
▁கிரி	-9.5944
▁படைகள்	-9.59481
▁இதே	-9.59544
▁தொலை	-9.59666
▁மாற்று	-9.59713
16	-9.59741
▁உறுப்பு	-9.59777
ராஜ	-9.59792
▁உலகில்	-9.59796
▁in	-9.59859
▁நிகழ்வு	-9.59887
▁ரூ	-9.59984
நீ	-9.60074
▁கிடைத்த	-9.60149
க்கரை	-9.6015
▁கொண்டிருந்த	-9.60163
ul	-9.60221
▁நீளம்	-9.60308
▁ஈர	-9.60329
▁அமைந்துள்ளன	-9.60337
வாத	-9.6052
▁கோட்பாடு	-9.60546
கின்றது	-9.6056
▁எடுத்துக்	-9.6056
ate	-9.60562
▁ஓவிய	-9.6059
▁சார்	-9.60598
▁அரி	-9.60616
ுகிறார்கள்	-9.60618
▁ஜூலை	-9.60678
▁O	-9.60707
ஸின்	-9.60707
கார	-9.60746
▁வடிவம்	-9.60761
▁பொருட்களை	-9.60802
+	-9.60803
ாட்சி	-9.60863
வதற்கு	-9.60877
▁தொடர்புடைய	-9.60877
ின்றது	-9.60908
▁இவற்றை	-9.6094
ளு	-9.60942
▁பய	-9.60962
▁நாம்	-9.60963
ரசு	-9.60983
ேஸ்வரர்	-9.61096
▁வங்காள	-9.61119
▁வால்	-9.61159
▁சுழற்சி	-9.61161
களாகவும்	-9.61165
▁தெலுங்கு	-9.61182
000	-9.61207
▁பின்பற்ற	-9.61234
ிகள்	-9.61252
▁இருப்பது	-9.61257
▁காஞ்சிபுரம்	-9.61271
55	-9.61292
▁வில்லியம்	-9.61365
▁நதி	-9.61381
▁இந்	-9.61454
17	-9.61559
▁+	-9.61601
14	-9.6161
த்தக்க	-9.61664
▁அடைந்த	-9.617
லாக	-9.61714
▁லே	-9.61821
▁வீடு	-9.61831
▁உறவு	-9.61861
▁போராட்ட	-9.61906
▁பிரபலமான	-9.61941
▁நேரடியாக	-9.6198
85	-9.6199
▁2002	-9.6217
69	-9.62179
ப்பள்ளி	-9.62238
<	-9.62277
▁பின்வரும்	-9.62286
▁கொடி	-9.62471
ent	-9.62471
▁பாறை	-9.62485
▁வார்த்தை	-9.62604
61	-9.6267
▁பாதிக்கப்பட்ட	-9.62677
▁காணலாம்	-9.62798
ராஜ்	-9.62866
▁நை	-9.62925
▁தொ	-9.62931
▁முறையாக	-9.62935
▁திசம்பர்	-9.63023
▁பிரம்ம	-9.63025
▁குறைவாக	-9.63084
ரச	-9.63152
▁அச்சு	-9.63193
▁அவர்களது	-9.6323
ையா	-9.6325
▁பயன்படும்	-9.63303
யிலேயே	-9.63307
ுவதன்	-9.63378
▁எடுக்க	-9.63467
▁முறைமை	-9.635
▁ஓர	-9.63516
▁உச்ச	-9.63585
59	-9.63662
▁எண்ணெய்	-9.63701
வடிவ	-9.63817
▁ஆன்	-9.6385
கில்	-9.63866
▁சேலம்	-9.63971
▁ஆல	-9.63997
▁ஆட	-9.64085
▁செய்தது	-9.6412
▁குறிப்ப	-9.64161
▁துறையில்	-9.6418
ங்கை	-9.64185
கூட	-9.64185
▁இரவு	-9.64253
ுவதில்	-9.64273
குளம்	-9.64287
▁கணக்கெடுப்பின்	-9.64332
▁இத்	-9.64388
▁சார்பு	-9.64428
▁கப்பல்	-9.64455
▁கடவுள்	-9.64482
▁தூண்ட	-9.64542
ைய	-9.64569
த்தினால்	-9.64573
▁சாதி	-9.64623
▁வெளிப்படுத்த	-9.64652
▁லீ	-9.64691
▁அதி	-9.64805
▁தனிப்பட்ட	-9.64816
▁வழங்கும்	-9.64876
▁வேறுபட்ட	-9.64895
▁சீனா	-9.64898
▁நிறைவேற்ற	-9.64902
▁பயிர்	-9.64998
ேந்திர	-9.65031
▁பத்திரிகை	-9.65067
▁கொலை	-9.65136
ma	-9.65189
▁இந்தி	-9.65226
▁கட்டு	-9.65274
▁வகைப்படுத்த	-9.65385
▁நகராட்சி	-9.65387
▁ஏற்ப	-9.65422
▁ஏற்பட்டது	-9.65452
க்குத்	-9.65553
▁சோவியத்	-9.65575
▁அமைதி	-9.65624
▁சேர்	-9.65651
▁இணைப்பு	-9.65664
னிக்	-9.65696
▁பிரிக்க	-9.65742
▁திரவ	-9.65788
▁இங்குள்ள	-9.65813
ப்படுவது	-9.65823
▁சிறை	-9.65829
▁எடுத்த	-9.65855
09	-9.65871
277	-9.65908
▁பரி	-9.65919
▁ஹி	-9.65925
▁மூலக்கூற்று	-9.65957
▁சிலர்	-9.65977
▁கட்டமைப்பு	-9.66179
வையாக	-9.66253
ஈ	-9.6626
▁புரத	-9.66269
▁முருகன்	-9.66321
▁தட	-9.66327
88	-9.6633
▁போன்றவற்றை	-9.66348
▁திருச்சபை	-9.66376
▁மஞ்சள்	-9.66513
ந்தர்	-9.66584
▁பெற்றவர்	-9.66588
na	-9.66643
▁வலை	-9.66654
▁சிலை	-9.66708
▁சாதனை	-9.66778
▁சமயம்	-9.66808
நீர்	-9.66828
▁சென்	-9.66908
70	-9.66934
▁நடித்துள்ளார்	-9.66934
▁இருந்தால்	-9.6703
ல்லி	-9.67047
▁நிகழ்ந்த	-9.6706
▁செயற்கை	-9.67092
▁1970	-9.67137
தில்லை	-9.67141
தற்கான	-9.67218
▁எலும்பு	-9.67221
ாளி	-9.67232
ter	-9.6726
▁ராம	-9.67299
▁தில்லி	-9.67302
un	-9.67304
▁எழுதியுள்ளார்	-9.67399
▁படத்தில்	-9.67435
06	-9.6747
▁நினைவு	-9.67593
க்கூட	-9.67645
ிருக்கலாம்	-9.67646
▁தல	-9.67785
▁1960	-9.67823
▁குறியீடு	-9.68008
▁அடிப்படையாகக்	-9.68014
▁வெளியே	-9.68113
86	-9.68147
▁மக்களுக்கு	-9.68163
▁விஜய	-9.68174
▁நிறைந்த	-9.6827
▁இயக்கம்	-9.68277
▁இயந்திர	-9.68305
▁சுற்றுலா	-9.68329
62	-9.68331
▁கொடுத்த	-9.68336
▁தோட்ட	-9.68355
▁இதழ்	-9.68357
▁துணி	-9.68396
▁உருவாக்கிய	-9.68405
ஹ்	-9.68447
▁பாடசாலை	-9.68468
▁சுற்று	-9.68553
▁கேரள	-9.68647
கரு	-9.6869
க்கே	-9.68792
▁முக்கியத்துவம்	-9.68819
▁செயல்பட	-9.68842
▁அமைந்தது	-9.68847
▁2.	-9.68927
ையில்	-9.68939
▁வென்ற	-9.68969
ஆங்கிலம்	-9.68994
கண்ட	-9.69036
▁என்றாலும்	-9.69064
53	-9.69137
னல்	-9.69153
லாந்து	-9.69158
▁காதல்	-9.69247
29	-9.69253
▁புராண	-9.69421
▁என்கிற	-9.69462
76	-9.69532
▁c	-9.69534
ராய	-9.69582
ிற்காக	-9.69689
71	-9.69699
73	-9.69701
மம்	-9.69702
▁இசுலாமிய	-9.69751
98	-9.6978
▁போலவே	-9.69781
75	-9.69825
▁முடியாது	-9.69825
▁2017	-9.69845
▁நே	-9.69957
▁பரவ	-9.70109
▁ஒலிம்பிக்	-9.70139
▁ஆகஸ்ட்	-9.70205
▁சென்றார்	-9.70286
▁குருதி	-9.70301
▁அரசியல்வாதி	-9.7035
▁வலி	-9.7039
▁கேள்வி	-9.70394
▁வளைய	-9.70537
▁உடல	-9.70541
▁மனிதர்	-9.70582
▁நடித்துள்ளனர்	-9.70593
▁தற்கால	-9.706
▁இல்ல	-9.70619
▁அலகு	-9.70694
▁நிலையை	-9.70712
யான்	-9.70712
▁தேர்	-9.70759
▁அமைப்பை	-9.70791
வரின்	-9.70797
யோடு	-9.70847
▁உள்ளடக்கிய	-9.7085
▁பரப்பளவு	-9.70934
se	-9.70947
90	-9.70984
21	-9.71013
▁அனைத்தும்	-9.71025
▁காந்த	-9.71036
▁கோடி	-9.71078
▁இப்பகுதி	-9.71104
வரி	-9.71192
தலை	-9.71207
▁அடையாள	-9.71292
னியம்	-9.71321
ூட்ட	-9.71432
▁கூறி	-9.71456
▁கார்பன்	-9.71465
▁தெய்வ	-9.71477
▁குறிப்பு	-9.71535
▁பங்க	-9.71548
▁அவர்களுக்கு	-9.71627
▁கலவை	-9.71639
▁என்பவரால்	-9.71664
▁இரும்பு	-9.71689
▁பிரா	-9.7174
49	-9.71887
v	-9.71895
▁உயிரின	-9.71903
நாதர்	-9.71916
▁நாள	-9.71936
▁நம்ப	-9.71969
▁முனைவர்	-9.72012
▁0	-9.72055
▁பயணம்	-9.72069
▁வருட	-9.72101
84	-9.7212
▁பொருத்த	-9.72121
த்தன	-9.7223
▁2,	-9.72254
▁சிங்க	-9.72257
▁நாட்ட	-9.72259
▁ஆகியவற்றில்	-9.72274
▁எடுத்துக்காட்டு	-9.72275
ரான்	-9.72299
▁அளித்த	-9.72347
▁நாணய	-9.72348
▁காரண	-9.72397
க்கர்	-9.72409
▁பாடிய	-9.72448
ங்குடி	-9.72509
▁கூறப்படுகிறது	-9.72512
ன்று	-9.72535
ப்பணி	-9.72553
▁மூத்த	-9.72593
79	-9.72707
▁கடலூர்	-9.72711
▁காம	-9.72727
▁வாழ	-9.72841
▁அதிகாரி	-9.72853
▁மூலக்கூறு	-9.72897
ப்பது	-9.72906
▁கொண்டுள்ளன	-9.72928
▁இரண்ட	-9.73014
▁கடன்	-9.73016
லன்	-9.73028
கொள்ள	-9.73115
▁இருந்தனர்	-9.73199
▁ஆற்றின்	-9.73226
▁பொருட்	-9.73259
▁உலகம்	-9.7327
▁கிட்டத்தட்ட	-9.73281
▁திறந்த	-9.73329
▁புத்தக	-9.73352
லூ	-9.73372
▁பல்ல	-9.73429
▁வேதி	-9.73439
77	-9.73488
▁இசு	-9.73537
▁திரைப்படங்களில்	-9.73605
▁தனியார்	-9.73606
05	-9.73614
▁தனிம	-9.73634
74	-9.73653
▁பகுதிகளை	-9.73671
28	-9.73697
▁வேளாண்மை	-9.73697
த்திலுள்ள	-9.73703
▁ரயில்	-9.73739
ற்க	-9.73747
▁60	-9.73777
▁விளங்குகிறது	-9.73848
ப்படலாம்	-9.73864
▁எழுதினார்	-9.73872
▁பெறும்	-9.73881
92	-9.7392
முடைய	-9.73929
▁அரண்மனை	-9.74017
பிரி	-9.74078
ஒரு	-9.74087
▁வாகன	-9.7411
▁விதை	-9.74111
51	-9.74185
▁நேச	-9.74207
▁குறிக்கிறது	-9.74242
▁வடிவில்	-9.74267
ம்பா	-9.74272
▁இல	-9.74439
மண	-9.74476
52	-9.74504
மதி	-9.74512
▁பிரதி	-9.74542
ன்ன	-9.74572
65	-9.7459
▁கொல்ல	-9.74591
▁நிலுவையில	-9.74618
க்கப்பட்டது	-9.74642
கீ	-9.74736
ஸ்டர்	-9.74804
ங்கள	-9.74944
▁திருத்த	-9.75018
திய	-9.75035
ப்பிர	-9.75068
▁நீள	-9.7508
▁பண்பு	-9.7514
▁கோல்	-9.75155
▁துறைமுக	-9.75163
▁அடுக்கு	-9.75203
க்குரிய	-9.75229
▁நகைச்சுவை	-9.7527
▁நடத்தி	-9.7529
▁படுத்த	-9.75326
96	-9.75347
த்துவ	-9.75415
▁பெரிதும்	-9.75415
சங்க	-9.75486
ாக்க	-9.75546
▁தொடர	-9.75553
த்திலேயே	-9.75607
▁நல	-9.75661
▁அண்ட	-9.75687
▁புதுக்கோட்டை	-9.75889
▁வன	-9.759
ேஷ்	-9.76
▁உறை	-9.7604
▁சங்கம்	-9.7605
▁பள்ளியில்	-9.76169
னூ	-9.76228
▁இறை	-9.76228
▁உறுப்பினர்கள்	-9.76295
▁அன்	-9.76304
▁அறிந்த	-9.76324
man	-9.76337
▁செயல்படுத்த	-9.7636
▁ஜெய	-9.764
▁அடையாளம்	-9.76404
▁கிரா	-9.76434
▁ராஜா	-9.76586
▁புலி	-9.76618
▁தரும்	-9.76634
க்கோட்டை	-9.76636
▁செங்க	-9.76696
13	-9.76719
▁உரிய	-9.76731
X	-9.7675
94	-9.76765
▁()	-9.7681
நாட்டு	-9.76907
ராய்	-9.76922
▁மாநிலம்	-9.7693
▁மென்பொருள்	-9.76958
▁மைல்	-9.77
ப்பூ	-9.77006
▁இவ்வகை	-9.77009
24	-9.77057
▁இராச	-9.77107
▁வரலாற்றில்	-9.77114
ேற்ற	-9.77135
▁பொறி	-9.77166
▁கொள்ளும்	-9.77178
▁வாழ்ந்து	-9.77227
87	-9.77261
47	-9.77264
▁குற்ற	-9.77265
▁சரியான	-9.773
ுபவர்	-9.77306
▁உதாரணமாக	-9.7735
▁முடியாத	-9.77368
ந்திய	-9.77377
▁ய	-9.77407
▁வெளியேற்ற	-9.77426
▁வடிவமைப்பு	-9.77445
▁லோ	-9.77446
▁வீட்டு	-9.77495
▁நடைபெற்றது	-9.77531
▁புரிந்து	-9.7763
▁1999	-9.77635
க்குழு	-9.77655
ளம்	-9.77722
வாதி	-9.77783
▁பார்த்த	-9.77807
ங்களால்	-9.77831
▁அரசர்	-9.77856
▁உருவான	-9.77923
ித்து	-9.77927
ப்பெற்ற	-9.77963
-1	-9.77989
▁நிறை	-9.78023
▁நடை	-9.78029
ூரில்	-9.7808
00	-9.78085
▁அலி	-9.78145
▁பெப்ரவரி	-9.78203
வையும்	-9.78213
▁காவல்	-9.7822
▁சிவப்பு	-9.78297
ப்பகுதியில்	-9.78298
லியா	-9.78325
▁ஒன்ற	-9.78358
▁மையம்	-9.7836
பேட்டை	-9.78381
லால்	-9.78392
▁தடுக்க	-9.78593
▁பேரரசின்	-9.78605
யாகக்	-9.78608
டியா	-9.78611
▁கூறிய	-9.78644
வாறு	-9.78645
▁சிங்கள	-9.78648
▁ஆயுத	-9.78672
ro	-9.78679
▁வில்	-9.78704
91	-9.78709
குல	-9.7881
▁அமைத்த	-9.78814
▁வரையறை	-9.79037
▁வகைகள்	-9.7904
▁அறிஞர்	-9.79083
▁விவசாய	-9.7909
குறி	-9.79132
▁பிரதான	-9.79162
▁மாணவர்கள்	-9.79225
▁பிரபல	-9.79235
க்கல	-9.79268
ha	-9.79272
°	-9.79302
83	-9.79353
▁இந்நகர	-9.79417
64	-9.79424
▁இள	-9.79484
▁லூ	-9.79532
▁நிருவாகியா	-9.79558
▁மும்பை	-9.79591
தெ	-9.79601
▁முதலிய	-9.79608
ுக்காக	-9.79649
▁சிவகங்கை	-9.79661
▁செயலாளர்	-9.79735
ion	-9.79747
▁சூழல்	-9.79751
▁தொடங்கிய	-9.79826
45	-9.79864
ஜெ	-9.79896
st	-9.79917
▁கிராமத்தில்	-9.79988
▁செலவு	-9.8
▁பசு	-9.8003
▁ஏற்க	-9.80156
ப்பட்டுள்ள	-9.80175
22	-9.80176
▁ஐரோப்பா	-9.80192
▁இயற்பியல்	-9.80192
▁முஸ்லிம்	-9.80199
▁மாதத்தில்	-9.8025
▁எவ்வாறு	-9.80288
▁அனு	-9.80323
▁பிறந்தவர்	-9.80389
▁செய்	-9.80595
▁மலேசிய	-9.80623
வார	-9.80638
ாண்ட	-9.80725
த்தது	-9.80752
▁m	-9.80787
தோடு	-9.80835
▁ஒளிபரப்ப	-9.80929
▁அடைய	-9.80938
▁நகரின்	-9.80978
களுக்குப்	-9.80987
▁வருகின்றனர்	-9.81025
தொ	-9.81044
▁கண்ணாடி	-9.8109
▁கைப்பற்ற	-9.81132
▁கட்டுரைகள்	-9.8117
▁தூத்துக்குடி	-9.81185
இது	-9.81197
▁நீதி	-9.81225
▁இயல்பு	-9.81271
▁இரா	-9.81338
பகுதி	-9.81398
▁நியமிக்கப்பட்ட	-9.814
ly	-9.81406
ரங்க	-9.81419
▁காய	-9.81437
▁பேருந்து	-9.81439
களோடு	-9.81497
56	-9.8153
▁வெளியிடப்பட்ட	-9.81571
▁கிரிக்கட்	-9.81622
▁தொகையில்	-9.81666
ப்பதற்கு	-9.81726
▁கலைஞர்	-9.81786
▁J	-9.81891
▁நேரடி	-9.81898
▁பாடல்களை	-9.81904
58	-9.81967
யினர்	-9.81981
▁நேரங்களில்	-9.82066
▁கண்டறிய	-9.82105
▁பாலி	-9.82168
▁தின	-9.82183
▁ராஜ்	-9.82197
▁டொ	-9.82218
▁சுய	-9.82318
▁சாத்திய	-9.82387
▁1996	-9.824
▁அலுவலக	-9.82538
▁நபர்	-9.82592
▁மக்	-9.82638
▁நிறுவப்பட்டது	-9.82691
▁முறையை	-9.82691
▁வெளியானது	-9.82707
▁பிரதேசம்	-9.82721
▁அமைய	-9.82745
▁கோண	-9.82782
பொருள்	-9.82786
டில்	-9.82821
93	-9.82823
▁மேற்கொண்ட	-9.82823
▁வண்டி	-9.82839
▁நாட்	-9.82913
▁ஒன்பது	-9.82935
▁ஆவண	-9.82965
39	-9.8309
நகர்	-9.83235
▁சுத்த	-9.83306
வற்றை	-9.83384
▁வழக்கமாக	-9.83388
வர்களுக்கு	-9.83409
▁முழுமையாக	-9.83462
08	-9.83666
▁காரணி	-9.83694
01	-9.83918
▁கம்ப	-9.83936
▁உயரத்தில்	-9.83965
▁விவரிக்க	-9.84005
▁குடியரசு	-9.84079
▁உருவாகும்	-9.84167
▁f	-9.84171
▁முதன்மையான	-9.84187
▁ஆக்	-9.842
மாய்	-9.84291
▁கூட்டணி	-9.84343
48	-9.84396
வற்ற	-9.84399
▁பொறுத்து	-9.84426
▁தொடரில்	-9.84454
▁காசி	-9.8447
ாண்டு	-9.84507
ட்சு	-9.84517
▁ஆனார்	-9.84523
▁சிறிது	-9.8457
▁நிகழ்த்த	-9.84687
▁பெண்களின்	-9.84698
▁அடங்கிய	-9.84743
▁மிகச்	-9.84745
▁தொழிலாளர்	-9.84795
▁ஆய்வுகள்	-9.84809
▁எழு	-9.8482
▁உருவாக்கி	-9.84827
42	-9.84933
▁அங்கே	-9.84966
▁நிகழ்	-9.84973
▁கூடுதலாக	-9.84974
க்கின்	-9.84981
▁கருப்பு	-9.85016
▁நூலில்	-9.85026
▁பாய்	-9.85035
மிய	-9.85045
கிறான்	-9.85066
▁கூறுகிறது	-9.85094
வதி	-9.85112
▁அடிக்கடி	-9.85126
▁தொகுப்ப	-9.85208
▁அடிமை	-9.85225
07	-9.85252
▁விளைவு	-9.85262
பத	-9.85272
▁ஞான	-9.85282
▁கொண்டுள்ள	-9.85405
▁அல	-9.85457
▁தனக்கு	-9.85514
▁கணக்கிட	-9.8555
▁நாளில்	-9.85651
▁யோ	-9.85679
▁மேலே	-9.85729
வாரி	-9.85755
▁மாறாக	-9.85792
▁பெருமை	-9.85797
இந்த	-9.85828
▁கர்	-9.8583
பாய்	-9.85956
▁ஆர	-9.85983
▁மக்களை	-9.86002
▁மகள்	-9.86043
விலிருந்து	-9.8605
ot	-9.86092
and	-9.86119
களாலும்	-9.86139
▁அளவிலான	-9.86146
▁மின்ன	-9.86179
▁அட்டை	-9.86186
▁பேச்சு	-9.86228
▁இணைக்கப்பட்ட	-9.86237
ஞ்	-9.86265
▁அமைப்பின்	-9.86292
ாா்	-9.86295
ராச	-9.8633
ித்த	-9.86361
▁மது	-9.86472
▁கலந்த	-9.86491
தமிழ்	-9.86526
▁வரையறுக்க	-9.86547
▁சற்று	-9.86599
▁வெளியிட்டார்	-9.86693
▁பொன்ன	-9.86722
ad	-9.86814
▁மரியா	-9.8682
▁பாண்டிய	-9.86835
me	-9.86839
97	-9.86865
ருக்கும்	-9.86876
துடன்	-9.86916
க்கூ	-9.86947
யிடம்	-9.86955
▁செய்யப்பட்டு	-9.8696
▁(1	-9.87016
க்களின்	-9.87052
▁ஆடு	-9.87056
om	-9.8708
கலை	-9.87119
▁முக்கோண	-9.87156
யுடைய	-9.87173
sh	-9.87192
க்காடு	-9.87204
ினாலும்	-9.87224
▁இச்ச	-9.87242
38	-9.87261
▁சிந்தனை	-9.87262
▁சென்னையில்	-9.87329
▁அவற்றில்	-9.87401
▁காட்டிலும்	-9.87401
னான்	-9.87422
▁1998	-9.8745
ரிக்	-9.87548
▁வழிமுறை	-9.87609
▁மேற்கொள்ள	-9.87613
▁செய்யப்படும்	-9.87659
ற்றி	-9.87667
▁பெற்றோர்	-9.87724
▁சிற்ப	-9.8775
▁காலங்களில்	-9.87859
▁நீதிமன்ற	-9.87866
க்கொள்ள	-9.87914
▁பயன	-9.87932
ப்படுகிறார்	-9.8801
▁தப்பி	-9.88037
63	-9.8806
▁அவரின்	-9.88116
▁ஈரோடு	-9.88134
குரு	-9.88146
ட்டம்	-9.88166
போர்	-9.88196
மன	-9.88225
வடி	-9.88229
▁அமைப்புகள்	-9.88241
மைப்பு	-9.88339
ார	-9.88385
ப்பெயர்	-9.884
நேர	-9.88427
▁நடத்திய	-9.88455
32	-9.88496
▁கலாச்சார	-9.88529
▁வழங்கிய	-9.8855
▁சோடியம்	-9.88551
▁1989	-9.88553
▁தலைமையில்	-9.88591
▁பழங்குடி	-9.88597
▁படிக	-9.88627
ிற்கும்	-9.8865
▁a	-9.88666
ஸில்	-9.88754
▁இருப்பதாக	-9.8877
ine	-9.88836
▁இங்கே	-9.88856
▁நடன	-9.88863
▁சிவாகம	-9.88907
ுவதில்லை	-9.88985
வீர	-9.88991
▁சக்கர	-9.89039
ல்ல	-9.8904
▁நகரத்தில்	-9.89063
▁பத	-9.89179
▁குழாய்	-9.89179
41	-9.89185
விட்ட	-9.89186
▁நம்	-9.89191
▁பாத்திர	-9.89271
ுவார்	-9.89276
▁பரப்ப	-9.8938
▁பயன்படுத்தும்	-9.89407
ிடமிருந்து	-9.89422
0%	-9.89433
▁வளர்க்க	-9.89495
26	-9.89499
ிருப்ப	-9.89582
▁செய்கிறது	-9.89611
▁கண்டி	-9.89642
த்தோடு	-9.89667
▁ஆனாலும்	-9.89686
os	-9.89718
▁கூடுதல்	-9.89797
▁உயரம்	-9.89805
வம்	-9.89824
▁கட்டுமான	-9.89827
▁ரூபாய்	-9.89835
▁3.	-9.89871
▁தந்த	-9.89902
சான்	-9.89915
▁எதிரி	-9.89958
நாதன்	-9.89987
▁கைது	-9.90139
▁நூலை	-9.90169
க்கொண்ட	-9.9026
ஃபா	-9.90262
இன்	-9.90279
▁வருகை	-9.90371
▁அறிவ	-9.90376
▁ஆனந்த	-9.9038
பல்	-9.90385
▁பயணி	-9.90394
▁ஆசியா	-9.90395
▁இன்றும்	-9.90395
▁உண்மையான	-9.90427
▁மீதான	-9.90449
▁வழிபாடு	-9.90451
▁இலக்கு	-9.90452
▁உப	-9.90465
தின்	-9.9047
▁இக்க	-9.90476
▁மண்ண	-9.90552
▁மரபணு	-9.90567
▁1991	-9.90596
▁உணர்வு	-9.90615
31	-9.90658
▁கிருஷ்ண	-9.90693
▁பண்பாட்டு	-9.9075
▁மூளை	-9.90755
ன்ற	-9.90824
72	-9.90858
▁கூறு	-9.90916
▁கல்வெட்டு	-9.90939
▁கருத்த	-9.90967
▁குறைக்க	-9.91006
▁இராக	-9.91167
▁தாம்	-9.91172
▁பன்	-9.91176
வைக்	-9.91196
▁வட்டார	-9.91224
▁ஹை	-9.91247
▁சர	-9.9126
சில	-9.91263
▁1950	-9.91267
44	-9.91298
▁கொள்	-9.91321
▁அனைவரும்	-9.91387
▁உதவும்	-9.91478
ியா	-9.9154
▁அப்	-9.91556
▁நிறைவு	-9.91558
▁இவன்	-9.91623
▁கோள	-9.9164
▁மரம்	-9.91685
▁சுருக்க	-9.91731
ang	-9.91753
▁வாய்	-9.91778
▁உருவாக்கும்	-9.91845
யாக்க	-9.91856
பெற்ற	-9.9186
04	-9.91866
▁எப்படி	-9.91885
▁சிற்ற	-9.91898
▁பரிந்துரை	-9.91903
▁வந்தனர்	-9.91927
ச்செ	-9.92031
▁மலர்	-9.92053
5%	-9.92072
நோ	-9.9208
▁ஏற்றுக்கொள்ள	-9.92161
▁அறிந்து	-9.92228
▁தோன்ற	-9.92287
▁இந்தியப்	-9.92287
பிய	-9.923
▁குடியேற்ற	-9.9231
▁அறியப்படுகிறது	-9.9231
நகர	-9.92331
▁சூழ்நிலை	-9.92362
▁எழுப்ப	-9.92364
யிர்	-9.92381
▁காங்கிரஸ்	-9.92456
▁உள்ளடக்க	-9.92495
im	-9.92502
▁கால்பந்து	-9.92562
▁படைத்த	-9.92597
▁நட	-9.92605
▁வாய்ப்பாடு	-9.92676
▁நிலையான	-9.92785
▁கையாள	-9.92865
ிருக்கின்றன	-9.92873
▁வார்	-9.929
▁வைர	-9.9294
லிங்க	-9.93063
ராம்	-9.93087
▁கலி	-9.93097
ஸா	-9.93101
▁போட்டியிட்டு	-9.93172
▁உர	-9.93181
▁இடைவெளி	-9.9325
இந்திய	-9.93255
மொ	-9.93288
▁அவர்களை	-9.93419
▁பாவ	-9.93487
தார	-9.93499
▁பூச்சி	-9.93528
▁அற	-9.93563
▁குடும்பம்	-9.93575
▁முடிய	-9.9359
Cl	-9.9363
▁அவள்	-9.93651
▁இத்திரைப்படம்	-9.9369
ho	-9.93719
▁தூர	-9.93783
▁ஒன்றான	-9.93801
23	-9.93911
▁தொலைவிலும்	-9.93966
▁வழியில்	-9.93977
ti	-9.93992
ளே	-9.94014
▁தொடங்க	-9.94055
நே	-9.9406
▁கோப்பை	-9.94079
▁ஆரம்பத்தில்	-9.94099
▁நீரில்	-9.94149
ிசை	-9.94153
சென்	-9.94173
▁சார	-9.94179
▁முறைகள்	-9.94188
க்கிய	-9.94236
▁இத்தாலிய	-9.94249
▁பற்றியும்	-9.94301
▁எளிய	-9.94352
▁உத்தர	-9.94355
▁ஹே	-9.94392
▁கட	-9.94468
ாளர்கள்	-9.94512
▁மரண	-9.94528
▁முட்டை	-9.94547
▁கூறுகிறார்	-9.9455
மாற்ற	-9.94559
ீடு	-9.9457
▁வானியல்	-9.94611
▁யூத	-9.94617
▁அகற்ற	-9.94667
▁நிகழ்வ	-9.94667
▁பொன்	-9.94694
▁மதிப்ப	-9.94769
களிடையே	-9.94773
▁தோல்	-9.94801
▁மலேசியா	-9.94805
▁நு	-9.94873
த்தர	-9.94888
ப்பட்டனர்	-9.94889
▁தொழிற்சாலை	-9.94894
▁போதும்	-9.94982
ாகப்	-9.95004
▁தீவிர	-9.95059
களி	-9.95138
புர	-9.95144
▁மொழிகளில்	-9.95163
போல்	-9.95195
வானது	-9.95235
▁நூலக	-9.95237
▁மாகாணத்தில்	-9.95258
▁இந்தச்	-9.95362
ப்படுத்தி	-9.95383
▁ஆங்கிலம்	-9.95394
ப்பாக	-9.95431
ண்டை	-9.95437
▁தயாரிப்ப	-9.95526
▁விகித	-9.95609
▁கன்னியாகுமரி	-9.9561
82	-9.95674
▁1984	-9.95849
▁தரை	-9.95908
▁சித்திரை	-9.95954
▁என்பதாகும்	-9.95959
மய	-9.95984
▁தண்டனை	-9.96007
hi	-9.96044
▁நரம்பு	-9.96116
▁பாராளுமன்ற	-9.96175
▁மேடை	-9.96293
▁செயல்பாடு	-9.96296
▁அழகிய	-9.96304
▁மிகக்	-9.96328
▁வித	-9.9635
▁மாசி	-9.96417
▁செய்தனர்	-9.96429
▁ஆடை	-9.96537
▁புரோ	-9.9654
ங்கிய	-9.9656
200	-9.96578
▁இதுவரை	-9.96594
▁1994	-9.96598
ப்பாடு	-9.96637
▁யோக	-9.96653
▁அந்தப்	-9.96656
▁செடி	-9.96732
The	-9.96791
27	-9.96838
▁பரிமாற்ற	-9.96841
▁முருக	-9.96849
▁2018	-9.9685
லிங்	-9.96858
▁எழுந்த	-9.96873
▁கடுமையான	-9.96986
▁ஆங்கிலேய	-9.96992
▁கொண்டிருந்தது	-9.97009
▁செய்யப்படுகிறது	-9.97051
▁வேலூர்	-9.97073
▁அன்னை	-9.97109
ங்களுக்கும்	-9.97138
தூ	-9.97237
36	-9.97243
▁அணிக்கு	-9.97251
▁கட்டுப்பாடு	-9.9731
▁சேர்ந்தவர்	-9.97447
▁அசை	-9.97468
னீ	-9.97495
▁பிள	-9.97596
மூல	-9.97665
▁கொடுத்து	-9.977
▁கட்டட	-9.977
ொன்று	-9.97736
வாடி	-9.97747
க்கால	-9.97762
▁கோவை	-9.97774
▁முழுமையான	-9.97833
▁பிரதேசச்	-9.97858
▁ஈழ	-9.97876
▁இன்றைய	-9.97916
ேரி	-9.9794
ருடன்	-9.97951
▁மன்னன்	-9.97992
▁நடிக்க	-9.98019
▁ஈடுபட	-9.98034
▁அமைத்து	-9.98079
com	-9.98125
▁முன்னேற்ற	-9.9815
ne	-9.98186
சர	-9.98204
▁குறுகிய	-9.98217
▁நடத்தை	-9.98221
▁நடித்திருந்தனர்	-9.9828
▁பார்த்து	-9.98325
▁அளவுக்கு	-9.98343
▁பாதுகாக்க	-9.98395
▁புதின	-9.98419
்க	-9.98436
▁ஆவார்கள்	-9.98447
பள்ளி	-9.98476
▁உருவாகிறது	-9.9852
▁பூமி	-9.98562
▁மலையாள	-9.98564
▁வளர்ந்த	-9.98603
▁அஞ்சல்	-9.98636
க்கில்	-9.98636
▁ஆதார	-9.98646
பக்க	-9.98668
▁நூல்களை	-9.98761
னிடம்	-9.98768
▁கட்டப்பட்டது	-9.9881
ங்களுள்	-9.98857
பென்	-9.98863
ண்டோ	-9.98878
▁பார	-9.98903
▁ஆற்று	-9.98911
▁தக்க	-9.98922
ொரு	-9.98928
▁உருவானது	-9.98961
▁காலப்	-9.98966
▁கிடைத்தது	-9.98984
▁வலிமை	-9.98995
▁சேர்ந்தார்	-9.99022
▁சிறப்பான	-9.99037
▁இப்ப	-9.99055
▁கடந்து	-9.9906
▁பாணி	-9.99075
ங்களான	-9.99126
வூர்	-9.99137
ெழு	-9.99167
▁தோற்றம்	-9.99212
செல்	-9.99216
▁குளிர்	-9.99217
▁அறுவை	-9.9927
ிருந்தனர்	-9.99302
▁குண்டு	-9.99307
கட்ட	-9.99323
ரல்	-9.99329
▁இன்னொரு	-9.99335
▁அமைச்சர்	-9.99422
▁கிமு	-9.9947
▁கோபுரம்	-9.99485
▁1995	-9.99485
▁படைப்பு	-9.99507
▁நிர்	-9.99511
ஞ்சு	-9.99533
III	-9.99553
▁பொறுப்பு	-9.99566
▁பிடிக்க	-9.9959
புற	-9.99615
தள	-9.99634
▁சமயத்தில்	-9.99653
▁தளபதி	-9.99657
ராம	-9.99684
னுடன்	-9.9973
▁வைக்கப்பட்ட	-9.99739
▁புகை	-9.99832
J	-9.99845
▁குரல்	-9.99937
▁காலை	-10.0005
▁பிணைப்பு	-10.0009
▁நபர்கள்	-10.0009
ut	-10.0013
▁இயக்குனர்	-10.0014
di	-10.0017
▁ஷ	-10.0018
▁தசை	-10.0026
▁கர்நாடக	-10.0028
▁மான்	-10.0028
▁வம்ச	-10.0031
ங்கல்	-10.0046
▁1992	-10.0055
66	-10.0056
▁ஆசிரிய	-10.0058
▁மட்ட	-10.0058
மேல்	-10.0063
▁இஸ்லாமிய	-10.0067
▁தயாரித்த	-10.0067
▁கொண்டதாக	-10.0068
▁பட்டியலில்	-10.007
ஸ்ட	-10.0078
▁ஏற்றுக்	-10.0079
ிற்கான	-10.0081
▁மார்ச்சு	-10.0082
83"	-10.0083
ாகக்	-10.0087
▁நாகப்பட்டினம்	-10.0089
▁சுற்ற	-10.0089
▁ரீதியாக	-10.0093
▁அழைக்கப்பட்ட	-10.0093
id	-10.0102
ியுள்ளார்	-10.0104
▁மாவட்டங்களில்	-10.0109
▁ஜார்ஜ்	-10.011
▁முறையே	-10.0114
மூர்த்தி	-10.0127
▁இருபது	-10.0129
▁நவ	-10.013
▁திறமை	-10.0131
▁நிறுவப்பட்ட	-10.0134
▁பரப்பு	-10.0134
பிள்	-10.0135
▁தேட	-10.0141
தன	-10.0142
46	-10.0144
op	-10.0144
▁மல	-10.0148
all	-10.0148
▁ஓய்வு	-10.0154
▁பெருக்க	-10.0154
மல்	-10.0156
▁விடுதலைப்	-10.0159
▁போரின்	-10.0159
▁பந்து	-10.0162
குமார்	-10.0169
ாறு	-10.0175
▁80	-10.0175
▁ஆயினும்	-10.018
▁பேராசிரியர்	-10.0186
ந்தது	-10.0187
▁°	-10.0188
கொண்டு	-10.0188
▁இப்படி	-10.0189
▁குளோரைடு	-10.0193
▁தண்ணீர்	-10.0196
▁நாராயண	-10.0197
▁செய்வது	-10.0202
▁200	-10.0203
விடும்	-10.0203
▁தீர்வு	-10.0205
▁கடற்	-10.0205
▁மக்களவை	-10.0208
▁வருடம்	-10.021
▁ஆதரவு	-10.0213
▁பிராந்திய	-10.0217
▁சௌ	-10.0221
▁வளரும்	-10.0228
ேஸ்வர	-10.0236
▁நந்தி	-10.024
▁கோள்	-10.0245
ர்ஸ்	-10.0247
த்தல	-10.0248
▁ஒன்றில்	-10.0251
▁கேட்ட	-10.0258
▁சம்	-10.0262
ிருந்தன	-10.0267
▁பழமையான	-10.0268
▁நாமக்கல்	-10.0272
▁அண்ட்	-10.0273
வதை	-10.0276
▁ஆங்கிலத்தில்	-10.0278
▁பணம்	-10.0279
▁1997	-10.0286
ப்புற	-10.0286
▁உள்நாட்டு	-10.0289
▁எதுவும்	-10.0289
▁கோயம்புத்தூர்	-10.0291
▁போற்ற	-10.0295
▁வேறுபாடு	-10.0303
▁உண்ண	-10.0305
க்கப்பட்டு	-10.0306
ச்சர்	-10.0307
▁வாழ்கின்றனர்	-10.0317
▁எதிர்த்து	-10.0317
▁குகை	-10.0322
43	-10.0323
ரியோ	-10.0325
▁1947	-10.033
▁எளிதாக	-10.0335
ீஸ்வரர்	-10.0336
▁கிருஷ்ணகிரி	-10.0341
▁ஒடுக்க	-10.0343
ப்படுத்தப்பட்ட	-10.0345
▁தெளிவாக	-10.0346
ுப்	-10.0346
▁வழக்கம்	-10.0347
▁சேர்மமாகும்	-10.0348
▁ஆக்சைடு	-10.036
▁இச்சேர்மம்	-10.0363
▁பொருளை	-10.037
னுடைய	-10.0372
▁ரு	-10.0373
▁தொடக்கத்தில்	-10.0376
▁மாசு	-10.0384
▁உற	-10.0387
▁திண்டுக்கல்	-10.0389
ist	-10.0389
ரொ	-10.0395
▁வழிபட	-10.0397
களா	-10.04
▁கோர்	-10.04
▁விரிவாக்க	-10.0401
▁சகோதரி	-10.0403
▁குடும்பத்தில்	-10.0406
▁வளை	-10.0406
▁வரையிலான	-10.0408
ap	-10.0422
▁இயங்கும்	-10.0425
யிர	-10.0428
per	-10.0435
▁அரபு	-10.0435
▁மருத்துவமனை	-10.0439
▁மத்தியில்	-10.044
▁தோன்றும்	-10.0442
▁தெரிவிக்க	-10.0453
பாட	-10.0456
▁வீழ்ச்சி	-10.0458
▁நைட்	-10.0463
▁கட்டிடக்கலை	-10.0467
▁குறைபாடு	-10.0468
▁உயிர	-10.0469
ம்மா	-10.047
▁32	-10.0471
▁கவிஞர்	-10.0471
▁சதவீத	-10.0471
▁நீர்ம	-10.0473
வாகும்	-10.0475
▁தேடி	-10.0478
க்கீ	-10.0479
▁உண்மையில்	-10.0479
பல	-10.0483
▁உயிரியல்	-10.0484
▁குட	-10.0486
▁போக	-10.0486
புல	-10.0487
வெல்	-10.0489
to	-10.0491
▁ஐதரசன்	-10.0496
▁உருவாக்கினார்	-10.0501
▁தர்மபுரி	-10.0502
சம	-10.0507
▁முதலான	-10.0508
▁இளைய	-10.051
▁சுரங்க	-10.0511
ோட்ட	-10.0513
பியா	-10.0514
ரிடம்	-10.0514
மியா	-10.0517
▁ஆயிரம்	-10.0524
ஹெ	-10.0525
ment	-10.0528
▁b	-10.0533
▁கடற்படை	-10.0533
▁மையமாக	-10.0537
ாளராக	-10.0538
▁அலுவலர்	-10.0538
க்கலை	-10.054
லிருந்து	-10.0542
▁மாநகர	-10.0546
ஸ்டா	-10.055
▁கட்டளை	-10.0551
▁நகரத்தின்	-10.0551
▁குமார	-10.0554
▁கடல	-10.0555
▁சன்னதியும்	-10.0555
▁நாட்களில்	-10.056
▁அந்	-10.0561
▁அழுத்தம்	-10.0563
ட்டன்	-10.0566
ஜன்	-10.057
▁பண்பாடு	-10.0572
54	-10.0574
▁டேவிட்	-10.0575
▁வது	-10.0581
தேவி	-10.0581
▁ஏர்	-10.0586
▁பிரான்சு	-10.059
பெர்	-10.0591
▁எதிர	-10.0594
மானி	-10.0594
▁சுவர்	-10.0596
கூர்	-10.0597
▁தலைப்பு	-10.0599
க்கிறது	-10.06
▁பீட	-10.0603
மீன்	-10.0603
▁அதிகரிக்க	-10.0604
▁தேவர்	-10.0605
▁இடது	-10.0608
டும்	-10.061
▁1993	-10.0617
▁உள்ளே	-10.0623
அல்லது	-10.0625
▁புற்றுநோய்	-10.0631
▁அண்ணா	-10.0635
▁இடத்தை	-10.0635
▁ரொ	-10.0635
▁வலது	-10.0635
▁ஊர	-10.0637
▁உபசன்னதி	-10.064
ிருச்சிராப்பள்ளி	-10.0642
▁ஒன்றியத்தில்	-10.0645
▁ஆணைய	-10.0645
வருக்கு	-10.0647
▁தீவுகள்	-10.0651
▁பல்கலைக்	-10.0651
▁தமிழ்ப்	-10.0653
▁நுண்	-10.0662
▁தெரிய	-10.0668
பட்டு	-10.0672
▁இயக்கிய	-10.0676
▁வேர்	-10.0679
▁சேத	-10.068
பரி	-10.0684
ம்பாளையம்	-10.0685
▁நின்று	-10.0687
விலுள்ள	-10.0687
பெரு	-10.0696
▁35	-10.0699
தல	-10.0699
மாலை	-10.0702
பில்	-10.0705
▁அரிய	-10.0708
▁சான்	-10.071
▁இதர	-10.0712
▁பஞ்சாப்	-10.0716
▁கொழும்பு	-10.0717
▁வேக	-10.0717
▁வண்ணம்	-10.0722
▁U	-10.0733
▁அணுக்கரு	-10.0734
▁இலக்கண	-10.0745
▁சன்னதிகள்	-10.0754
▁செயல்படுகிறது	-10.0754
▁சராசரியாக	-10.0756
ண்டர்	-10.076
co	-10.076
▁விளங்கியது	-10.0766
▁நெறிமுறை	-10.0768
▁ஆட்	-10.0775
▁வடிவமைக்கப்பட்ட	-10.0777
ge	-10.0778
ின்ற	-10.0783
▁அந்தக்	-10.0783
▁பிழை	-10.0784
▁மாகாணத்தின்	-10.0802
▁நியூயார்க்	-10.0803
ag	-10.0812
▁தண்ட	-10.0825
▁சன்	-10.0826
▁வழங்கப்படும்	-10.0826
▁சுகாதார	-10.0834
▁விரி	-10.0835
▁திரும்பி	-10.0836
க்குக்	-10.0843
ண்ணி	-10.0844
▁பண்ப	-10.0853
ell	-10.0859
சக்தி	-10.0862
▁வீரர்கள்	-10.0864
▁சுவை	-10.0868
100	-10.0868
▁நிகழும்	-10.0872
▁நீரை	-10.0875
டைந்த	-10.088
▁பட்டு	-10.0884
▁வங்காளதேச	-10.0886
களினால்	-10.0886
▁ஃ	-10.0893
▁அட்	-10.0896
மிட	-10.0898
▁சிறுவர்	-10.0907
▁அன்ன	-10.0911
▁இழை	-10.0911
▁உதவ	-10.0918
▁திருச்சி	-10.0919
வட	-10.0922
த்தினர்	-10.0926
ன்ட்	-10.0927
டுகள்	-10.0933
▁அரசன்	-10.0933
▁தாயார்	-10.0936
விழா	-10.0936
▁அனுபவ	-10.0937
▁மொழிகள்	-10.094
▁பிரே	-10.0946
ஜர்	-10.0947
▁அர்	-10.0948
▁தோல்வி	-10.0951
ெடுக்க	-10.0951
▁தொடு	-10.0952
▁கன்னி	-10.0958
▁தொடர்ச்சியாக	-10.096
▁1977	-10.096
▁இயக்குநர்	-10.0969
▁பணியாற்றிய	-10.0971
▁கேட்டு	-10.0972
▁&	-10.0977
▁மற	-10.0978
ரக	-10.0981
மட்ட	-10.0983
lo	-10.0983
லான்	-10.0985
▁செயற்பாடு	-10.0985
▁இரண்டும்	-10.0987
▁மாகாணம்	-10.0987
▁இணைக்க	-10.0994
லிங்கம்	-10.0998
▁விமர்சன	-10.0998
▁என்பர்	-10.0999
▁வேண்டி	-10.1008
34	-10.1014
▁சார்பாக	-10.1016
வர்களின்	-10.1026
37	-10.1028
▁சோழர்	-10.1028
▁தொல்லியல்	-10.1031
▁நான்காவது	-10.1031
▁இனங்கள்	-10.1033
▁பாதிப்பு	-10.1035
▁பாலின	-10.1038
நெ	-10.1039
▁பிரிவில்	-10.104
ல்கள்	-10.1041
உருவாக்கப்பட்டது	-10.1041
மாக்க	-10.1043
02	-10.1052
em	-10.1054
ொளி	-10.1065
▁பிரச்சினை	-10.1066
▁பில்லியன்	-10.1067
▁புதிதாக	-10.1071
த்தம்	-10.1071
▁கனடா	-10.1071
▁கொண்டவை	-10.1075
▁வட்டத்தில்	-10.1079
▁எடுக்கப்பட்ட	-10.1081
▁ஜேம்ஸ்	-10.1082
▁பணியாற்றி	-10.1083
▁உருசிய	-10.1084
▁தவிர்க்க	-10.1085
▁பிளா	-10.1085
ாதி	-10.1087
▁ஆவி	-10.1095
▁ஃப	-10.1096
▁பாதுகாப்ப	-10.1097
▁அறு	-10.11
▁சக	-10.1102
</	-10.1103
▁மகளிர்	-10.1106
▁கவனம்	-10.1109
ஜீ	-10.1109
கோண	-10.111
▁உட்பட்டது	-10.1112
ab	-10.1116
▁துளை	-10.1123
▁நன்	-10.1128
▁பாரசீக	-10.1129
▁நடந்து	-10.1129
▁வடி	-10.1129
சார	-10.113
▁பாக்	-10.1132
▁பாதி	-10.1134
▁1987	-10.114
▁மீட்ட	-10.114
▁பிடித்த	-10.114
▁சிங்கப்பூர்	-10.1142
ுரு	-10.1147
▁மண்டலம்	-10.1149
▁விளக்கு	-10.1151
▁பெட்டி	-10.1155
▁ஆர்வம்	-10.1156
▁உலகளாவிய	-10.1158
▁துப்பாக்கி	-10.1164
க்கால்	-10.1165
▁வெளியீடு	-10.1166
▁சார்பில்	-10.1167
ந்தார்	-10.1179
தைக்	-10.1179
யீ	-10.1181
ெல்லாம்	-10.1183
▁(18	-10.1184
ியம்	-10.1185
▁அழகு	-10.1198
▁எச்	-10.1201
▁ஆலயம்	-10.1201
mo	-10.1203
சிங்	-10.1203
▁வளர்ந்து	-10.1204
த்தவர்	-10.1213
வரிசை	-10.1213
▁ஏற்பாடு	-10.1226
▁திருவ	-10.1227
டுப்பாட்டக்காரர்	-10.1229
▁பிரிக்கப்பட்ட	-10.1234
▁கிபி	-10.1238
ரஸ்	-10.1243
▁அமைப்பில்	-10.1245
▁சீர்திருத்த	-10.1245
▁நாட்டை	-10.1246
▁அணுக	-10.1252
▁பங்குனி	-10.1253
▁அழக	-10.1256
▁இளைஞர்	-10.1256
▁அட்டவணை	-10.126
▁போட்டிகள்	-10.1261
ாபுரம்	-10.1261
இரு	-10.1263
▁காங்கிரசு	-10.1265
▁திறன	-10.1272
▁மித	-10.1275
▁குரோ	-10.1276
▁சுப்பிரமணிய	-10.128
▁பேசும்	-10.128
▁டு	-10.1284
தேவ	-10.1285
▁பெற்றுள்ளது	-10.1289
▁வரிசையில்	-10.129
▁45	-10.1294
ம்மன்	-10.1294
க்கரு	-10.1294
▁திருப்பூர்	-10.1295
▁உணர	-10.1296
ளவில்	-10.1297
▁படிப்பு	-10.1298
▁வடக்கில்	-10.1301
ig	-10.1302
ச்சேரி	-10.1307
ன்னி	-10.1308
▁இருப்பதை	-10.1309
▁1988	-10.1316
▁வரு	-10.1316
▁விதமாக	-10.1319
▁கூறும்	-10.132
ந்த்	-10.1321
▁நிறைய	-10.1321
▁1971	-10.1322
▁நிலைக்கு	-10.1324
▁பெண்ண	-10.1326
▁3,	-10.1327
▁சித்த	-10.1327
ஸ்டி	-10.1329
ஊ	-10.1331
ப்பிள்ளை	-10.1332
▁டாக்டர்	-10.1334
▁”	-10.1338
▁ஒப்பந்தம்	-10.1339
ay	-10.134
ம்பல	-10.1341
தாய்	-10.1342
▁ஆர்வ	-10.1344
ுவார்கள்	-10.1345
▁அம்	-10.1346
II	-10.1358
▁நினைவாக	-10.136
பொழுது	-10.136
▁கொழுப்பு	-10.1362
▁இராஜ	-10.1375
▁ஆல்ப	-10.1375
▁உயிரி	-10.1375
▁இடைப்பட்ட	-10.1379
▁பறவைகள்	-10.1382
▁மக்களால்	-10.1385
ce	-10.1386
▁மருத்துவம்	-10.1386
▁ஏற்படுகிறது	-10.1387
▁மந்திர	-10.1388
▁பதிப்ப	-10.1389
▁அப்ப	-10.139
ுள்	-10.1395
▁உடலில்	-10.1397
மென்	-10.1398
▁நார்	-10.14
▁காய்	-10.1401
▁படிக்க	-10.1401
▁மேலாக	-10.1411
▁குடியரசுத்	-10.1415
▁தூய	-10.1418
▁வழங்கப்படுகிறது	-10.1421
▁குழி	-10.1422
யிலான	-10.1423
ry	-10.143
▁சாலையில்	-10.1432
▁பகுதியாகும்	-10.1438
▁நூல	-10.1439
முடியும்	-10.144
லட்சுமி	-10.1441
க்குறி	-10.1444
▁1986	-10.1446
▁பின்னணி	-10.145
▁கொண்டவர்	-10.1451
57	-10.1453
▁திருவள்ளூர்	-10.1457
ect	-10.146
▁சாதன	-10.1462
▁இந்நூல்	-10.1464
▁அருள்	-10.1464
▁காப்பாற்ற	-10.1465
▁நெய்	-10.1469
▁தமிழகத்தில்	-10.1476
▁வெளியிட்டது	-10.1477
▁உரோமை	-10.1479
கண	-10.1479
வட்ட	-10.1484
க்கன்	-10.1484
▁நொதி	-10.1485
▁அனுமதிக்க	-10.1486
த்திரி	-10.1486
ப்பாதை	-10.1487
த்ர	-10.1487
▁ஐய	-10.1489
ங்களாகும்	-10.1491
▁குவி	-10.1496
▁பரந்த	-10.1496
சாலை	-10.1504
க்கார	-10.1509
vi	-10.1512
சிறு	-10.1521
▁இறைவன்	-10.1521
▁தவ	-10.1523
வெண்	-10.153
▁தர்ம	-10.153
▁எக்ஸ்	-10.1539
▁எளிதில்	-10.1541
▁தாழ்	-10.1541
▁தீர்த்த	-10.1546
ட்ரி	-10.1549
▁வருகின்றது	-10.1552
▁காடு	-10.1554
ிப்பு	-10.1556
கொள்	-10.1558
▁வேகமாக	-10.156
▁கற்	-10.1562
▁வாக்கு	-10.1563
▁உதவுகிறது	-10.1565
▁எனப்படுகிறது	-10.1569
▁கதாபாத்திர	-10.1577
யாகப்	-10.1578
▁அழிக்க	-10.1583
▁இணைத்து	-10.1585
ப்பே	-10.1586
▁பரிசோதனை	-10.159
▁உள	-10.159
ங்க்	-10.1594
ex	-10.1595
▁இலக்கியம்	-10.1597
வர்களாக	-10.1599
கிறார்	-10.1602
▁வன்முறை	-10.1604
ீர்	-10.1606
▁குடியிருப்பு	-10.1607
த்ரா	-10.1607
▁அடக்க	-10.1608
▁எழுத்த	-10.1614
▁பண்ட	-10.1615
ுகிறான்	-10.1616
▁கங்கை	-10.1616
▁அரங்க	-10.1619
ும	-10.1626
ாலேயே	-10.163
▁இயலும்	-10.163
வையாகும்	-10.1633
▁சுர	-10.1639
▁கணக்க	-10.1641
▁டீ	-10.1649
▁தொடங்கப்பட்டது	-10.165
▁வெண்	-10.1651
▁அள	-10.166
▁விற்க	-10.1669
▁உயரமான	-10.167
நாள்	-10.1672
வண	-10.1675
▁de	-10.1678
▁விஷ்ணு	-10.1679
▁இழந்த	-10.1685
ஸை	-10.169
▁சேர்க்கப்பட்ட	-10.1694
த்தீ	-10.1695
▁கிடைக்க	-10.1698
க்களில்	-10.1702
▁சாய்	-10.1704
▁அம்ம	-10.1704
▁இனம்	-10.1705
▁பேரரச	-10.1705
▁பிரிட்டிஷ்	-10.171
ப்படுவதில்லை	-10.1711
▁பேரரசர்	-10.1712
▁கழிவு	-10.1716
▁இவ்வூர்	-10.1717
▁குவா	-10.1718
▁இத்த	-10.1719
▁குறிப்புகள்	-10.1725
▁மீள	-10.1726
லங்கா	-10.1726
வியா	-10.1736
▁பிளே	-10.1738
▁அன	-10.1738
▁அனைத்துலக	-10.1739
தார்	-10.1751
▁மக்களும்	-10.1752
▁வீட்டில்	-10.1762
▁இயங்கி	-10.1764
த்தொகை	-10.1767
▁கட்டாய	-10.1769
▁எலி	-10.1772
▁தாங்க	-10.1772
▁கட்டுப்பாட்டு	-10.1779
மில்	-10.1782
▁புரிந்த	-10.1783
ச்சை	-10.1787
▁லீக்	-10.1787
▁அவ்வாறு	-10.1789
▁விவாத	-10.1792
ிடையே	-10.1797
▁பெயர்கள்	-10.1802
▁என்பவை	-10.1804
களிடமிருந்து	-10.1805
டாக	-10.1805
▁தொழிற்	-10.1806
▁கிழக்கில்	-10.1809
▁படத்தின்	-10.1813
▁வல	-10.1815
▁இராகம்	-10.1818
▁தலைமுறை	-10.1826
ாய	-10.1832
▁என்பதற்கு	-10.1834
▁ரீ	-10.1838
▁முக்கியமாக	-10.1839
▁காணப்பட்ட	-10.184
▁புவியியல்	-10.1841
▁அரு	-10.1842
▁வரையில்	-10.1846
ill	-10.1855
▁சகோதரர்	-10.1855
▁விளை	-10.1859
தென்	-10.1859
வரு	-10.186
▁தென்னாப்பிரிக்க	-10.1861
▁வாங்கி	-10.1865
▁ஒன்றியத்தின்	-10.1869
த்துக்கும்	-10.1872
களாகப்	-10.1875
க்கண	-10.1877
ினான்	-10.1886
▁அருள	-10.1894
▁கொள்ளலாம்	-10.1905
▁ஆண்டி	-10.191
▁சமவெளி	-10.1914
▁போன	-10.1915
பேர்	-10.1923
▁கம்பி	-10.1924
▁ஜெர்மனி	-10.1924
ஆக	-10.1927
▁காவிரி	-10.1934
CO	-10.1938
▁விளக்கம்	-10.1941
▁கரூர்	-10.1943
▁விளங்கிய	-10.1949
▁போட	-10.1949
க்கூறு	-10.195
மேன்	-10.195
▁ஆள	-10.1954
ல்ட்	-10.1955
▁அவனது	-10.1955
▁சங்கிலி	-10.1955
▁கௌரவ	-10.1959
▁பரிந்துரைக்க	-10.1966
திறன்	-10.1971
▁குழப்ப	-10.1976
▁இதுவும்	-10.1976
ak	-10.1978
▁இப்பகுதியில்	-10.1985
▁இறுதியாக	-10.1988
▁சொல்லி	-10.1991
▁நடக்கும்	-10.1992
▁1985	-10.1993
வைத்	-10.1996
▁கோர	-10.1996
▁போன்றவற்ற	-10.2
கிரா	-10.2
▁காலகட்டத்தில்	-10.2001
▁1978	-10.2008
▁முதற்	-10.2014
▁விஷ	-10.2014
▁அவள	-10.2016
நாத்	-10.2017
▁1979	-10.2022
▁செயல்படும்	-10.2023
கின்ற	-10.2024
▁நன்மை	-10.2026
லோக	-10.2026
▁தங்களது	-10.2027
▁சிக்கலான	-10.2032
வள்	-10.2037
▁1967	-10.2037
▁நிலப்பகுதி	-10.2039
ங்களுக்கான	-10.2039
▁அளிப்ப	-10.2039
▁கண்டுபிடித்த	-10.2043
ிற	-10.2044
காண	-10.2045
▁வாழ்வ	-10.2052
_1	-10.2054
▁500	-10.2055
▁வின்	-10.2056
▁விசாரணை	-10.2056
ெடுத்த	-10.2057
▁கருவிகள்	-10.2058
ஃப	-10.2059
▁இதழ	-10.206
▁நோயாளி	-10.2062
ity	-10.2064
▁நாவல	-10.2064
▁நிறம்	-10.2065
▁X	-10.2075
▁இவ்வி	-10.2076
▁தொடக்கம்	-10.208
▁to	-10.2081
ac	-10.2082
ேசுவரர்	-10.2082
க்கொ	-10.2084
▁இயங்க	-10.2086
▁கலிபோர்னியா	-10.2093
▁பயன்படுத்திய	-10.2096
▁எரிமலை	-10.2098
மையால்	-10.2101
▁துறைகளில்	-10.2109
▁குமார்	-10.2109
▁பகுதியின்	-10.2112
கோட்டை	-10.2117
ன்றி	-10.2118
▁மெக்	-10.2122
கால்	-10.2124
▁இலங்கைத்	-10.2125
திர	-10.2126
▁இலக்க	-10.213
லான	-10.2133
ட்ரோ	-10.2137
▁மதிப்பீடு	-10.2138
▁பயின்றார்	-10.2143
▁இரை	-10.2146
▁1983	-10.2147
▁அம்மா	-10.2148
▁அளவிட	-10.2153
▁நிறுவிய	-10.2157
▁செய்யப்பட்டார்	-10.2159
லக	-10.2159
no	-10.2167
▁வீதம்	-10.2167
▁கொடுக்கப்பட்ட	-10.2168
▁தடுப்ப	-10.2169
வக	-10.2175
▁மிகை	-10.218
▁மாற்றங்கள்	-10.2185
▁சல்	-10.2186
▁தெற்கில்	-10.2189
ஸ்த	-10.2194
வளை	-10.2196
▁கிளா	-10.2198
▁அறிவித்தது	-10.2198
ப்பன்	-10.2199
▁சொற்கள்	-10.2199
த்துக்கான	-10.2201
▁சிந்து	-10.2202
ஞ்சா	-10.2205
▁கிடைக்கிறது	-10.2214
▁ஆற்றலை	-10.2215
▁Ch	-10.2226
▁பக்தி	-10.2235
▁பயனர்	-10.2235
க்கப்படும்	-10.2239
▁இருந்தவர்	-10.224
▁முடிவில்	-10.2242
முதல்	-10.2243
த்ரி	-10.2244
▁தம்பி	-10.2246
▁விரைவாக	-10.2265
வைச்	-10.2267
▁காளி	-10.2268
ium	-10.2269
▁திட்டமிட்ட	-10.227
ப்பெருமாள்	-10.2277
▁கற்க	-10.2279
▁கருப்ப	-10.228
▁ஆலை	-10.2282
▁n	-10.2284
▁இவன	-10.2285
வாதம்	-10.2286
கின்றனர்	-10.2286
▁36	-10.2293
▁நிலம்	-10.2295
சொ	-10.2295
▁1948	-10.2296
▁வெளிவந்தது	-10.2303
ீட்டு	-10.2309
▁கூட்டமைப்பு	-10.231
▁குழுவின்	-10.2315
▁சிறுகதை	-10.2317
▁சர்க்கரை	-10.2318
▁கடமை	-10.2321
▁ஆகியோரின்	-10.2323
ராஜன்	-10.2324
▁நெறி	-10.2325
▁சொத்து	-10.2328
▁1930	-10.2343
▁நிறுவனத்தில்	-10.2345
▁விவிலிய	-10.2347
▁கொடை	-10.2347
இல	-10.235
▁1000	-10.2353
▁அறிமுக	-10.2356
வைப்	-10.2359
முத்து	-10.2366
▁பகுப்பாய்வு	-10.2366
▁ஆய்	-10.2368
▁மாறுபட்ட	-10.2369
▁ஏற்கனவே	-10.2369
▁ஒப்ப	-10.2371
நாக	-10.2375
▁இவற்ற	-10.238
ம்பூர்	-10.2382
▁70	-10.2386
மீது	-10.2386
▁அலுவலகம்	-10.2391
ci	-10.2393
த்திறன்	-10.2393
▁ஆப்பிரிக்க	-10.2393
▁கல்வியை	-10.2395
த்தான	-10.24
▁கணக்கு	-10.2401
▁காலநிலை	-10.2404
▁ஒட்டி	-10.2406
▁திருவாரூர்	-10.2407
▁குறிப்பிடுகிறது	-10.2413
▁முன்னதாக	-10.2414
▁சதவீதம்	-10.2415
▁அழைத்து	-10.2417
▁ஆற்ற	-10.2419
▁செல்வாக்கு	-10.242
ங்களிலிருந்து	-10.2425
பெருமாள்	-10.2426
▁வீதி	-10.2428
த்தனர்	-10.2428
▁மணிக்கு	-10.2429
▁வகித்த	-10.2432
▁உருவாக	-10.2434
▁தரம்	-10.2436
மையை	-10.244
யாளராக	-10.2441
▁கொண்டனர்	-10.2441
▁நண்பர்	-10.2441
▁மாநிலமான	-10.2447
▁வெகு	-10.2447
▁St	-10.2449
▁வெளிப்புற	-10.2451
▁காணப்படுகின்றது	-10.2451
ராமன்	-10.2463
▁அமை	-10.2464
வல்ல	-10.247
▁தென்னிந்திய	-10.2477
த்தினர	-10.248
▁சீர	-10.248
▁தெரிவு	-10.2484
▁தொற்று	-10.2488
▁ராம்	-10.2494
▁1972	-10.2494
▁வடக்கே	-10.2494
▁சரியாக	-10.2495
▁1940	-10.2495
▁பிரித்து	-10.2502
▁இணைக்கும்	-10.2502
சாரி	-10.2506
பாட்டு	-10.2509
▁மீற்றர்	-10.2515
▁நிறத்தில்	-10.2516
-2	-10.252
▁வாழ்க்கையை	-10.2521
▁செயல்பட்டு	-10.2521
வாழ்	-10.2524
▁எதிர்கால	-10.2527
றும்	-10.2533
▁செல்கிறது	-10.2534
▁இறந்தார்	-10.2537
▁தலைநகர்	-10.2538
ங்களைத்	-10.2539
▁மேற்கில்	-10.2539
போதும்	-10.2548
▁விண்ண	-10.2553
▁டன்	-10.2553
▁வழங்குகிறது	-10.2554
▁நிலைமை	-10.2557
▁பாதிக்க	-10.2563
▁சடங்கு	-10.2563
▁யார்	-10.2566
▁குற்றம்	-10.2567
▁பக	-10.2568
▁நோபல்	-10.257
▁காட்டி	-10.2571
ியம்மன்	-10.2574
▁முதல	-10.2575
▁துறவி	-10.2577
▁தானிய	-10.2588
▁என்றே	-10.2589
▁உத்தி	-10.259
செய்	-10.2591
▁சமண	-10.2591
▁பட்டை	-10.2592
▁பாகிஸ்தான்	-10.2592
▁பழக்க	-10.2594
ந்தன்	-10.2594
ரியன்	-10.2601
▁திண்ம	-10.2604
ன்சு	-10.261
▁பூச	-10.2615
▁புரட்டாசி	-10.2615
▁கடலில்	-10.2615
▁தொலைபேசி	-10.2616
▁முடிந்த	-10.2617
▁சிறப்ப	-10.2623
▁துவங்க	-10.263
▁மாட	-10.2634
▁மன்னன	-10.264
▁தாவரங்கள்	-10.2644
▁ஏற்று	-10.2646
▁முன்னோடி	-10.2646
▁தயாரிக்கப்பட்ட	-10.2652
▁நாடுகளுக்கு	-10.2653
▁ஒருவராக	-10.2654
▁எப்போதும்	-10.2656
ச்சல	-10.2657
▁சிற்றூர்	-10.2658
▁இறந்து	-10.2658
▁கற்பனை	-10.2661
பொருள	-10.2663
▁வரலாற்றை	-10.2666
▁அரிசி	-10.2666
தையும்	-10.2669
▁கருதப்படும்	-10.267
▁அருங்காட்சியக	-10.2673
▁கோல	-10.2674
▁இம்மாவட்டத்தின்	-10.2674
க்கூடும்	-10.2678
▁எர்	-10.2681
▁90	-10.2684
▁பிட்	-10.2686
▁கோரிக்கை	-10.2686
▁ஆலோசனை	-10.2693
ுகிறாள்	-10.2695
ni	-10.2696
▁கேட்க	-10.2702
▁அளவிற்கு	-10.2704
▁அணுக்	-10.2708
▁தீர்மானிக்க	-10.2714
▁ஆண்டுகளாக	-10.2715
ஹோ	-10.2715
▁விலங்குகள்	-10.2716
ுடனான	-10.2716
ட்டிய	-10.2716
கிய	-10.272
▁விபர	-10.2725
கரி	-10.2729
யேற்ற	-10.2731
▁பண்ணை	-10.2734
tic	-10.2738
▁வளிம	-10.2739
▁ஏற்றுமதி	-10.2741
விக்	-10.2741
னன்	-10.2747
▁அனுப்பி	-10.2748
▁சிக்கல்	-10.2748
▁1982	-10.275
▁பொறுப்ப	-10.2754
▁எழுத்தறிவு	-10.2756
▁செய்தல்	-10.2758
வாக்க	-10.2763
▁கிங்	-10.2765
வாசி	-10.2766
கீழ்	-10.2767
ud	-10.277
▁கற்ற	-10.2771
▁தெரிகிறது	-10.2772
▁மின்சார	-10.2773
▁நடித்து	-10.2773
சிங்க	-10.2773
ற்றை	-10.2777
தனால்	-10.2779
▁நடைபெற	-10.2782
ந்தோ	-10.2785
2)	-10.2789
▁முடிந்தது	-10.279
▁1969	-10.279
▁வரைபட	-10.2792
▁மூவ	-10.2798
▁ஆற்றல	-10.2803
▁ஆய்வக	-10.2805
▁பணியில்	-10.281
தாலும்	-10.2811
▁தகவல்களை	-10.2811
▁மருத்துவர்	-10.2814
▁வெளிநாட்டு	-10.2816
யாய்	-10.2818
▁அறிகுறி	-10.2821
▁கோப்பு	-10.2827
▁தன்ன	-10.2829
▁வேட	-10.2834
▁நூறு	-10.2837
▁1962	-10.2838
ம்பை	-10.2839
ுவதும்	-10.2842
▁தக	-10.2842
▁இணைப்ப	-10.2842
ட்ரிக்	-10.2843
யர்கள்	-10.2843
he	-10.2845
▁பீட்டர்	-10.2846
▁அழைக்கப்பட்டது	-10.2849
ரியம்	-10.2854
▁வணங்க	-10.2858
தமிழ்நாடு	-10.286
▁சத	-10.2861
▁நெடு	-10.2865
ச்சல்	-10.2866
▁மேரி	-10.2867
▁ஆங்கிலேயர்	-10.2867
▁உரிமைகள்	-10.287
ஸ்கி	-10.287
▁கல்யாண	-10.2873
▁போதுமான	-10.2876
▁பாராட்ட	-10.2877
▁லட்சுமி	-10.2881
▁பாசு	-10.2882
யக	-10.2887
என்றழைக்கப்படும்	-10.2888
▁இயற்றிய	-10.2889
▁கருவறை	-10.2892
▁சித்திர	-10.2893
▁கௌ	-10.2897
ிருந்து	-10.2899
▁கருநாடக	-10.2899
ரெட்	-10.2903
ப்பெரு	-10.291
பார	-10.2911
▁பாடி	-10.2914
▁உயர்த்த	-10.2915
▁பெல்	-10.2917
செய்ய	-10.2919
▁அர்த்த	-10.2921
ெழுத்து	-10.2922
▁பிரித்த	-10.2923
வரம்	-10.2925
▁1981	-10.2926
▁பிரதேசத்தின்	-10.2928
ண்டே	-10.293
▁ஏராளமான	-10.2931
பெல்	-10.2932
▁இராச்சியம்	-10.2941
▁க்கும்	-10.2941
ப்பாடி	-10.2941
நிற	-10.2941
ென்று	-10.2941
▁நீதிபதி	-10.2943
வய	-10.2948
▁விருதுநகர்	-10.2949
ஷ்ட	-10.2949
வேண்டிய	-10.2954
த்திரு	-10.2957
▁வென்றார்	-10.2959
▁நிகழ்வுகள்	-10.296
▁குறைந்து	-10.296
▁கரி	-10.2962
சேர்	-10.2963
த்துப்	-10.2965
▁இருக்கிறார்	-10.2969
▁தனியாக	-10.2972
▁அவனை	-10.2974
▁பேரா	-10.2976
▁கைப்பற்றி	-10.2979
▁டாலர்	-10.2982
காம	-10.2983
▁என்பதே	-10.2984
ங்குளம்	-10.2985
ுவத	-10.2988
▁பகுதிகளிலும்	-10.2995
▁கந்த	-10.2996
▁பழனி	-10.2998
▁எனலாம்	-10.2998
▁நாடாக	-10.3001
▁தெற்கே	-10.3002
▁ஓட்டங்கள்	-10.3002
நோய்	-10.3005
பம்	-10.3007
03	-10.3008
▁ஜீ	-10.3011
▁அருங்காட்சியகம்	-10.3024
ப்பதற்காக	-10.3026
▁காமிகாகம	-10.3027
▁ஆற	-10.3029
▁இருப்பு	-10.303
▁முடிவ	-10.303
▁கிள	-10.3031
▁பெயரால்	-10.3033
ஜோ	-10.3033
ியுள்ளது	-10.3033
ுக்குப்	-10.3035
வில	-10.3036
▁முனிவர்	-10.3037
▁வசித்து	-10.3039
▁தேசியப்	-10.3039
சியம்	-10.3041
▁அரசாங்கம்	-10.3042
▁பிரச்சனை	-10.3043
சட்டமன்றத்	-10.3047
▁அக்காலத்தில்	-10.3047
▁நூல்களில்	-10.3051
▁பட்டா	-10.3051
▁செம்ப	-10.3051
▁பஞ்சாபி	-10.3054
▁புரி	-10.306
தற்	-10.3061
▁பிடித்து	-10.3063
▁ஆந்திரப்	-10.3063
▁அமைச்சராக	-10.3068
300	-10.307
விட்டார்	-10.3072
▁உச்சி	-10.3072
Ch	-10.3073
▁மார்க்	-10.3075
ாங்க	-10.3077
மனை	-10.3078
ide	-10.3083
▁சமன்பாடு	-10.3084
▁ராணி	-10.3085
கிருஷ்ண	-10.3087
▁சீர்	-10.3089
▁Re	-10.309
▁பொருட்டு	-10.3091
▁மாறியது	-10.3093
▁தமிழகத்தின்	-10.3093
யில	-10.3098
▁குளம்	-10.3099
▁விஜய்	-10.3105
▁உளவியல்	-10.3107
▁இவ்விரு	-10.3108
▁தன்னாட்சி	-10.3109
யளிக்க	-10.3111
▁1974	-10.3111
பிற	-10.3116
க்கட்ட	-10.3117
▁1975	-10.312
▁செய்திகள்	-10.3121
▁இறைவன	-10.3122
வாள	-10.3125
▁என்பதைக்	-10.3125
▁or	-10.3128
▁பட்டத்தை	-10.313
▁விளங்க	-10.3133
▁தலைநகராக	-10.3135
துறை	-10.3135
▁அறிமுகமானார்	-10.3137
மது	-10.3142
திலும்	-10.3142
▁முற்றிலும்	-10.3143
▁வழக்கில்	-10.3143
▁1976	-10.3144
டார்	-10.3146
▁முதன்முதலில்	-10.3149
ath	-10.315
▁ஜனதா	-10.3154
▁தேனி	-10.3157
▁சுல்தான்	-10.3158
▁லிங்க	-10.316
▁சேர்ம	-10.3165
க்சு	-10.3166
▁டிரை	-10.3168
▁கன்னட	-10.3173
▁வாய்ப்ப	-10.3176
▁ஏற்படுத்தி	-10.3179
▁இனி	-10.318
▁செய்வதற்கு	-10.3181
▁எசுப்பானிய	-10.3182
▁re	-10.3188
▁கிளி	-10.3188
ின்படி	-10.3194
▁ஆண்களின்	-10.3195
வூ	-10.3202
▁விடு	-10.3202
மையான	-10.3203
லொ	-10.3204
▁அழி	-10.3204
▁இடைநிலை	-10.3206
▁ஆண்டுதோறும்	-10.3207
▁உடன்படிக்கை	-10.3207
▁படுகொலை	-10.3207
▁தொடர்வண்டி	-10.3208
▁உண்டாக்க	-10.321
▁கொண்டே	-10.3212
▁அரசியல்வாதியும்	-10.3213
ென	-10.3218
▁பதில்	-10.3219
▁இயல்	-10.3219
▁முதலாக	-10.3227
▁நகரை	-10.3228
டென்	-10.3232
▁பழங்கால	-10.3232
ொலி	-10.3233
▁மருந்த	-10.3234
ராகவும்	-10.3241
▁நிமிட	-10.3244
ுகின்றார்	-10.3247
▁படிப்ப	-10.3248
▁நெருங்கிய	-10.3249
ாய்வு	-10.325
▁கல்ல	-10.3252
ோம்	-10.3255
▁புகைப்பட	-10.3258
▁1952	-10.3259
த்தலை	-10.326
சிஸ்	-10.326
▁பெற்றுள்ளார்	-10.3263
▁வென்று	-10.3265
▁அருவி	-10.3265
லைக்	-10.3274
▁குறைந்தது	-10.3277
ால	-10.3283
▁தீர்க்க	-10.3287
▁நின்ற	-10.3291
▁சுற்றுச்சூழல்	-10.3291
தீன்	-10.3292
ஸ்கோ	-10.3293
▁அமைக்கப்பட்டது	-10.3296
▁பொருளாக	-10.3296
▁சமநிலை	-10.3298
▁1957	-10.33
▁வெட்டி	-10.3309
ீஸ்	-10.3309
னைப்	-10.331
▁தகவல்கள்	-10.3312
ன்னா	-10.3316
▁கொண்டிருக்கிறது	-10.3316
▁வழங்கியது	-10.3316
கையில்	-10.332
க்கட	-10.332
[	-10.3325
▁திருப்ப	-10.3333
செய்த	-10.3333
க்குளம்	-10.3336
ுகிற	-10.3337
▁பிரதமர்	-10.334
▁பாக்கித்தான்	-10.3345
த்துறையில்	-10.3346
களு	-10.3346
ரையும்	-10.3347
ஸ்தான	-10.3348
▁இயேசுவின்	-10.3349
▁பாத	-10.3355
▁இறக்க	-10.3357
▁1956	-10.3367
ew	-10.3367
▁தலைவி	-10.3367
▁நடந்தது	-10.337
▁நாகரிக	-10.337
▁ஆக்சிசனேற்ற	-10.337
சூர்	-10.3373
நீர	-10.3376
▁சதுரங்க	-10.3377
▁ஓட	-10.3377
▁அணுகுமுறை	-10.3382
▁வழங்கப்பட்ட	-10.3384
ப்பான்	-10.3386
▁அறிவிக்க	-10.3389
▁300	-10.339
▁பொருந்த	-10.3391
▁1965	-10.3393
பெயர்	-10.3394
▁செயலாக்க	-10.3398
▁எண்ணி	-10.3404
ஸ்தான்	-10.3404
வினால்	-10.3404
▁உட்படுத்த	-10.3406
▁அமைந்திருக்கும்	-10.3407
க்கின்றன	-10.3408
க்கிர	-10.341
▁கன்	-10.3412
▁சீக்கிய	-10.3413
▁நோக்கம்	-10.3416
▁நடக்கின்றன	-10.3418
▁தவற	-10.3422
▁பாஸ்	-10.3423
பிள்ளை	-10.3424
▁ஆராய	-10.3426
்ட்	-10.3431
ப்படுகின்ற	-10.3433
▁பரப்பளவில்	-10.3437
▁பங்களிப்பு	-10.3437
▁அறக்கட்டளை	-10.344
▁மாற்றப்பட்டது	-10.3441
ue	-10.3442
▁விடுதி	-10.3444
லைப்	-10.3445
▁ஈடுபட்ட	-10.3446
கத்தில்	-10.3447
▁அப்பா	-10.3448
▁சன்னதிகளும்	-10.3449
▁உறுதிப்படுத்த	-10.3449
▁உணவ	-10.3453
மண்டல	-10.3456
▁உணர்	-10.3456
▁வகுத்த	-10.3464
▁மாநாடு	-10.3466
▁இடையிலான	-10.3467
▁சிதம்பரம்	-10.3473
▁மனிதன்	-10.3477
▁செய்வ	-10.3479
ருக்க	-10.348
▁போக்க	-10.3482
▁நடத்தப்பட்ட	-10.3483
▁தொகுதிகளில்	-10.3487
▁கழகத்தின்	-10.349
ப்பாட்ட	-10.3491
▁Ma	-10.3493
▁திறனை	-10.3493
▁பணிகள்	-10.3495
▁அறியப்படும்	-10.3496
▁மொழியை	-10.3501
▁கவு	-10.3506
ஸ்டன்	-10.3507
▁செயலி	-10.3514
▁திட	-10.3517
▁கோப	-10.3519
▁சூரியன்	-10.3519
கும்	-10.352
72"	-10.3526
▁நம்பப்படுகிறது	-10.3527
பத்	-10.3528
▁படிப்பை	-10.3529
▁நற்செய்தி	-10.3534
டொ	-10.3534
▁கற்ப	-10.3535
▁1973	-10.3536
▁The	-10.3538
▁கந்தக	-10.3544
ப்புள்ளி	-10.3546
▁நிரல்	-10.3547
▁என்றார்	-10.3551
▁தூண்	-10.3552
ாவது	-10.3559
▁மீனாட்சி	-10.356
ினுள்	-10.356
▁உறிஞ்ச	-10.356
▁விரு	-10.3563
▁மடி	-10.3565
▁கண்டுபிடிப்பு	-10.3565
நத்தம்	-10.3567
▁மடங்கு	-10.3568
▁கவி	-10.357
பக	-10.3574
காம்	-10.3575
▁தொடர்ப	-10.3583
▁அடுக்க	-10.3585
▁நான்காம்	-10.3586
முன்	-10.3588
▁அபி	-10.3591
ana	-10.36
▁அகல	-10.3602
பற	-10.3605
1%	-10.3609
▁லு	-10.361
ran	-10.3611
▁அமைச்ச	-10.3612
▁பொய்	-10.3612
▁ஏக்கர்	-10.3612
▁திரைப்படத்தின்	-10.3612
tion	-10.3614
▁தோன்றி	-10.3614
▁நாவல்	-10.3614
டியம்	-10.3621
கரம்	-10.3622
▁முடிகிறது	-10.3623
ழா	-10.3624
de	-10.3625
▁கால்நடை	-10.3628
னைக்	-10.363
▁தலைவராகவும்	-10.3631
ுக்க	-10.3636
▁மாநகராட்சி	-10.3637
▁சியா	-10.364
▁சத்திய	-10.3642
▁அன்ப	-10.3642
▁பத்திர	-10.3643
▁முடிவுக்கு	-10.3643
▁இடங்கள்	-10.3644
▁இருப்ப	-10.3644
▁ஆய்வ	-10.3645
ப்பாளையம்	-10.3647
▁வழக்கமான	-10.3651
த்தர்	-10.3651
▁கோடு	-10.3656
▁அடைந்து	-10.3659
400	-10.366
▁கொல்கத்தா	-10.3662
ர்ட்	-10.3663
▁எனில்	-10.3664
▁முது	-10.3664
▁இந்துக்	-10.3664
▁தடுப்பு	-10.3668
வியலில்	-10.3673
▁பொருளின்	-10.3673
▁1964	-10.3674
மக	-10.3674
ட்ரா	-10.3676
▁பூசைகள்	-10.3679
▁பெருமளவில்	-10.3682
▁கடத்த	-10.3684
ிருந்தாலும்	-10.3687
▁ஐரோப்பாவில்	-10.3689
இந்தியா	-10.3692
▁சிம்	-10.3694
வென்	-10.3694
ary	-10.3695
▁அழைப்ப	-10.3698
▁33	-10.3699
▁ஆரம்பிக்கப்பட்ட	-10.3699
பிடி	-10.3705
▁அறிவித்தார்	-10.3708
▁நகரங்களில்	-10.3709
ியின்	-10.3711
▁அதிகரித்த	-10.3714
▁படங்களில்	-10.3716
▁மறைந்த	-10.3719
sp	-10.3724
▁வெப்பநிலையில்	-10.3726
ers	-10.3726
மடைந்த	-10.3726
ka	-10.373
▁விலகி	-10.3733
▁போதிலும்	-10.3734
▁வைணவ	-10.3735
▁காத்த	-10.3739
▁தேவைப்படும்	-10.3739
▁மருத	-10.374
▁வீடியோ	-10.3741
▁வெளியேற	-10.3746
▁காலி	-10.3749
தனை	-10.3753
சார்ந்த	-10.376
வுட்	-10.3769
▁காணப்பட்டது	-10.377
ேற்றம்	-10.377
ிருப்பது	-10.3773
மத	-10.3774
▁சங்கர	-10.3787
▁எட்	-10.3787
ுமிட	-10.379
வாசல்	-10.379
▁மூட	-10.3794
▁புகு	-10.3797
▁வள்ளி	-10.3798
ப்படுத்தும்	-10.3799
ip	-10.3801
▁மண்டபம்	-10.3801
▁மகிழ்ச்சி	-10.3801
▁வரையான	-10.3802
ிக	-10.3803
▁வெப்பம்	-10.3803
▁முயன்ற	-10.3809
▁காப்ப	-10.3809
ற்கு	-10.3811
▁வன்	-10.3816
▁ஸ்டா	-10.3817
மடை	-10.3823
▁பயணிகள்	-10.3827
▁சூத்திர	-10.3829
▁தலைநகரான	-10.3829
▁உடனடியாக	-10.3835
▁ராணுவ	-10.3836
▁தஞ்சை	-10.3836
▁குன்ற	-10.3836
▁குறுக்க	-10.3838
▁தன்மையை	-10.3843
▁வழியே	-10.3843
ப்படுகின்றனர்	-10.3849
காந்த	-10.385
▁காலத்திற்கு	-10.3851
ிக்கும்	-10.3853
கத்தின்	-10.3856
▁ஆட்சியின்	-10.3858
▁ஆணை	-10.386
▁கிராம்	-10.3869
▁நடுவில்	-10.387
▁நூலின்	-10.3872
▁அவற்ற	-10.3874
▁மஞ்ச	-10.3882
700	-10.3882
▁பற்	-10.3883
son	-10.3885
mp	-10.3885
▁நாய்	-10.3887
▁பாடல	-10.389
ளின்	-10.3893
▁சார்ப	-10.39
▁முன்பாக	-10.3901
▁நிரப்ப	-10.3904
த்தொ	-10.3905
▁தலைமையிலான	-10.3908
▁மாடு	-10.391
ும்படி	-10.3912
▁நன்றாக	-10.3915
த்திட்ட	-10.3916
▁பிரபு	-10.3921
ல்ஸ்	-10.3922
ாி	-10.3923
▁அகில	-10.3926
ஸ்தா	-10.3926
▁பயன்படுகின்றன	-10.3928
▁தலைப்பில்	-10.3928
மயமாக்க	-10.3929
▁பாலைவன	-10.393
▁ஹரி	-10.393
▁எல்லாம்	-10.3931
▁அருகிலுள்ள	-10.3934
க்குறிச்சி	-10.3935
▁இழப்பு	-10.3936
இலங்கை	-10.3936
▁தலைநகரம்	-10.3941
▁கதைகள்	-10.3944
▁காவல்துறை	-10.3953
▁நாயக்கர்	-10.3953
3%	-10.3953
மில்லை	-10.3954
னுக்கும்	-10.3955
▁எடுத்துச்	-10.3956
புதூர்	-10.3959
▁ராபர்ட்	-10.3962
▁அழற்சி	-10.3964
▁இசையில்	-10.3966
யாளர்கள்	-10.3966
▁4,	-10.3969
2%	-10.3984
▁ஆஸ்திரேலியா	-10.3987
▁வருமான	-10.3987
▁அதிகாரம்	-10.3987
த்தன்	-10.3987
▁கற்று	-10.3994
ிடை	-10.3994
மின்றி	-10.3994
ாம	-10.3994
நெல்	-10.3994
ப்பாட	-10.4001
▁விருதுகள்	-10.4005
▁குழுக்கள	-10.4005
▁வந்தன	-10.4006
னேட்டு	-10.4007
▁உடு	-10.4008
▁அடிப்படையாக	-10.401
▁நச்சு	-10.4011
▁மரங்கள்	-10.4014
▁ஹார்	-10.4015
▁முடிவுகள்	-10.4018
க்கழக	-10.4019
▁திரைப்படங்கள்	-10.4019
▁குழுவில்	-10.402
ங்கர்	-10.4022
▁துன்ப	-10.4023
▁விழ	-10.4026
ah	-10.4027
பது	-10.4029
▁ஆட்சியில்	-10.403
கதிர்	-10.4031
▁மக்கட்தொகை	-10.4031
▁கழகத்தில்	-10.4031
▁அண்மையில்	-10.4032
லஸ்	-10.4033
நெறி	-10.4037
▁ஒருமுறை	-10.4042
▁ஆகவே	-10.4042
▁வலியுறுத்த	-10.4042
CH	-10.4046
விடம்	-10.4048
▁சிலி	-10.405
▁நிருவாக	-10.4051
▁பிரெ	-10.4052
▁ஏற்படுத்தும்	-10.4053
▁கட்டத்தில்	-10.4055
▁அணியில்	-10.4056
திற	-10.4057
▁என்பதுடன்	-10.4058
▁முத்திரை	-10.4063
▁உதவியுடன்	-10.4063
குறிப்பிடுகிறார்	-10.4063
தக	-10.4065
▁பில்	-10.4065
▁அறிமுகம்	-10.4066
▁சேவைகள்	-10.4067
▁எட்ட	-10.407
க்குறை	-10.4071
காலம்	-10.4074
கொடு	-10.4075
விற்கும்	-10.4076
▁தெரிவித்தார்	-10.4076
▁சூழலில்	-10.4089
▁இசைக்	-10.409
▁ஊழியர்	-10.4094
▁தாங்கி	-10.4095
▁புதுச்சேரி	-10.4095
▁உரோம	-10.4096
▁நிறுத்தி	-10.4096
கோட்	-10.4097
ல்லாத	-10.4099
ஸ்ரீ	-10.41
An	-10.4101
சுர	-10.4102
▁இறப்ப	-10.4102
▁ஊடாக	-10.4105
யற்	-10.4106
▁திற	-10.4107
ாகிய	-10.4107
▁மென்	-10.4108
ப்பாக்கம்	-10.4109
▁படகு	-10.411
▁மேற்கத்திய	-10.4112
பெரிய	-10.4112
▁w	-10.4122
▁பாண்டியன்	-10.4123
ப்படு	-10.4125
▁சுட	-10.4127
▁ஒருங்கிணைந்த	-10.413
வேல்	-10.4133
எச்	-10.4134
வண்ண	-10.4136
▁பக்கம்	-10.4137
▁எச்ச	-10.414
▁சமயங்களில்	-10.4143
தாஸ்	-10.4144
▁வீச	-10.4152
▁நபர	-10.4152
▁ஆந்திர	-10.4154
▁தொடர்பாக	-10.4156
சய	-10.416
▁இலிருந்து	-10.4166
▁1945	-10.4169
▁தன	-10.417
ant	-10.4173
▁மேற்கொள்ளப்பட்ட	-10.4175
▁அறிவிக்கப்பட்ட	-10.4176
▁உயிரணு	-10.4177
▁வங்க	-10.4177
ru	-10.4179
▁ஆதரவ	-10.4181
▁தானே	-10.4186
368	-10.4186
மிகு	-10.4187
பாடி	-10.4189
ஞ	-10.4189
உலக	-10.419
▁நூற்றாண்ட	-10.4195
▁1963	-10.4197
▁குழுக்கள்	-10.4201
▁லை	-10.4201
▁என்ப	-10.4205
யிட்ட	-10.4205
சிவ	-10.4205
▁எலக்ட்ரான்	-10.4206
▁இரயில்	-10.4209
▁மாணவ	-10.4212
▁முடியவில்லை	-10.4215
ப்பற்றி	-10.4217
நிலையில்	-10.4219
▁கிரக	-10.422
▁கொண்டிருப்ப	-10.4221
▁நகருக்கு	-10.4225
▁என்பவரின்	-10.4226
▁சான்று	-10.4233
▁இடம்பெற	-10.4235
▁பேண	-10.4238
▁உறுப்பினரும்	-10.4238
▁கொடுப்ப	-10.4247
▁சாமி	-10.4256
=274	-10.4258
▁எஞ்சிய	-10.4259
களுக்கிடையே	-10.4268
▁என்பதன்	-10.4268
▁பகுதியான	-10.4269
▁இடமாக	-10.4269
▁சம்பவ	-10.4277
ப்பொருள	-10.428
▁நடவடிக்கைகள்	-10.428
▁பொருளியல்	-10.4281
விர	-10.4281
நு	-10.4283
▁வளர்	-10.4287
▁1968	-10.4288
▁இந்திரா	-10.4289
▁கம்பெனி	-10.4294
வர்களை	-10.4297
▁இந்நகரம்	-10.4298
▁மனம்	-10.4299
▁அவர்களால்	-10.4304
pe	-10.4307
▁கடும்	-10.4309
▁நடுவண்	-10.431
ுநர்	-10.431
=275	-10.4313
8%	-10.4313
▁கழித்து	-10.4314
▁வடகிழக்கு	-10.4315
▁ராக்	-10.4316
="274	-10.4316
றே	-10.4316
▁பாரி	-10.432
han	-10.4321
▁என்றழைக்க	-10.4329
=273	-10.4329
▁கூடு	-10.4331
▁மங்கோலிய	-10.4334
ard	-10.4338
▁முதன்முதலாக	-10.434
த்திரை	-10.4341
▁முளை	-10.4343
▁பிற்காலத்தில்	-10.4343
க்கட்டு	-10.4349
▁ஜு	-10.435
▁மரபுவழி	-10.4354
ive	-10.4355
▁விரைவில்	-10.4359
sa	-10.436
▁|	-10.4364
விளை	-10.4364
ட்டான்	-10.4364
▁போர	-10.4372
மல	-10.4373
▁பரம	-10.4374
▁பள்ள	-10.4375
4%	-10.4377
ித்தார்	-10.4379
▁கருதுகின்றனர்	-10.4381
வின	-10.4382
தீர்	-10.4382
யாற்ற	-10.4383
யர	-10.4385
▁காண்ப	-10.4385
ப்பாறை	-10.4388
po	-10.4389
▁நிறுவினார்	-10.4389
▁ஜெர்மானிய	-10.439
▁எனத்	-10.4391
நாம	-10.4392
வாள்	-10.4393
▁பாகை	-10.4397
▁இத்தாலி	-10.4398
▁கல்லறை	-10.4398
நாயக	-10.44
▁தொகுதியின்	-10.44
▁பரு	-10.4406
="273	-10.4406
▁பயிரிட	-10.441
der	-10.4411
▁என்பவரை	-10.4413
▁கிழக்கிந்திய	-10.4414
▁இவற்றுள்	-10.4414
▁கிரிக்க	-10.4416
▁வடிவமைத்த	-10.442
▁அதிகபட்ச	-10.4425
கோவில்	-10.4427
▁கோவா	-10.4428
▁தொழில்நுட்பம்	-10.4429
▁அய்ய	-10.4432
சல	-10.4435
▁வேட்பாளராக	-10.4439
▁பொதுச்	-10.4439
▁தங்கி	-10.444
▁செய்யப்பட	-10.4442
▁டூ	-10.4447
▁நரசிம்ம	-10.4461
▁உத்திர	-10.4462
▁கொண்டிருந்தார்	-10.4464
வதால்	-10.4464
▁தாக்கம்	-10.4464
▁தமிழர்கள்	-10.4466
▁இலாப	-10.4467
ுடனும்	-10.4468
▁ஆழ	-10.4469
▁அலங்கார	-10.4471
▁பாம்பு	-10.4471
வற்றில்	-10.4472
க்கோள	-10.4475
▁அம்பா	-10.4478
▁கூடும்	-10.4484
="275	-10.4485
ச்சொல்	-10.4486
▁கரையில்	-10.4488
யன	-10.4488
▁முதலீடு	-10.4489
▁சோழன்	-10.4491
est	-10.4496
▁நீதிமன்றம்	-10.4499
▁கணிக்க	-10.4503
-18	-10.4506
ரிஸ்	-10.4509
ப்பிட	-10.4509
யொ	-10.451
லியம்	-10.4511
▁மதிப்பிட	-10.4512
ண்ணா	-10.4514
▁காற்ற	-10.4515
▁தண்டு	-10.4515
▁ஆப்பிரிக்கா	-10.4516
▁அங்கீகரிக்க	-10.4517
கோள்	-10.4518
=276	-10.4519
னையும்	-10.4522
▁1920	-10.4524
▁தயாரிப்பாளர்	-10.4527
ள்ளி	-10.4531
▁தெரிந்த	-10.4531
கினி	-10.4532
பாக	-10.4533
▁வளர	-10.4533
▁ஜூ	-10.4533
▁சட்டத்தின்	-10.4534
▁பசுமை	-10.4536
ிப்	-10.4537
பவர்	-10.4538
▁முறையான	-10.4541
▁இருக்கின்றது	-10.4542
கன	-10.4543
ian	-10.4544
வரா	-10.4544
சரி	-10.4545
▁பெரம்பலூர்	-10.4545
&	-10.4546
▁இம்மொழி	-10.4549
▁தொடர்ச்சி	-10.455
களுடனும்	-10.4552
மாகப்	-10.4552
▁மதம்	-10.4558
த்திற்குப்	-10.4562
போன்ற	-10.4569
▁பலி	-10.4571
▁பொட்டாசியம்	-10.4573
▁கதிரியக்க	-10.4574
ிலிருந்த	-10.4575
▁பகுதிக்கு	-10.4577
▁தாள	-10.4577
சனின்	-10.4582
ம்பாடி	-10.4583
ிறான்	-10.4585
வாச	-10.4586
தொரு	-10.4589
▁அறி	-10.4591
▁தொல்	-10.4591
▁மீள்	-10.4592
▁விழுக்காடு	-10.4592
திர்	-10.4593
▁பணியை	-10.4597
▁கண்டறிந்த	-10.4597
▁பேரூராட்சி	-10.4597
▁திரும	-10.4603
▁அறிஞர்கள்	-10.4603
பேசி	-10.4605
▁பிரதிநிதித்துவ	-10.4606
ியாக	-10.4607
ியக்க	-10.4609
▁கொன்ற	-10.4611
▁ஏற	-10.4614
மினி	-10.4615
ப்பேட்டை	-10.4617
▁அன்பு	-10.4618
ub	-10.4625
காட்டி	-10.4628
▁ஒழுங்க	-10.4629
▁எதிர்பார்க்க	-10.4631
▁அமைவ	-10.4632
▁இருந்தபோது	-10.4633
▁150	-10.4636
▁வரையறுக்கப்பட்ட	-10.4636
நாள	-10.4638
▁இந்தியக்	-10.4639
▁பிடி	-10.4639
▁h	-10.4641
▁அரியலூர்	-10.4642
▁தியாக	-10.4642
▁வசதிகள்	-10.4648
▁டிரா	-10.4648
▁கால்வாய்	-10.4651
தேச	-10.4654
▁கழி	-10.4655
▁கணக்கில்	-10.4658
▁ஆஸ்	-10.4658
▁புல்	-10.4659
▁அளவ	-10.4664
பாட்டை	-10.4664
▁இம்முறை	-10.4665
▁கவிதைகள்	-10.4666
▁சிவபெருமான்	-10.4666
போல	-10.4669
ie	-10.467
▁இலத்தீன்	-10.4673
தைத்	-10.4675
ச்சே	-10.4675
=278	-10.4679
பிரா	-10.468
▁சிவாஜி	-10.468
▁உணர்ச்சி	-10.4682
க்கல்வி	-10.4686
=279	-10.4689
ராஜா	-10.4692
▁கடினமான	-10.4697
▁தொடர்ந்த	-10.4698
▁37	-10.4701
ாபாத்	-10.4704
பொழி	-10.4705
▁நிலவிய	-10.4706
▁பேரவை	-10.4706
▁இவ்வாறான	-10.4707
poem	-10.4707
▁உடற்	-10.471
▁ஒதுக்க	-10.471
▁குர்	-10.4711
▁ஏழை	-10.4715
▁வர்க்க	-10.4718
="276	-10.4718
▁1954	-10.4719
▁வாடிக்கையாளர்	-10.4719
▁பணியாற்ற	-10.4723
மட	-10.4727
▁முழுமை	-10.4728
▁ராய்	-10.4729
▁தொடங்கப்பட்ட	-10.4729
ரிமை	-10.4729
▁துருவ	-10.4732
ங்களைச்	-10.4735
▁ஷெ	-10.4735
▁மாளிகை	-10.4736
▁அறிவித்த	-10.4736
ையூர்	-10.4737
கிழ	-10.4742
வதில்லை	-10.4744
▁உடல்நல	-10.4746
▁நடிப்ப	-10.4746
▁விழி	-10.4749
▁காலமானார்	-10.4755
3)	-10.4757
▁உத்தரப்	-10.4759
வதற்காக	-10.4762
▁நொ	-10.4762
▁துகள்	-10.4762
▁சேர்க்கை	-10.4762
▁சபா	-10.4766
▁வைப்ப	-10.4766
வர்மன்	-10.4768
▁செம்ம	-10.4772
▁பிறப்ப	-10.4772
▁கும்ப	-10.4774
▁வளர்ப்பு	-10.4781
▁வழங்கினார்	-10.4783
▁400	-10.4783
▁வலைத்தள	-10.4784
▁கிழக்கே	-10.4787
பெண்	-10.4788
▁முகவரி	-10.479
▁விரும்பி	-10.4793
▁பவு	-10.4794
▁யாழ்ப்பாணம்	-10.4795
▁எழுத்துக்	-10.4797
▁முன்பே	-10.4797
▁கவன	-10.4801
வளி	-10.4801
▁திறந்து	-10.4801
▁என்பதில்	-10.4802
▁உடையது	-10.481
▁துண்டு	-10.481
ப்பெற	-10.4817
ானந்த	-10.4819
▁தனித்தனி	-10.4819
▁முடிக்க	-10.4822
▁for	-10.4824
ுவதற்கும்	-10.4824
▁பந்த	-10.4834
▁தனிநபர்	-10.484
▁புகழ	-10.4841
ானார்	-10.4841
▁உபசன்னதிகள	-10.4843
▁48	-10.4844
ுதலை	-10.4845
யூட்ட	-10.4845
▁வைத்துக்	-10.4845
▁சேர்மங்கள்	-10.4846
▁உணர்த்த	-10.4847
▁படித்து	-10.4848
▁தீர்ப்ப	-10.4848
ிலான	-10.4848
="278	-10.4849
=272	-10.4849
▁In	-10.485
▁கோழி	-10.4851
மால்	-10.4852
▁சித்தரிக்க	-10.4853
▁முடித்த	-10.4854
▁பெய்	-10.4855
▁தெரு	-10.4857
▁புராணம்	-10.4862
=280	-10.4863
மகா	-10.4864
▁ஒர்	-10.4866
ேச	-10.4867
அமெரிக்க	-10.4867
▁பெருமளவு	-10.487
வுகள்	-10.487
▁கில்	-10.4871
வத	-10.4873
▁இராச்சியத்தின்	-10.4874
▁தொகுப்புக்	-10.4879
▁’	-10.4879
▁மார்கழி	-10.488
▁தமிழ்ச்	-10.4881
▁1961	-10.4885
ுகையில்	-10.4885
வேக	-10.4886
▁காட்டுகிறது	-10.4888
="279	-10.489
▁சீனாவின்	-10.4893
லார்	-10.4893
▁மரப	-10.4897
▁பொதுத்	-10.4897
▁வாரிய	-10.4901
▁ராவ்	-10.4902
▁குளோ	-10.4904
மாண	-10.4909
மிர்	-10.4909
▁குடும்பத்தைச்	-10.491
வித	-10.4914
சபை	-10.4915
▁மனிதர்கள்	-10.4918
="272	-10.4919
▁மாவட்டத்திலுள்ள	-10.4923
▁காட்டும்	-10.4924
ப்பொ	-10.4928
▁ஈடுபட்டு	-10.4934
▁தலைநகர	-10.4938
▁e	-10.4938
ேல்	-10.4943
▁ஃபெ	-10.4944
▁சிறையில்	-10.4945
வர்களில்	-10.4946
▁ஃபா	-10.4951
பர்ட்	-10.4954
லீன்	-10.4955
▁தெளி	-10.4956
தைப்	-10.4961
od	-10.4961
▁பழுப்பு	-10.4965
▁ஆணையம்	-10.4967
ாளரும்	-10.4968
ஆவது	-10.4968
="280	-10.4976
▁குறிப்பிடப்பட்ட	-10.4978
▁தென்கிழக்கு	-10.4979
▁அமைகிறது	-10.499
வல்லி	-10.4991
▁ஆசிரியராக	-10.4995
▁பெறப்பட்ட	-10.4998
▁கடுமையாக	-10.4998
▁பாரதிய	-10.4998
▁செருமனி	-10.4999
▁எசு	-10.5001
கிறாள்	-10.5004
ளூர்	-10.5006
▁திரைக்கதை	-10.5008
▁எண்கள்	-10.5008
▁கதாப்பாத்திர	-10.5008
சஸ்	-10.5012
▁பாலியல்	-10.5012
▁இனப்பெருக்க	-10.5014
▁அனி	-10.5014
▁பிரிந்து	-10.5014
▁தட்டு	-10.5016
ஜே	-10.5017
▁34	-10.5025
▁வீழ்த்த	-10.5028
▁தவிர்த்து	-10.5032
▁காஞ்சி	-10.5033
▁இவரே	-10.5033
▁தளம்	-10.5034
▁கருத்தை	-10.5034
▁படிப்படியாக	-10.5038
▁போக்கு	-10.5038
▁முகம்மது	-10.5038
▁ஒழுங்கு	-10.5038
▁k	-10.5041
ப்பட்டிருக்கும்	-10.5041
▁ஓடி	-10.5043
களாகக்	-10.5044
த்தூ	-10.5047
▁பத்ம	-10.5054
▁ஷி	-10.5055
▁சனி	-10.506
▁மனோ	-10.5061
▁அஸ்	-10.5061
▁அரசி	-10.5065
▁மூர்த்தி	-10.5067
▁வசந்த	-10.5074
ிறார்கள்	-10.5075
▁வடமொழி	-10.5077
▁விரிவான	-10.5079
▁ஆளுநர்	-10.5079
இதழ்	-10.5086
▁காணப்பட	-10.5089
▁கூர்	-10.5091
▁பங்கேற்க	-10.5097
பேர	-10.5099
▁உதய	-10.5101
▁தோற்றுவிக்க	-10.5108
க்கதை	-10.5109
▁1966	-10.511
▁கோபால	-10.5111
▁பாட்ட	-10.5111
காரி	-10.5114
வராகவும்	-10.5118
▁வாத	-10.5119
ங்களே	-10.512
ாசிரியர்	-10.512
▁வீத	-10.512
▁அங்கிருந்து	-10.5128
▁வளிமண்டல	-10.5129
▁பிளவு	-10.5132
▁ஃபோ	-10.5139
▁வாழை	-10.514
▁ஆயிர	-10.514
▁காக்க	-10.5146
▁பாடகர்	-10.5148
▁வேட்டையாட	-10.5148
படை	-10.5152
▁கொன்று	-10.5154
▁பொருளாதாரம்	-10.5154
▁விவர	-10.5156
கான	-10.5157
க்கிறார்	-10.5157
ப்பாடல்	-10.5158
ில	-10.5158
ட்டுகள்	-10.5161
▁பணியாளர்	-10.5162
னஸ்	-10.5168
▁வசன	-10.5169
▁பயன்பாட்டில்	-10.5169
▁தொட்டி	-10.5175
▁மாறு	-10.5176
▁சேமிக்க	-10.5176
▁ஒப்பிட	-10.5179
ரோன்	-10.5182
ந்தூர்	-10.5182
சேன	-10.5185
▁கோபுர	-10.5186
▁நாட்காட்டி	-10.5188
பெரும்	-10.5189
ரவு	-10.5191
▁நிலவ	-10.5193
மஸ்	-10.5196
▁மேன்	-10.5196
ாமை	-10.52
▁பருத்தி	-10.52
▁வகையைச்	-10.5202
▁செயல்பட்ட	-10.5202
▁தொகுதிகள்	-10.5203
▁அரசியலமைப்பு	-10.5205
▁மாறும்	-10.5207
www	-10.5207
▁மத்தியப்	-10.5207
▁கோவிந்த	-10.5209
▁நடைமுறையில்	-10.5214
க்டர்	-10.5219
ரோஸ்	-10.5222
▁நிறுவனத்தை	-10.5223
மாகவே	-10.5227
வனாக	-10.5229
ட்டும்	-10.5232
ிருப்பதாக	-10.5232
wa	-10.5233
பான்	-10.5234
▁தீர்மான	-10.5237
▁கிளர்ச்சி	-10.5237
ஷன	-10.5239
▁அருக	-10.5242
if	-10.5243
▁சோம	-10.5243
▁தேவார	-10.5244
▁விளையாட்டுப்	-10.5247
ியும்	-10.5248
▁தொட	-10.5249
▁முகமது	-10.5249
டங்க	-10.525
நாட்ட	-10.5251
கோல்	-10.5255
▁உணர்ந்த	-10.5255
வரான	-10.5258
▁இளங்கலை	-10.5258
ுறவு	-10.5258
யிட்டு	-10.526
=349	-10.5261
▁உணவாக	-10.5262
▁மன்ன	-10.5265
கலா	-10.5265
▁என்பவற்ற	-10.5266
▁சகோதர	-10.5271
▁போலி	-10.5273
▁படித்த	-10.5273
▁எதிர்மறை	-10.5279
▁போட்டியிட்ட	-10.5282
▁காரணத்தால்	-10.5282
▁கோயிலின்	-10.5284
▁செர்	-10.5285
196	-10.5289
காட்	-10.529
="349	-10.5291
▁புவியின்	-10.5293
மாற்றம்	-10.5293
▁இதற்கான	-10.5301
▁வரைய	-10.5303
▁பிரதிநிதி	-10.5304
திரி	-10.5307
டக்க	-10.5309
▁ஆகியவற்றைக்	-10.5309
டான்	-10.5311
▁சந்திக்க	-10.5311
வதாக	-10.5317
23"	-10.5317
ட்டே	-10.532
ழுத்த	-10.5324
நாயகி	-10.5325
▁வியாபார	-10.5327
▁அப்படி	-10.5329
▁கட்டிய	-10.5329
9%	-10.5331
▁தொன்ம	-10.5334
▁சுற்றியுள்ள	-10.5335
ow	-10.5337
▁மகாபாரத	-10.5338
▁இசைக்குழு	-10.5343
▁வெட்ட	-10.5351
▁அணிக்காக	-10.5352
▁பயன்பட	-10.5354
▁பிலிப்	-10.5356
=271	-10.5357
▁கட்டமைப்ப	-10.5358
▁ஒட்டுமொத்த	-10.5359
▁வேல்	-10.536
▁நிற்க	-10.5369
▁கிடையாது	-10.537
கியூ	-10.5373
ேசுவர	-10.5379
▁1959	-10.5384
▁பங்கேற்ற	-10.5386
▁இஸ்	-10.5392
▁தெரிவித்த	-10.5394
▁கிறிஸ்தவ	-10.5395
▁வேண்ட	-10.5402
ெய்	-10.5402
▁நீளமான	-10.5403
▁உட்புற	-10.5405
▁இடி	-10.5408
▁சட்டப்படி	-10.5412
="271	-10.5417
▁பொருள்படும்	-10.5423
வேலி	-10.5426
ராக்	-10.5429
▁மரு	-10.5429
▁உடலின்	-10.543
▁இவ்வா	-10.5433
யப்பன்	-10.5439
▁தூய்மை	-10.5439
▁திட்டத்தை	-10.544
ஞான	-10.5441
▁மின்னணு	-10.5442
▁ஊட்ட	-10.5444
▁1958	-10.5445
▁சூப்பர்	-10.5446
▁விலக்க	-10.5447
▁மேம்பாட்டு	-10.545
▁மின்னழுத்த	-10.5452
கிற	-10.5455
▁முன்னேற்றக்	-10.5456
▁கருவ	-10.5457
மேலும்	-10.5458
படுத்தி	-10.5459
ep	-10.5462
▁சூழ	-10.5466
க்களும்	-10.5467
▁டிவி	-10.5471
▁ஆரிய	-10.5472
▁சாய	-10.5472
▁இராச்சிய	-10.5472
த்தேர்	-10.5475
▁சுவாச	-10.5479
▁எது	-10.5483
▁வைத்தார்	-10.5485
▁மாறிய	-10.5487
▁காலத்தை	-10.5488
▁நீட்டி	-10.5489
நாயக்க	-10.5491
▁கோடை	-10.5493
▁விரைவு	-10.5493
▁பொருட்களின்	-10.5496
லிக்	-10.5498
▁ஒப்பு	-10.5499
பிரதேச	-10.55
▁சந்திப்பு	-10.5505
▁சூழல	-10.5507
▁பொலி	-10.5508
▁இருந்தும்	-10.5512
புல்	-10.5514
குப்பம்	-10.552
களோ	-10.5522
▁இந்ந	-10.5526
▁உள்ளடக்கியது	-10.5535
▁அடிப்படையிலான	-10.5537
▁அம்ச	-10.5539
▁தோன்றியது	-10.554
▁பிற்பகுதியில்	-10.5542
io	-10.5543
▁டச்சு	-10.5545
▁மலையில்	-10.5546
▁1946	-10.5548
▁தயாரிப்பில்	-10.5548
ம்மாள்	-10.5549
▁தொடர்ச்சியான	-10.5549
▁எழுத்துக்கள்	-10.555
▁அழைக்கப்பட	-10.5552
▁என்பதையும்	-10.5552
▁வெட்டு	-10.5554
க்கூட்ட	-10.5555
பெற	-10.5555
விசை	-10.5555
▁அகாதமி	-10.5555
ழல்	-10.5556
▁வில்ல	-10.5558
▁சாம்பல்	-10.5562
▁ஆரணி	-10.5563
▁தாக்கி	-10.5564
க்கோடு	-10.5569
▁1949	-10.5569
ாட்ட	-10.5569
பிலி	-10.5571
டூ	-10.5572
▁நெருக்கடி	-10.5572
▁இவ்வினை	-10.5575
தாம்	-10.5576
▁வெற்றிகரமாக	-10.5576
▁ராமநாதபுரம்	-10.5577
ரவ	-10.5579
நெட்	-10.5583
ர்களுக்கு	-10.5586
▁ஏறக்குறைய	-10.5587
ேட்டு	-10.5589
▁கருத்தில்	-10.5589
▁வாயில்	-10.559
▁ஆகியவற்ற	-10.559
Al	-10.5595
வலை	-10.5597
▁சாரா	-10.5598
▁நூலகம்	-10.5603
▁முன்னரே	-10.5606
▁நம்பி	-10.5607
▁தலைவன்	-10.5609
▁வெடி	-10.5609
▁(2	-10.561
▁ஆண	-10.561
▁வேகம்	-10.5614
▁சுரப்பி	-10.5615
▁பெரும்பான்மையான	-10.5617
▁பள்ளத்தாக்கு	-10.5618
▁புதை	-10.5618
▁செலுத்தி	-10.5619
oc	-10.5619
▁நாட்டுப்	-10.5622
▁காண்க	-10.5625
▁பத்திரிக்கை	-10.5629
▁சுழல்	-10.5634
குமார	-10.5635
▁தொடரின்	-10.564
▁ஆரம்பமான	-10.564
▁சேர்த்த	-10.5643
▁நாட்டுப்புற	-10.5644
▁கருதி	-10.5647
▁அவ்	-10.5647
ass	-10.5648
=336	-10.565
▁இவர்களுக்கு	-10.565
மீட்டர்	-10.5652
▁உறுப்பினராகவும்	-10.5654
▁தொண்ட	-10.5659
ிலி	-10.5659
▁வடிவத்தில்	-10.5659
மிக்	-10.566
ast	-10.566
▁மேற்கோள்	-10.5661
கரை	-10.5663
▁கான	-10.5666
▁எடுப்ப	-10.5666
▁நேரு	-10.5672
▁பொருள்கள்	-10.5674
ெடுப்ப	-10.5675
▁குறைவு	-10.5676
பிக்	-10.5677
யிட்	-10.5681
▁ஓடு	-10.5681
▁பதினெட்டாம்	-10.5681
லாய்	-10.5681
▁அக்கால	-10.5683
▁செலவ	-10.5684
▁தெரியவில்லை	-10.5685
▁சந்தித்த	-10.5685
▁பெறுகிறது	-10.5686
▁நமது	-10.5686
மன்ற	-10.5689
5,000	-10.5689
▁பனை	-10.5689
▁மாநிலங்களில்	-10.569
▁கடவுளின்	-10.5691
▁திட்டங்கள்	-10.5696
▁அஞ்ச	-10.5698
ந்தே	-10.5698
▁இதழில்	-10.57
▁அதிகரிக்கும்	-10.5702
ம்போ	-10.5708
க்காகவும்	-10.5709
ாரா	-10.571
▁பாகிஸ்தான	-10.5711
▁கிரீ	-10.5712
▁இறங்க	-10.5713
▁தற்கொலை	-10.5713
▁l	-10.5714
முற்ற	-10.5716
▁தூரம்	-10.5719
ரூப	-10.5721
▁மந்த	-10.5722
▁அரசால்	-10.5723
பழ	-10.5724
கூற	-10.5728
▁குண்ட	-10.5729
▁38	-10.5729
கட்	-10.5731
▁பட்டது	-10.5732
யியல	-10.5732
▁இயலாத	-10.5733
▁தருகிறது	-10.5734
ரைக்	-10.5734
▁அப்போதைய	-10.5734
▁பிரம்மா	-10.5735
▁ஓரளவு	-10.5737
▁பாதிப்ப	-10.5737
▁1951	-10.5738
▁வெண்பா	-10.574
▁ரோம	-10.5742
="336	-10.5744
வுக்கும்	-10.5745
▁இந்தோனேசியா	-10.5746
140	-10.5748
▁கரும்பு	-10.5749
வா்	-10.5749
▁ஆய	-10.5755
ara	-10.5757
ினி	-10.5758
da	-10.5759
ொன்ற	-10.5761
களிலேயே	-10.5761
▁பாசி	-10.5761
ராஷ்டிர	-10.5761
▁மெல்லிய	-10.5764
▁விளையாடி	-10.5765
▁குழும	-10.5771
னான	-10.5771
பொருட்	-10.5772
▁வாயிலாக	-10.5772
▁ஏற்றுக்கொண்ட	-10.5772
▁திசையில்	-10.5773
▁கூடாது	-10.5776
▁பசிபிக்	-10.5778
▁சிலுவை	-10.5779
▁75	-10.5779
▁எக்	-10.578
▁படிம	-10.5782
▁சுருக்கமாக	-10.5784
▁பாரத	-10.5785
ிணை	-10.5786
▁வேளாண்	-10.5788
▁நிர்வாகம்	-10.5789
▁பணிபுரிந்தார்	-10.5796
▁கிட்ட	-10.5799
▁கற்றார்	-10.5801
▁தூரத்தில்	-10.5801
▁ரவி	-10.5802
ுள்ளதாக	-10.5803
▁செயற்பாட்ட	-10.5804
நிதி	-10.5805
▁பாலம்	-10.5807
▁தவறான	-10.5807
▁மொழிபெயர்ப்பு	-10.5809
=337	-10.5809
ம்பாக்கம்	-10.5813
▁மேக	-10.5815
▁நுரையீரல்	-10.5816
மூர்	-10.5818
▁ஒற்றுமை	-10.582
▁டெக்	-10.5821
▁வீடுகள்	-10.5824
▁மாதங்கள்	-10.5824
▁நிலையங்கள்	-10.5825
ial	-10.5826
▁பழம்	-10.5827
ாக்சைடு	-10.5828
▁தீவில்	-10.5833
▁அவற்றுள்	-10.5836
▁இப்படம்	-10.5836
சால்	-10.5838
▁ஐந்தாவது	-10.5841
Ma	-10.5843
த்தள	-10.5843
தற்கும்	-10.5844
▁புத்தர்	-10.5844
ton	-10.5844
▁துவக்கத்தில்	-10.5848
▁அலக	-10.5851
▁மோசமான	-10.5852
மனி	-10.5853
யடி	-10.5853
▁செவ்வ	-10.5857
▁மெல்ல	-10.5859
▁முத்த	-10.5861
▁விக்கி	-10.5862
▁கார்த்திகை	-10.5862
▁வாழ்க்கையில்	-10.5863
▁அடித்தள	-10.5864
▁மேற்கொண்டார்	-10.5864
▁புரூ	-10.5865
▁எண்ணிக்கையில்	-10.5865
யாள	-10.5867
▁பவுல்	-10.5868
▁மொழியாக	-10.5873
வசிக்கின்றார்கள்	-10.5873
▁தற்பொழுது	-10.5874
▁பகிர்ந்து	-10.5877
▁புர	-10.5878
▁இக்கால	-10.5881
▁அன்றைய	-10.5884
▁ஐந்தாம்	-10.5884
▁போராட்டம்	-10.5887
▁வென்றது	-10.589
ப்பாட்டு	-10.5891
▁தொகுதிக்கு	-10.5891
ுணர்வு	-10.5892
="337	-10.5893
▁கடு	-10.5894
சேகர	-10.5897
▁நீராவி	-10.5898
▁குற	-10.5898
▁1955	-10.5899
▁இன்ன	-10.5899
▁விளைவுகளை	-10.5904
ம்பர்	-10.5905
களுடைய	-10.5905
ஜன	-10.5907
▁பற்றிக்	-10.591
▁சேர்மம்	-10.5911
▁கலப்பு	-10.5912
▁அறிவியல	-10.5913
▁பெரும்பான்மை	-10.5913
▁காதலி	-10.5915
=335	-10.5919
▁குறைப்ப	-10.592
▁அப்துல்	-10.592
▁அவளை	-10.5924
ical	-10.5925
age	-10.5925
▁காலப்பகுதியில்	-10.5926
▁விபத்து	-10.5933
▁செய்கின்றன	-10.5936
▁சிறப்புப்	-10.5937
▁இப்பள்ளி	-10.5937
▁பரிச	-10.5938
த்திரம்	-10.5939
▁வடமேற்கு	-10.5939
▁தாண்டி	-10.594
▁நகரங்கள்	-10.5942
▁அளவீடு	-10.5942
ுத்	-10.5944
▁நாடகம்	-10.5945
சந்திர	-10.5946
▁வசிக்கின்றனர்	-10.595
▁திரும்பிய	-10.595
▁இம்மாவட்டம்	-10.5952
bi	-10.5954
▁கிழக்குப்	-10.5955
▁வயதுக்குட்பட்ட	-10.596
▁நிகழ	-10.5961
=340	-10.5961
▁உருவாகி	-10.5962
AT	-10.5963
▁கிரே	-10.5966
▁சிதற	-10.597
▁இயற்றப்பட்ட	-10.5971
▁உடலை	-10.5971
என	-10.5975
▁கொடுத்தார்	-10.5975
லிஸ்	-10.5978
க்கூடியது	-10.5978
uc	-10.5978
="340	-10.5979
ங்கே	-10.5979
▁ஆட்சியாளர்	-10.5981
▁ஈர்ப்பு	-10.5981
▁வெளியில்	-10.5983
▁வானியல	-10.5984
போர்ட்	-10.5984
படும்	-10.5987
வனை	-10.5987
▁மக்கள	-10.5988
▁வச	-10.599
ய்ய	-10.5991
▁மையத்தில்	-10.5992
▁பேசி	-10.5993
▁பிள்ளையார்	-10.5997
▁அச	-10.6002
▁விழாவில்	-10.6002
▁வறுமை	-10.6003
கந்த	-10.6008
டோன்	-10.6008
▁கூடுதலான	-10.6014
▁பின்னாளில்	-10.6014
▁ஈடுபாடு	-10.6015
▁அருந்த	-10.6019
▁மண்டப	-10.6019
ாற்றல்	-10.6019
▁ஆசிரியர்கள்	-10.6019
▁நாட்களுக்கு	-10.6019
▁சூர	-10.603
▁தலைவர்கள்	-10.6033
▁கிருஷ்ணன்	-10.6033
▁சிக்க	-10.6033
▁மெதுவாக	-10.6038
ய்யா	-10.6042
ாக்கி	-10.6042
▁வர்ண	-10.6042
▁அதிபர்	-10.6045
up	-10.6046
act	-10.6047
▁சிறீ	-10.6052
=348	-10.6052
▁64	-10.6054
▁திருப்பு	-10.6058
▁மல்ல	-10.6061
ியவர்	-10.6062
▁இடங்களை	-10.6062
▁காதல	-10.6065
▁இடு	-10.6067
▁மைக்கேல்	-10.6069
▁பிணை	-10.6069
▁ஆய்வாளர்	-10.6071
▁பூத	-10.6071
▁1944	-10.6072
▁நோக்கிய	-10.6072
▁அவர்களுடைய	-10.6077
▁வெங்கட	-10.6077
▁சத்ய	-10.608
▁அதிர்வெண்	-10.608
="348	-10.6082
▁கடித	-10.6082
டிங்	-10.6085
▁சிக்கி	-10.6086
▁வகைகளில்	-10.6086
▁மனு	-10.6087
▁பயன்பாட்டு	-10.6089
▁கூறுகின்றனர்	-10.609
கவுண்ட	-10.609
▁59.5%	-10.6091
▁ஆன்மீக	-10.6093
ப்புகள்	-10.6094
▁அளிக்கும்	-10.6095
த்தலைவர்	-10.6095
பியர்	-10.6096
மண்	-10.6096
▁அதன	-10.6096
▁இயக்கி	-10.6097
மரு	-10.6098
▁இங்கிலாந்தில்	-10.6099
▁தோல	-10.61
▁பூஜை	-10.6102
▁கருத்துக்களை	-10.6105
ுமே	-10.6106
▁முனி	-10.611
▁மருந்துகள்	-10.6111
▁நிலையத்தில்	-10.6112
har	-10.6113
▁பட்ச	-10.6117
▁நூ	-10.6123
▁இழப்ப	-10.6124
▁கட்டிடம்	-10.6128
▁பெரி	-10.6129
▁சாகி	-10.6133
க்காய்	-10.6136
யிருந்த	-10.6136
▁தென்மேற்கு	-10.6136
▁அதிகரித்து	-10.6136
va	-10.614
▁விசய	-10.6143
iv	-10.6143
▁சின்	-10.6146
=339	-10.6149
▁மெர்	-10.6151
▁சீடர்	-10.6151
மூலம்	-10.6153
▁பாரதி	-10.6156
ஜு	-10.6157
▁இரக	-10.6161
▁ரீதியான	-10.6162
▁ஆண்டுக்கு	-10.6173
ுவதே	-10.6179
▁ஹூ	-10.618
ருத்தி	-10.618
▁போய்	-10.618
▁பாயும்	-10.618
▁வழிபாட்டு	-10.6181
னவாக	-10.6184
▁அதிகரிப்ப	-10.6187
பணி	-10.619
▁தற்காலத்தில்	-10.6192
▁1939	-10.6194
▁தூக்க	-10.6195
▁மூச்சு	-10.6197
▁மட்டக்களப்பு	-10.6198
▁பாடலை	-10.6199
கோயில்	-10.62
ee	-10.6202
▁ஐதரோ	-10.6203
ப்படுவதால்	-10.6204
▁தேவாலய	-10.6205
பிசி	-10.6207
▁சார்ந்து	-10.6208
▁பயன்படுத்தலாம்	-10.6211
▁விண்டோஸ்	-10.6212
▁காகித	-10.6216
▁மண்டலத்தில்	-10.6216
ப்ஸ்	-10.6218
▁வணிகம்	-10.6218
▁உலை	-10.6219
▁நாடாளுமன்றத்	-10.6219
ுக்குள்	-10.6221
▁புத்தகம்	-10.6225
▁நிலநடுக்க	-10.6232
சீர்	-10.6232
பீட	-10.6234
▁ஆதரிக்க	-10.6235
AE	-10.6237
▁தற்	-10.6239
ீசுவரர்	-10.6239
▁புலிகள்	-10.6242
▁ஒன்றும்	-10.6244
▁எல்லைகளாக	-10.6248
▁ஜனநாயக	-10.625
விஸ்	-10.6251
▁நாளை	-10.6253
▁நிகழ்ச்சியில்	-10.6253
சீன்	-10.6253
▁கொண்டுவர	-10.6254
லையும்	-10.6257
▁ஆளுமை	-10.6257
▁தியான	-10.6259
களுக்குள்	-10.6261
▁கையில்	-10.6264
="339	-10.6266
பொரு	-10.6266
▁அழைப்பர்	-10.6268
ிற்	-10.6269
ாளராகவும்	-10.627
▁விவசாயம்	-10.6273
▁என்பத	-10.6274
ாயிரம்	-10.6274
▁கண்டறியப்பட்ட	-10.6274
லியோ	-10.6276
▁பெற்றிருந்த	-10.6276
▁தனித்த	-10.6278
▁பள்ளிகள்	-10.6278
▁ஆரம்பித்த	-10.6279
▁நிலக்கரி	-10.6279
ik	-10.6284
▁உருவாக்குகிறது	-10.6284
▁பட்	-10.6284
▁கொள்வத	-10.6286
▁லியோ	-10.6289
▁கோயிலில்	-10.629
யாறு	-10.6295
ருவி	-10.6295
▁விடய	-10.6296
அர	-10.6298
புத்திர	-10.6299
▁அமைந்து	-10.63
▁அறியப்படுகிறார்	-10.6304
▁வேளையில்	-10.6305
▁படித்தார்	-10.6307
பிட்	-10.6308
ref	-10.6308
▁நுழை	-10.6309
▁நாடுகளிலும்	-10.6311
▁g	-10.6317
▁இருந்ததால்	-10.6318
ish	-10.6318
▁பருவத்தில்	-10.6318
nowiki	-10.6322
ாகவே	-10.6325
▁ஜெய்	-10.6326
▁அவசர	-10.6326
▁எரிபொருள்	-10.6326
▁கற்பிக்க	-10.6329
▁கூறலாம்	-10.6331
ism	-10.6337
▁இயங்கு	-10.6337
pp	-10.6341
▁மாற்றாக	-10.6341
▁மருத்துவக்	-10.6343
▁அழிந்து	-10.6344
▁பெரும்பகுதி	-10.6345
▁அனைத்தையும்	-10.6347
நிலைய	-10.6348
▁வளர்த்த	-10.6348
ினைக்	-10.6349
▁பழமை	-10.6349
ேசன்	-10.635
=369	-10.635
▁ஓவியங்கள்	-10.6352
ப்பட்டாலும்	-10.6354
▁நக	-10.6355
விட்டன	-10.6355
▁பட்டி	-10.6356
டான	-10.6356
▁விநியோக	-10.6359
▁தொலைவு	-10.6359
▁சரக்கு	-10.6362
▁இயல	-10.6364
ீர	-10.6365
மோர்	-10.6366
▁மெய்யியல்	-10.6367
▁கடின	-10.6367
▁பண்புகளை	-10.6367
▁கொரியா	-10.6368
▁முடித்து	-10.6369
▁முற்றுகை	-10.6369
வரதராஜப்பெருமாள்	-10.6369
▁அதிகாரிகள்	-10.637
▁கொடுக்கும்	-10.6371
ஜூ	-10.6371
▁வெல்ல	-10.6372
▁உணவை	-10.6372
▁ரெட்டி	-10.6373
மக்கள்	-10.6375
▁சூழப்பட்டுள்ளது	-10.6376
ீஸ்வர	-10.6378
="369	-10.638
▁5,	-10.6381
▁தாக்கத்தை	-10.6382
▁கவலை	-10.6383
▁அமர	-10.6383
▁பார்வதி	-10.6383
ிடமும்	-10.6386
லாக்	-10.6388
▁ரங்க	-10.6389
▁காலத்தின்	-10.639
▁ஆறாம்	-10.6392
▁விடும்	-10.6392
▁சுவர	-10.6392
▁தோழி	-10.6395
ளர்	-10.6395
▁இருப்பிட	-10.6399
ங்களாகப்	-10.64
▁விட்டது	-10.64
▁கோயில்கள்	-10.6401
மெத்தில்	-10.6402
▁ஆப	-10.6406
▁ஒன்றின்	-10.6407
=341	-10.6411
கிள	-10.6413
▁தொகுத்து	-10.6417
ந்தர	-10.6419
▁இயலாது	-10.642
▁ஆபத்து	-10.6422
▁படிப்பறிவு	-10.6426
▁விளையாடினார்	-10.6427
▁மூலவர்	-10.6428
க்கள	-10.6429
▁வளர்ப்ப	-10.6431
ாகி	-10.6431
▁மூன்ற	-10.6431
▁கடிகார	-10.6433
▁விளங்கினார்	-10.6438
ence	-10.644
ாடி	-10.6441
▁ஒத்து	-10.6445
▁கழு	-10.6448
ராசா	-10.6455
▁சந்தேக	-10.6461
▁பெண்களுக்கு	-10.6462
ுபவர்கள்	-10.6463
▁தரநிலை	-10.6463
="341	-10.6466
▁கனி	-10.6469
▁பிரதேசத்தில்	-10.6469
▁ஹென்றி	-10.6473
220	-10.6474
▁விமானம்	-10.6476
▁நீங்க	-10.6478
ராயன்	-10.6479
▁அத்தி	-10.6481
si	-10.6481
▁புற்று	-10.6482
▁பொறுத்த	-10.6482
மாத	-10.6485
▁பெண்களும்	-10.6486
ver	-10.6487
▁மன்றம்	-10.6489
கோடு	-10.6489
▁விளைவுகள்	-10.6489
இர	-10.6491
▁மொழியின்	-10.6492
▁என்கிறார்	-10.6495
▁பிறந்து	-10.6501
னாய்	-10.6501
வராவார்	-10.6501
அறிவிக்கப்பட்டது	-10.6502
▁இதற்காக	-10.6505
▁விண்கல	-10.6506
▁இவ்விட	-10.6508
▁விடை	-10.6509
▁சந்தி	-10.6509
▁உருவாகிய	-10.651
பாடாக	-10.6511
ராணி	-10.6512
ber	-10.6514
ுமான	-10.6517
▁இதைத்	-10.6521
▁காணும்	-10.6526
டுக்கு	-10.6528
▁ஏதேனும்	-10.6529
▁செட்டி	-10.653
▁வழிபட்ட	-10.6531
▁பரவிய	-10.6534
▁துர்	-10.6536
ினார்கள்	-10.6537
▁இயக்கினார்	-10.6538
▁அமைந்திருந்த	-10.6539
▁வந்துள்ளது	-10.6539
▁பெற்றுக்	-10.6545
▁ஆக்சிசன்	-10.6551
▁மின்கல	-10.6554
வலி	-10.6555
▁தொழில்முறை	-10.6556
▁ஒளிப்பட	-10.6556
▁பகை	-10.6557
▁கொண்டுவந்த	-10.6557
ிலே	-10.6557
▁பக்கத்தில்	-10.6558
▁தாமரை	-10.6561
ுவதாகும்	-10.6561
▁இட்டு	-10.6565
▁தந்தையின்	-10.6565
▁பன்றி	-10.6569
கஸ்	-10.6571
▁போன்றவற்றில்	-10.6572
▁இதன	-10.6573
yl	-10.6573
7%	-10.6574
▁மறுத்த	-10.6579
கிராம	-10.658
டாக்	-10.6584
▁மைசூர்	-10.6588
பூண்டி	-10.6588
▁பகுதிகளுக்கு	-10.6589
▁1953	-10.6591
▁வரையிலும்	-10.6592
▁கருப்பை	-10.6595
ts	-10.6595
▁மன்	-10.6598
▁என்பதும்	-10.6599
▁சூழ்ந்த	-10.6602
cy	-10.6602
ரைப்	-10.6603
▁தயாரித்து	-10.6604
▁மூலமும்	-10.6607
▁படங்கள்	-10.661
▁கேம்	-10.661
lu	-10.6613
▁ஆட்சியை	-10.6613
▁கட்டண	-10.6614
▁சேமிப்பு	-10.6615
முறையில்	-10.6616
▁பிரதம	-10.6617
ுவா	-10.6617
▁ஒட்ட	-10.6617
▁எழுச்சி	-10.6619
▁டெல்லி	-10.6622
▁மலாயா	-10.6622
▁விதமான	-10.6624
▁ஜாக்	-10.6624
▁பெற்றுள்ளன	-10.6624
▁நீரின்	-10.6627
▁தங்களை	-10.663
▁இப்பெயர்	-10.663
▁வலிமையான	-10.6631
▁பின்பற்றி	-10.6632
▁வலய	-10.6632
▁இடர்	-10.6634
ff	-10.6634
▁இருக்கை	-10.6635
ec	-10.6643
▁கிர	-10.6643
ace	-10.6646
▁தளத்தில்	-10.6647
▁நடுநிலை	-10.6648
▁ஃப்ர	-10.6652
193	-10.6653
▁அடையும்	-10.6653
ந்தல்	-10.6658
▁மணம்	-10.666
ப்பார்	-10.666
▁பயன்பாட்ட	-10.6664
▁அவர	-10.6667
▁சொந்தமான	-10.6668
▁பாப்	-10.6668
▁ஆசை	-10.667
▁தொகுதியாகும்	-10.6672
▁இம்ம	-10.6673
றுக்க	-10.6676
▁39	-10.6676
▁பண்	-10.6677
▁தொண்டை	-10.6681
▁ஆட்டம்	-10.6687
▁பித்த	-10.6689
min	-10.6689
▁செய்யலாம்	-10.6691
நோக்கி	-10.6691
▁வழித்தட	-10.6691
▁வேட்டை	-10.6692
▁இலட்ச	-10.6697
Th	-10.6698
▁பணிபுரிந்த	-10.67
▁உத	-10.6701
▁குட்டி	-10.6701
▁அசி	-10.6702
▁மயிலாடுதுறை	-10.6703
▁கரையோர	-10.6703
ke	-10.6703
▁;	-10.6703
▁நிகழ்ச்சிகள்	-10.6706
வேளை	-10.6706
▁தாயக	-10.6706
▁அவசியம்	-10.671
மெய்	-10.6714
வச	-10.6715
▁ஆஸ்திரேலிய	-10.6715
ம்பட்டு	-10.6716
▁பொருத்தமான	-10.6716
விச்	-10.6719
யாத	-10.6721
▁எப்	-10.6721
க்கொண்டார்	-10.6722
▁உகந்த	-10.6727
▁இடத்திற்கு	-10.6731
▁கடவுள	-10.6731
▁தேசியக்	-10.6738
▁முதன்மையாக	-10.6739
▁பொதி	-10.6742
=338	-10.6747
▁பந்தய	-10.6748
▁உல	-10.6748
▁கொட்ட	-10.6748
▁அத்த	-10.675
வருகிறது	-10.6751
▁விஸ்வநாத	-10.6752
டையும்	-10.6758
ட்டிக்	-10.676
நாய்	-10.6762
டைந்து	-10.6762
▁எந்திர	-10.6766
ரிசி	-10.6766
▁உற்சவ	-10.6773
▁சண்முக	-10.6773
▁விருதை	-10.6774
யின்படி	-10.6776
ாரி	-10.6779
▁அடைந்தது	-10.6781
▁ஆதிக்க	-10.6782
▁மேற்கே	-10.6782
▁திரைப்படத்தை	-10.6785
ாலய	-10.6786
▁ஒழுக்க	-10.6788
தனி	-10.679
ve	-10.6792
▁மதிப்பை	-10.6793
கர்ண	-10.6796
மாகிய	-10.6797
con	-10.6798
▁அசோக	-10.68
pa	-10.68
▁மோதி	-10.6801
▁அமைகின்றன	-10.6803
▁வைத்திருந்த	-10.6804
▁தள்ள	-10.6804
▁மாற்றிய	-10.6805
▁வேறுபாடுகள்	-10.6806
▁வரலாற்ற	-10.6806
நாராயண	-10.6808
கற்	-10.6808
▁செயற்கைக்கோள்	-10.6808
▁மாதங்களில்	-10.6809
▁காப்புரிமை	-10.6809
▁செரு	-10.6811
▁தொடங்கும்	-10.6813
▁தேர	-10.6815
▁பொதுமக்கள	-10.6815
▁கட்டுப்பாட்ட	-10.6816
தியா	-10.6817
▁சேவைகளை	-10.6823
▁1936	-10.6823
▁பணிகளை	-10.6824
▁புரு	-10.6825
தானி	-10.6827
▁சங்கத்தின்	-10.6828
▁வளி	-10.6829
▁அவதார	-10.6829
▁வலுவான	-10.6832
▁ஆய்வாளர்கள்	-10.6832
▁மலேசியாவில்	-10.6834
▁களில்	-10.6836
யீட்ட	-10.6838
▁ரை	-10.6838
டியில்	-10.684
லுடன்	-10.6841
ர்களால்	-10.6841
இவர்	-10.6843
யத்தில்	-10.6846
▁விளையாடிய	-10.6848
3-	-10.685
▁எடுத்தார்	-10.685
சமுத்திரம்	-10.6851
mi	-10.6851
த்தியா	-10.6852
▁உலர்	-10.6852
மாற	-10.6852
சனை	-10.6853
▁வளாக	-10.6855
மிட்ட	-10.6857
லானது	-10.6864
▁பொதுமக்கள்	-10.6866
▁பலகை	-10.6866
▁உருவாகின்றன	-10.6866
▁கிரு	-10.6871
▁கணிப்ப	-10.6872
▁வசிக்கும்	-10.6874
ூன்	-10.6875
▁படைகளை	-10.6877
▁சமமான	-10.6879
▁பரத	-10.6881
▁மால்	-10.6884
▁குறியீட்டு	-10.6886
▁நடிப்பு	-10.6888
▁பதக்க	-10.6889
▁ஆகியோருக்கு	-10.689
▁இரசாயன	-10.6892
▁இருந்ததாக	-10.6893
▁வாட்	-10.6893
யாவின்	-10.6893
▁1937	-10.6895
="338	-10.6895
▁காடுகள்	-10.6897
ரர்	-10.6902
▁இமயமலை	-10.6903
▁பதவியில்	-10.6904
▁இத்தல	-10.6905
▁நடுத்தர	-10.6906
▁ஆழ்	-10.6906
ens	-10.6907
சிலி	-10.691
▁பண்புகள்	-10.6911
▁இளமை	-10.6913
patti	-10.6915
▁மேற்பார்வை	-10.6916
▁மூலதன	-10.6919
▁6,	-10.692
பரா	-10.6921
▁கீழ்க்காணும்	-10.6927
சாலி	-10.6928
நான்	-10.6929
▁திருச்சபையின்	-10.693
▁திரட்ட	-10.693
னீசிய	-10.6931
▁வில்லை	-10.6931
பத்து	-10.6935
▁ஆரம்பிக்க	-10.6938
▁நீரா	-10.6938
லெட்	-10.6938
▁பராமரிக்க	-10.6942
▁முறையாகும்	-10.6942
ஜின்	-10.6943
▁பாலை	-10.6944
ப்பட்டிருந்தது	-10.6944
ies	-10.6947
▁சமமாக	-10.6948
▁நீங்கள்	-10.6949
▁போதி	-10.6949
ஃபோ	-10.6949
னியின்	-10.695
ியலில்	-10.6952
▁தெரிந்து	-10.6952
258	-10.6955
▁விஞ்ஞான	-10.6957
ாவார்	-10.696
றிந்த	-10.6962
▁அறுவடை	-10.6963
▁விளையாட்ட	-10.6966
மூட்ட	-10.6969
▁மஹா	-10.6972
▁அசு	-10.6974
▁கும்பகோணம்	-10.6975
▁சர்ச்சை	-10.6976
▁நீடித்த	-10.698
▁லக்	-10.6981
▁வயிற்று	-10.6982
ியை	-10.6982
ங்கும்	-10.6983
▁மாற்றங்களை	-10.6984
▁சல	-10.6984
▁தலைமையகம்	-10.6985
▁1942	-10.699
▁மிகுதியாக	-10.6992
ராஸ்	-10.6992
▁மன்னர	-10.6995
▁இதைப்	-10.6998
one	-10.7002
ach	-10.7004
▁சமூகம்	-10.7004
▁ஓட்டங்களை	-10.7011
கணித	-10.7016
ுக்குத்	-10.7019
▁தடவை	-10.7021
▁ஜோசப்	-10.703
▁1941	-10.703
▁இடைக்கால	-10.7032
▁மைதான	-10.7032
▁பூமியின்	-10.7034
du	-10.7037
▁இந்தியன்	-10.7037
▁இலா	-10.7039
▁முடித்தார்	-10.7041
▁நடத்தினார்	-10.7042
டிஸ்	-10.7043
களாவர்	-10.7043
▁11,	-10.7045
▁நடவடிக்கைகளை	-10.7045
500	-10.7046
யீடு	-10.7046
மறை	-10.7049
▁பாண்டியர்	-10.7049
▁மங்க	-10.7049
▁பகுதிகளாக	-10.7049
▁ஆய்வில்	-10.7051
▁மறுத்து	-10.7052
▁அதிகாரப்பூர்வ	-10.7058
▁ஒருவன்	-10.7059
தமிழ	-10.706
900	-10.706
சூல	-10.7061
▁நோக்கில்	-10.7064
▁ஏறி	-10.7064
▁மாதா	-10.7069
கிருஷ்ணன்	-10.707
டுப்பு	-10.707
▁நிதிய	-10.7074
▁வலுவ	-10.7075
ொன்றை	-10.708
▁நடைபெற்று	-10.708
ிருந்தால்	-10.7081
▁பேரின	-10.7082
▁அளவி	-10.7084
ப்படுத்திய	-10.7085
▁வாசிப்ப	-10.7086
சனம்	-10.7088
ச்சாலை	-10.7088
103	-10.7089
▁போட்டியிட	-10.7089
114	-10.709
▁பார்ப்ப	-10.7091
மிழ்	-10.7092
▁அற்ற	-10.7095
▁பரவி	-10.7098
த்தும்	-10.7098
▁42	-10.7098
க்கூடாது	-10.7099
▁ஆஞ்சநேயர்	-10.7101
மேடு	-10.7101
▁Na	-10.7101
யின்றி	-10.7102
▁CH	-10.7102
▁ஊசி	-10.7103
ியர்	-10.7108
▁வளைகுடா	-10.7108
தேசிய	-10.7111
▁கொள்ளை	-10.7111
▁50%	-10.7111
▁வெண்கல	-10.7111
பந்தாட்ட	-10.7113
டியன்	-10.7115
வுள்ள	-10.7116
▁இவ்வூரின்	-10.7118
ண்டின்	-10.7119
▁மேம்பட்ட	-10.712
▁ஆகஸ்டு	-10.7121
▁சிந்தி	-10.7122
போன	-10.7122
▁An	-10.7124
னொ	-10.7128
ெடுத்து	-10.7129
▁பெற்றனர்	-10.7131
பிறகு	-10.7132
▁47	-10.7134
▁திகழ்ந்த	-10.7135
▁நோய்கள்	-10.7137
▁இயங்குகிறது	-10.7139
▁டார்	-10.714
int	-10.714
▁வியா	-10.7144
▁படுகிறது	-10.7146
▁நினைவ	-10.7147
▁யாழ்	-10.7149
▁செய்கிறார்	-10.715
காளியம்மன்	-10.7151
ess	-10.7153
▁சாகுபடி	-10.7157
▁வன்னி	-10.716
▁தரவரிசை	-10.7162
ினைப்	-10.7168
▁பகிர்	-10.7169
▁நியூசிலாந்து	-10.7169
▁விருதுகளை	-10.7173
களுக்குத்	-10.7173
▁ஒன்றுக்கு	-10.7178
▁கற்றல்	-10.7182
ாலி	-10.7182
ரெய்	-10.7183
▁மக்களிடையே	-10.7183
யாகத்	-10.7187
▁செயல்பாட்ட	-10.7188
▁மேற்பரப்பு	-10.719
வாழ்வு	-10.7191
புது	-10.7196
▁எடுத்துக்கொள்ள	-10.7197
யாகவே	-10.7199
▁வருவது	-10.7202
▁அளக்க	-10.7204
▁சான்றுகள்	-10.7205
▁மதி	-10.7206
▁இதனுடைய	-10.7207
▁வானிலை	-10.7208
▁நிரந்தர	-10.721
▁சீனாவில்	-10.7215
எசு	-10.7217
▁பாலூட்டி	-10.7219
-3	-10.7219
▁46	-10.7226
▁அணிய	-10.7228
▁இவரும்	-10.7232
▁தொழில	-10.7233
யரின்	-10.7234
▁அறிகுறிகள்	-10.7241
ரியல்	-10.7242
▁லண்டன்	-10.7244
IV	-10.7245
▁இராமநாதபுரம்	-10.7245
▁கணபதி	-10.7248
▁அவு	-10.7249
க்காட்சி	-10.7249
▁கொல்லப்பட்ட	-10.725
▁அதைத்	-10.7251
ருள்	-10.7257
▁தொழில்துறை	-10.7258
ுகை	-10.7261
▁இழக்க	-10.7262
▁வட்டத்தின்	-10.7264
▁கிடைக்கின்றன	-10.7264
▁பிரிட்டன	-10.7266
▁படையெடுப்பு	-10.7268
pi	-10.7269
▁சுதந்திரம்	-10.7269
▁கூட்டுறவு	-10.7269
▁விதிமுறை	-10.7271
▁நிபுணர்	-10.7271
க்ரோ	-10.7272
ala	-10.7275
▁தலங்களில்	-10.7275
▁தாமிர	-10.7277
க்கூடியதாக	-10.728
▁பெற்றன	-10.7282
▁இங்கிலாந்தின்	-10.7283
▁பெயரிடப்பட்ட	-10.7284
▁நாசி	-10.7286
ாயிற்று	-10.7286
டரி	-10.7287
▁தொங்க	-10.7288
▁செயல்திறன்	-10.7292
பின்னர்	-10.7293
திலிருந்து	-10.7294
▁கோவிலில்	-10.7294
▁கோவில	-10.7294
▁அம்மை	-10.7298
▁போரிட்ட	-10.7301
▁தாரா	-10.7302
▁பாச	-10.7303
▁சொன்ன	-10.7303
ரண்	-10.7304
ஃபெ	-10.7306
▁டெல்	-10.7306
▁ஆட்சிக்	-10.7307
▁செயற்பட	-10.7307
ாரம்	-10.7308
▁இக்கல்லூரி	-10.7311
▁இடைய	-10.7311
ப்பொருளாக	-10.7312
தொழில	-10.7315
▁தமிழீழ	-10.7317
▁ஜெர்மன்	-10.7317
▁அச்சுறுத்த	-10.7318
158	-10.7319
மற்றும்	-10.7321
▁வகையாகும்	-10.7323
▁முற்பட்ட	-10.7326
▁டான்	-10.7326
end	-10.7328
▁தகுந்த	-10.733
▁எகிப்து	-10.733
▁பெறப்படும்	-10.7336
யடைந்த	-10.7341
▁விலக	-10.7345
▁தங்களின்	-10.7345
செல்ல	-10.7347
▁பாதையில்	-10.7347
▁எனப்படுவது	-10.7349
யுடனும்	-10.7349
▁ரத்த	-10.735
▁இன்றி	-10.7351
குழி	-10.7352
▁காட்டிய	-10.7353
▁கருதப்பட்ட	-10.7355
▁மேற்குப்	-10.7357
▁தவறு	-10.7357
▁ஜப்பான்	-10.7358
கோள	-10.7358
▁புள்ளிகள்	-10.7359
▁நபி	-10.7361
▁உயர்நிலைப்	-10.7362
res	-10.7363
ாலோ	-10.7364
▁நிலவு	-10.7367
ப்படுவதை	-10.7367
▁காலமாக	-10.7369
த்தின்படி	-10.737
▁இந்தோ	-10.7373
▁அரசுக்கு	-10.7377
ராவ்	-10.7378
ong	-10.738
பாட்டின்	-10.7385
ore	-10.7385
குழந்தை	-10.7387
▁%	-10.7389
▁இறைச்சி	-10.739
பனி	-10.739
▁1938	-10.7396
Si	-10.7398
▁ராதா	-10.7401
ப்படுவதாக	-10.7405
ty	-10.7405
▁முனைய	-10.7406
230	-10.7406
▁அமைவிடம்	-10.7407
▁இயல்பான	-10.7407
▁உடனே	-10.7409
187	-10.741
▁நடக்க	-10.7417
▁65	-10.7417
186	-10.7418
▁வலையமைப்பு	-10.742
வாளர்	-10.7422
▁தீய	-10.7424
▁மோர்	-10.7425
▁தங்கிய	-10.7426
▁மராத்திய	-10.7427
▁குரூ	-10.7427
▁பிடாரி	-10.7429
▁சந்த	-10.743
பஸ்	-10.7431
▁மாலி	-10.7431
விட்டது	-10.7433
▁அடங்க	-10.7433
▁செறிவு	-10.7436
▁ஹெர்	-10.7441
▁விமர்சகர்	-10.7442
▁சமஸ்கிருத	-10.7442
▁கொண்டிருக்க	-10.7443
டெக்	-10.7445
▁செவி	-10.7445
201	-10.7446
▁இடையேயான	-10.7448
▁பியூ	-10.7452
▁வெற்றியை	-10.7452
பியன்	-10.7453
▁சித்தர்	-10.7453
▁இப்படத்தில்	-10.7454
▁புனே	-10.7456
▁காலகட்ட	-10.7458
கவி	-10.746
▁கிழ	-10.7461
விலேயே	-10.7461
வேறு	-10.7465
களுக்க	-10.7467
சியோ	-10.7467
▁முயற்சிகள்	-10.7469
▁கையெழுத்த	-10.7472
▁தவறாக	-10.7472
▁ஆத்திரேலிய	-10.7472
த்தொடர	-10.7478
▁பறக்கும்	-10.7484
ca	-10.7484
▁சிறுநீரக	-10.7486
▁சூட	-10.7487
gi	-10.749
▁சவு	-10.7493
▁Mo	-10.7495
மாகத்	-10.7497
பர்க்	-10.7497
லுக்கான	-10.7497
▁இம்மா	-10.7499
ிற்குப்	-10.75
▁இடங்களிலும்	-10.7501
▁இரயில்வே	-10.7501
க்கொள்ளும்	-10.7501
வனம்	-10.7502
வேர்	-10.7505
▁மரியாதை	-10.7506
▁பயின்று	-10.7511
▁சென்றது	-10.7513
▁வழு	-10.7514
Sa	-10.7515
▁பிரபலமாக	-10.7517
▁கூட்டம்	-10.752
▁நகரமாகும்	-10.752
▁1943	-10.7522
▁காஷ்மீர்	-10.7524
▁இரும	-10.7524
போன்	-10.7524
கொள்கின்றனர்	-10.7525
குவா	-10.7527
▁கிறிஸ்	-10.7529
▁பிரிவுகள்	-10.7531
▁ஏவுகணை	-10.7531
ப்பிரிவ	-10.7532
▁அளித்தார்	-10.7532
▁கற்றுக்	-10.7532
▁கால்சியம்	-10.7533
ோருக்கு	-10.7533
க்கெட்	-10.7535
▁மன்னர்கள்	-10.7535
▁வருடங்களுக்கு	-10.7536
டியோ	-10.7536
ome	-10.754
▁ஹு	-10.7543
▁சூறாவளி	-10.7544
▁வளர்ச்சிக்கு	-10.7547
▁மோகன்	-10.7547
▁மோதல்	-10.7548
▁பெருங்கடல்	-10.7548
பெயர	-10.7549
166	-10.7551
பொன்	-10.7552
▁அதற்கான	-10.7553
▁முன்னிலையில்	-10.7555
▁விளையாட்டுக்	-10.7555
த்தாக்க	-10.7559
▁நிலத்தில்	-10.756
▁அளித்து	-10.756
ியுள்ளனர்	-10.7565
ையர்	-10.7565
▁நட்பு	-10.7565
▁பாடியுள்ளார்	-10.7566
▁கொத்த	-10.7567
▁உறுப்ப	-10.7568
சேவை	-10.7568
▁கட்டிடங்கள்	-10.7569
▁நிலைத்த	-10.7571
க்குட்பட்ட	-10.7572
▁சுட்ட	-10.7574
▁ஸ்டோ	-10.7575
▁பெறுகின்றன	-10.7575
▁தழுவி	-10.7576
▁லாஸ்	-10.758
பாணி	-10.7582
▁தொலைநோக்கி	-10.7583
▁சங்ககால	-10.7584
▁தங்கம்	-10.7585
=270	-10.7586
▁ஸ்டார்	-10.7588
▁பாதுகாப்புச்	-10.7589
ளிக்க	-10.759
▁அலுமினியம்	-10.7591
av	-10.7594
▁தோல்வியடைந்த	-10.7595
▁பொம்மை	-10.7596
▁55	-10.7597
▁v	-10.7598
▁தோராயமாக	-10.7602
வெட்டி	-10.7603
▁சுவா	-10.7604
▁கலக்க	-10.7605
▁கடத்தி	-10.7606
="270	-10.7607
▁உயிரினங்கள்	-10.7609
▁குழந்தைகளுக்கு	-10.761
னைத்	-10.7611
ுவதாகவும்	-10.7612
▁பாட்டி	-10.7613
▁ஊக்க	-10.7614
னிங்	-10.7615
▁சந்தையில்	-10.7616
ob	-10.7618
▁கவனிக்க	-10.7623
353	-10.7626
▁8,	-10.7627
In	-10.7628
செட்	-10.7628
வைக்க	-10.7629
▁நிறுவனமான	-10.7632
▁இயங்குதள	-10.7634
▁இடங்களுக்கு	-10.7635
▁பிரித்தானியர்	-10.7635
▁சிறுகதைகள்	-10.7635
▁உட்கொள்ள	-10.7635
த்தொடர்	-10.7638
▁சிவா	-10.7639
காலத்தில்	-10.7641
▁கூறியுள்ளார்	-10.7641
▁மீன்பிடி	-10.7645
▁ஐயர்	-10.7645
அல்	-10.7646
▁கணேசன்	-10.7647
▁உருவாக்கியது	-10.7649
ரென்	-10.765
ரிங்	-10.765
▁போன்றே	-10.7651
600	-10.7652
▁லோக	-10.7652
▁கண்டுபிடிப்ப	-10.7653
▁தொடர்பில்	-10.7654
▁வாழ்வு	-10.7658
கதை	-10.766
▁44	-10.7664
மேற்க	-10.7666
188	-10.7668
ப்படம்	-10.767
▁x	-10.7671
au	-10.7675
▁நீலகிரி	-10.7675
▁மணல்	-10.768
▁கண்டுபிடித்தார்	-10.7683
▁பைரவர்	-10.7683
▁எவ்வளவு	-10.7684
▁கடலோர	-10.7685
▁பிந்தைய	-10.7685
▁பார்வையாளர்	-10.7685
மனித	-10.7685
▁குறிப்பிடும்	-10.769
▁அரிதாக	-10.7691
▁செய்துள்ளார்	-10.7693
▁காண்ட	-10.7697
▁தெரியாத	-10.7699
=368	-10.7704
▁விஞ்ஞானி	-10.7704
▁பிக்	-10.7706
▁பிரிந்த	-10.7706
▁ஹில்	-10.7708
▁அமர்ந்த	-10.7709
▁தம்மை	-10.771
ாவை	-10.7711
▁பற்று	-10.7716
▁அமினோ	-10.7716
▁தோற்றுவித்த	-10.7717
▁ஆண்களுக்கு	-10.7718
▁பிரகாச	-10.7718
▁நிலைகளில்	-10.7718
▁52	-10.772
▁பெருநகர	-10.7722
▁போஸ்	-10.7722
▁மோட்டார்	-10.7723
▁ஏன்	-10.7723
▁ரசிகர்	-10.7724
▁தனித்துவமான	-10.7725
▁மருத்துவமனையில்	-10.7725
▁அண்மை	-10.7726
ண்டன்	-10.7727
▁அந்தத்	-10.7729
▁இம்மாவட்டத்தில்	-10.7734
பாட்டில்	-10.7735
▁De	-10.7735
▁இறுதிப்	-10.7736
▁போதிய	-10.7739
▁அபாய	-10.7741
ாற்	-10.7743
▁பசி	-10.7744
▁அங்குள்ள	-10.7745
கட்டு	-10.7749
சைன்	-10.7753
▁காவிய	-10.7753
▁ஆட்சிக்கு	-10.7754
▁தாமத	-10.7755
ga	-10.7755
▁இறக்கை	-10.7756
▁தலைமையிட	-10.7757
▁ஈடு	-10.7759
ani	-10.7761
292	-10.7762
▁மாணவர்களுக்கு	-10.7765
ட்டுக்	-10.7765
பந்த	-10.7765
▁படிநிலை	-10.7766
▁எளிமையான	-10.7769
பாக்	-10.7771
▁துவங்கி	-10.7771
▁அரசியலில்	-10.7775
▁கலா	-10.7776
tri	-10.7778
▁முள்ள	-10.7779
184	-10.7781
▁சம்பா	-10.7783
▁மேற்கொண்டு	-10.7784
▁வாச	-10.7785
▁சிதைவு	-10.7787
▁Ar	-10.7787
▁பார்க்	-10.7788
▁சப்த	-10.779
▁காப்பக	-10.7791
▁நடனம்	-10.7791
▁நீண்டகால	-10.7792
▁குஜராத்	-10.7793
▁கொங்கு	-10.7796
▁நுழைந்த	-10.7796
▁கூறுவர்	-10.7801
▁ஒல்லாந்த	-10.7802
றல்	-10.7802
ினா	-10.7803
லியன்	-10.7806
பாண்டிய	-10.7807
ரட்	-10.7807
▁தொடங்கினர்	-10.7807
▁அடித்து	-10.7809
142	-10.781
▁முன்னால்	-10.7812
▁கப்பல்கள்	-10.7814
▁திங்கள்	-10.7814
அதாவது	-10.7814
434	-10.7817
▁தொடங்கின	-10.7818
go	-10.7821
the	-10.7822
▁நினைத்த	-10.7824
டால்	-10.7824
பாட்ட	-10.7826
ழிவு	-10.7831
▁ஏற்பட்டு	-10.7833
▁இடத்தைப்	-10.7835
யாவார்	-10.7836
▁மூலிகை	-10.7841
▁காப்பு	-10.7841
▁கலவர	-10.7843
▁வெறும்	-10.7844
கீழ	-10.7845
▁பேச்ச	-10.7847
▁தெற்க	-10.7847
நர	-10.7848
▁ஈடுபட்டார்	-10.7848
▁எல்லையில்	-10.7849
டீன்	-10.785
▁இயக்கத்தை	-10.7851
▁விரிவாக	-10.7852
▁அணிந்து	-10.7852
▁ஐதராபாத்	-10.7854
உரு	-10.7854
SO	-10.7855
▁தீபகற்ப	-10.7857
புரோ	-10.7858
▁மற்றவர்	-10.7858
132	-10.7859
▁ஆயிரக்கணக்கான	-10.7867
▁கருதப்படுகிறார்	-10.7869
மிக	-10.7871
▁12,	-10.7871
Per	-10.7874
ஸ்தி	-10.7874
▁தூக்கி	-10.7881
▁வடிவங்கள்	-10.7881
1,	-10.7881
எஃப்	-10.7883
▁செயலாளராக	-10.7885
யாலும்	-10.7892
Ar	-10.7897
▁கூடி	-10.7898
▁அமைப்புக்	-10.7898
ுறுப்பு	-10.79
▁குறுக்கு	-10.79
கையை	-10.79
▁ஆதிக்கம்	-10.7901
ையே	-10.7901
116	-10.7909
▁யோவான்	-10.7909
▁ஏல	-10.7909
வதற்கான	-10.7913
▁பக்தர்கள்	-10.7915
▁வயத	-10.7915
▁பணத்தை	-10.7918
▁விருதினை	-10.7919
▁வெளிவர	-10.792
iya	-10.792
▁மட்டத்தில்	-10.7921
லகு	-10.7922
▁வந்தவர்	-10.7923
▁பொற்	-10.7923
▁துரை	-10.7923
-20	-10.7924
ாக்கம்	-10.7924
▁இயக்குநராக	-10.7925
▁சிற்பங்கள்	-10.7928
▁பின்புற	-10.793
▁பட்டமும்	-10.7931
சின்ன	-10.7931
▁ஆகையால்	-10.7933
▁வடிவமைப்ப	-10.7933
▁சுட்டிக்காட்ட	-10.7933
▁துவார	-10.7934
படுகிறது	-10.7935
ிழை	-10.7935
▁1934	-10.7936
வளைய	-10.7939
ite	-10.794
த்திற்க	-10.7943
▁தெளிவான	-10.7945
▁நிபந்தனை	-10.7946
";	-10.7946
▁சினிமா	-10.7946
நீதி	-10.7948
▁பூனை	-10.7948
mon	-10.7951
▁வரம்பு	-10.7952
Br	-10.7952
▁காளியம்மன்	-10.7956
▁விடுமுறை	-10.7958
▁பயின்ற	-10.7959
▁நினைவக	-10.7959
▁ஆறுகள்	-10.7961
▁மின்காந்த	-10.7962
aw	-10.7963
▁ஓவியம்	-10.7966
▁கோரி	-10.7967
▁உயிரணுக்கள	-10.7967
▁தடுத்து	-10.7969
தென	-10.797
▁ஈராக்	-10.7972
▁கூடியது	-10.7973
▁நிகர	-10.7974
so	-10.7975
▁துல்லியமாக	-10.7975
▁கிரிக்கெட்	-10.7975
▁குளிர	-10.7977
▁நகரத்தை	-10.7977
▁1935	-10.7979
▁வோல்	-10.7982
ராசு	-10.7982
▁கச	-10.7984
▁தலைநகரமாக	-10.7984
▁தூது	-10.7986
▁வாழ்நாள்	-10.7987
▁10,	-10.7987
▁51	-10.7989
OH	-10.799
▁சிரி	-10.799
▁பிரிவினை	-10.7991
▁முறைகளை	-10.7994
▁திறக்க	-10.7995
250	-10.7997
▁ஒட்டு	-10.7997
▁யுத்த	-10.8
▁வைகாசி	-10.8
பகுதியில்	-10.8
▁படுக்கை	-10.8
▁பகு	-10.8002
ிதழ	-10.8003
▁படத்தை	-10.8003
▁கதிர	-10.8004
களின்படி	-10.8005
▁சர்வ	-10.8008
_2	-10.8008
▁ராக	-10.801
▁நந்த	-10.801
▁வணிகர்	-10.8013
வாய்ந்த	-10.8015
▁விதத்தில்	-10.8016
▁ஏதும்	-10.8016
ட்டூர்	-10.8019
▁கூறுகின்றன	-10.8021
▁கொல்லப்பட்டனர்	-10.8021
க்ஸி	-10.8022
▁விளங்கும்	-10.8022
▁சத்த	-10.8022
▁நாட்காட்டியில்	-10.8025
▁கண்காட்சி	-10.8026
▁பிளாக்	-10.8028
▁அடைந்தார்	-10.8033
நாட்டில்	-10.8034
க்கொடி	-10.8036
▁நாடுகளை	-10.8036
▁கல்வியறிவான	-10.8039
ப்புறம்	-10.804
இரா	-10.8043
பாலி	-10.8043
▁கருதப்படுகின்றன	-10.8043
ீய	-10.8044
▁II	-10.8044
ருதி	-10.8044
▁உப்ப	-10.8044
▁லட்சம்	-10.8045
ாண்மை	-10.8046
ின்றார்	-10.8048
ளில்	-10.8051
யிலே	-10.8052
▁நிச்சய	-10.8053
ுருவ	-10.8054
▁எல	-10.8059
2-	-10.8062
▁இயக்கத்தின்	-10.8066
▁இன்ப	-10.8067
தொலை	-10.8073
▁மில்	-10.8074
▁நிறுவனங்களின்	-10.8077
மெண்ட்	-10.8079
▁இக்கோயிலின்	-10.8079
▁தேயிலை	-10.808
நிறுவன	-10.8081
வெப்ப	-10.8081
▁இலவச	-10.8081
▁மலைத்தொடர்	-10.8082
177	-10.8086
ப்பெயர	-10.8088
ாக்சி	-10.8088
▁வாழ்வில்	-10.809
▁முதலியன	-10.8092
tra	-10.8093
▁49	-10.8095
▁அக்க	-10.8098
கோடி	-10.8101
ரேட்	-10.8101
▁அணுக்கள்	-10.8105
▁ஆய்வுக்	-10.8106
மரி	-10.8107
▁இப்படத்தை	-10.8107
▁கொரிய	-10.8109
van	-10.811
▁திட்டத்தில்	-10.8111
▁புரிந்தார்	-10.8115
யாளர	-10.8117
▁இராமாயண	-10.8119
▁மீன்கள்	-10.8121
▁உறுப்பினர	-10.8123
▁பக்	-10.8124
▁t	-10.8127
▁ஃபே	-10.8127
▁மீற	-10.8128
▁வைக்கப்பட்டது	-10.8129
வள்ளி	-10.8129
48"	-10.813
▁மில்லி	-10.8131
▁நேரத்தை	-10.8132
▁காய்கறி	-10.8133
காரம்	-10.8138
tr	-10.8138
175	-10.8139
194	-10.814
▁ஆண்டுக்கான	-10.814
மல்லி	-10.814
விட்டனர்	-10.8142
▁1929	-10.8142
▁பேசப்படுகிறது	-10.8144
▁தரவுத்தள	-10.8145
லைன்	-10.8147
▁சிரம	-10.8156
▁கைப்பற்றிய	-10.816
மாநில	-10.816
▁கங்கா	-10.8161
மந்த	-10.8164
▁எழ	-10.8164
▁கூரை	-10.8165
யளித்த	-10.8167
ப்பிரிவு	-10.8167
செய்யப்பட்ட	-10.8167
வாக்கம்	-10.8167
ப்ளி	-10.817
க்காலம்	-10.8173
▁அரசை	-10.8173
154	-10.8174
▁வடிவமைக்க	-10.8175
▁என்பவர	-10.8176
▁தீவின்	-10.818
As	-10.818
பெக்	-10.8182
▁இத்திட்ட	-10.8182
▁வளம்	-10.8182
சமய	-10.8182
ja	-10.8183
▁நிற்கும்	-10.8184
▁நிறுவனத்தால்	-10.8184
▁தேர்ச்சி	-10.8186
▁இயற்பெயர்	-10.8187
▁உறவினர்	-10.8187
ரீதியாக	-10.8188
▁தேர்தல்களில்	-10.8188
▁பெயரிட	-10.8189
▁ஜப்பானிய	-10.819
▁வெர்	-10.8191
▁புறநகர்	-10.8191
▁மந்திரி	-10.8194
கென்	-10.8194
▁அடக்கம்	-10.8196
▁இடைமுக	-10.8197
▁திருக்க	-10.8201
▁அத்தகைய	-10.8201
▁சமன்பாட்ட	-10.8201
▁இயல்ப	-10.8205
▁மின்சாரம்	-10.8208
304	-10.8209
வாலா	-10.821
▁சந்தித்து	-10.8211
▁கூற்று	-10.8212
▁பரா	-10.8213
▁கைப்பற்றினார்	-10.8216
▁ஆகம	-10.8216
ளித்த	-10.8216
▁அணிந்த	-10.8217
▁நடக்கிறது	-10.8217
221	-10.822
▁தர்	-10.8221
▁அறிவியலாளர்	-10.8222
ப்புல	-10.8224
▁திட்டமிடப்பட்ட	-10.8226
▁போராளி	-10.8229
▁ஏற்படுத்தியது	-10.8231
▁மாநாட்டில்	-10.8232
▁சாஸ்தா	-10.8234
▁தொகுதியிலும்	-10.8237
ாட	-10.824
▁திருமலை	-10.8242
▁புலமை	-10.8244
ெண்	-10.8244
▁நாற்	-10.8245
▁ஆள்	-10.8245
4-	-10.8246
▁செய்திகளை	-10.8248
▁இலைகள்	-10.8252
att	-10.8252
▁ஆண்டும்	-10.8252
▁சமா	-10.8253
கடல்	-10.8257
▁கணிதத்தில்	-10.8258
▁பெயரும்	-10.8258
▁உருளை	-10.8261
▁டிரி	-10.8271
▁சிதைவ	-10.8275
கழ	-10.8275
▁இலக்குகளை	-10.8275
▁காசு	-10.8275
▁திருப்பி	-10.8276
▁எஃப்	-10.8279
நைட்ர	-10.8281
▁தயாரிக்கும்	-10.8282
ரத்தினம்	-10.8283
▁வைகுண்ட	-10.8284
=370	-10.8286
▁நியம	-10.8288
="370	-10.829
கிர	-10.829
ந்துறை	-10.8294
=371	-10.8294
▁மேலான	-10.8295
சீன	-10.8296
▁உபகரண	-10.8296
▁எவ்வித	-10.8296
க்கருவி	-10.83
▁கடன	-10.8301
▁மலையின்	-10.8302
▁ஆகியோருடன்	-10.8312
307	-10.8315
▁http	-10.8317
ற்றா	-10.8319
▁ஆற்றில்	-10.832
▁இயற்கையாக	-10.832
▁ஏனென்றால்	-10.8323
▁கர்தினால்	-10.8323
▁சனிக்கிழமை	-10.8323
▁அவ்வப்போது	-10.8323
▁திரௌபதியம்மன்	-10.8324
▁கோபி	-10.8327
286	-10.8331
▁பார்க்கும்	-10.8332
▁கிராமப்புற	-10.8332
▁இரவில்	-10.8335
▁போத	-10.8336
த்தாலும்	-10.8341
களஞ்சிய	-10.8344
150	-10.8345
▁மூடப்பட்ட	-10.8345
ஜியா	-10.8346
▁ஆத்திரேலியா	-10.8346
▁பிரிவுகளாக	-10.8346
▁துரு	-10.8349
▁ஏற்	-10.8349
▁பிற்கால	-10.8354
றிவு	-10.8354
த்துக்காக	-10.8356
▁ஆரம்பித்தார்	-10.8356
ூரி	-10.8356
▁செறிவ	-10.8357
▁படப்பிடிப்பு	-10.8362
த்திறன	-10.8363
▁9,	-10.8363
▁ஹொ	-10.8364
▁பிரான்சின்	-10.8365
▁காது	-10.8366
195	-10.8367
▁தரும	-10.8368
▁பிரச்சார	-10.8369
▁போகும்	-10.837
ரீதியான	-10.8372
▁கட்சியில்	-10.8373
▁ராயல்	-10.8373
▁கேரளா	-10.8375
ன்பட்டி	-10.8376
="371	-10.8376
▁துருக்கிய	-10.8376
▁நகர்த்த	-10.838
▁பிணைப்ப	-10.8385
ஜான்	-10.8387
▁கோயில	-10.8388
வோர்	-10.8388
▁தேன்	-10.8389
▁(3	-10.8389
▁வாலி	-10.839
▁உருவாக்கம்	-10.8391
our	-10.8391
ரைட்	-10.8393
▁கோயில்களில்	-10.8393
ஹே	-10.8397
▁தாமஸ்	-10.8397
ுவோர்	-10.8399
▁இசையமைப்பாளர்	-10.8413
▁56	-10.8414
த்தொகுதி	-10.8415
▁Co	-10.8415
▁சகா	-10.8416
▁விரிகுடா	-10.842
▁ஜம்மு	-10.842
▁காண்பிக்க	-10.8422
▁பிரேசில்	-10.8422
ப்பதற்கான	-10.8428
▁காட்	-10.8429
டெர்	-10.8429
▁ஆரம்பகால	-10.8429
▁உன்	-10.843
ுரை	-10.843
▁இசையமைத்த	-10.8431
▁ஏற்படலாம்	-10.8435
▁Li	-10.844
▁கிண்ண	-10.844
மண்டப	-10.8441
▁எகிப்திய	-10.8443
▁கறுப்பு	-10.8445
▁வாசிக்க	-10.8445
▁தாங்கள்	-10.8445
▁திசு	-10.8447
▁ஆக்சி	-10.8448
▁கருதப்பட்டது	-10.8449
▁வய	-10.8453
▁செயல்பாடுகள்	-10.8453
▁பிரான்ஸ்	-10.8453
ஹீ	-10.8454
பான	-10.8454
▁ஆயர்	-10.8456
▁வெற்றிபெற்ற	-10.8456
ோரின்	-10.8456
▁ஊட்டச்சத்து	-10.8462
▁வல்லுநர்	-10.8462
▁துர்க்கை	-10.8464
▁குழுவை	-10.8469
▁இந்திர	-10.847
▁தாண்டவ	-10.8472
▁பற்ற	-10.8474
யிலை	-10.8474
ory	-10.8478
ப்பர	-10.8478
▁அகர	-10.848
▁பருவம்	-10.8481
310	-10.8482
▁வெண்மை	-10.8486
▁உணவுப்	-10.8489
ாததால்	-10.8491
▁படைப்புகள்	-10.8493
▁உற்பத்தியில்	-10.8496
கர்கள்	-10.8496
▁பரவலான	-10.8496
354	-10.8497
யோன்	-10.8498
▁சூடான	-10.8501
▁கௌதம	-10.8501
கோன்	-10.8502
▁கதையை	-10.8502
புளோரோ	-10.8502
பட்டது	-10.8506
ங்கில்	-10.8509
243	-10.851
317	-10.851
▁ஆட்சிப்	-10.8513
ae	-10.8515
சுற்று	-10.8517
ரம	-10.8517
ுறை	-10.8517
பாத	-10.8521
▁1931	-10.8522
▁கொம்பு	-10.8522
435	-10.8524
▁நியாய	-10.8525
▁இந்நிறுவனம்	-10.8525
▁சிர	-10.8526
▁இருந்தே	-10.8529
க்ளி	-10.8531
ஞ்ச்	-10.8531
ராயர்	-10.8532
▁மலைகள்	-10.8532
▁பல்லவ	-10.8533
▁மாணிக்க	-10.8533
119	-10.8533
▁ஆதரித்த	-10.8533
261	-10.8533
▁வட்டி	-10.8534
330	-10.8539
▁பாரிய	-10.854
▁சாம்	-10.8541
▁63	-10.8544
சோழ	-10.8544
▁ஏதாவது	-10.8546
▁66	-10.8548
ப்படாமல்	-10.855
த்திற்குள்	-10.8551
▁சுட்டி	-10.8557
▁வலு	-10.8557
முகம்	-10.8557
▁சமிக்ஞை	-10.856
▁நுண்ணுயிர்	-10.856
▁நடுவ	-10.8561
▁விட்டார்	-10.8563
▁துறைமுகம்	-10.8563
ேடு	-10.8566
▁சேர்மங்கள	-10.8568
("	-10.8568
Man	-10.857
▁அல்லாமல்	-10.8571
▁பெரும	-10.8572
▁விளையாடும்	-10.8573
▁தங்களுக்கு	-10.8575
நீல	-10.8575
▁pro	-10.8577
▁ஆழமான	-10.8577
▁சம்பந்த	-10.8578
▁கதிர்வீச்சு	-10.8578
164	-10.858
▁is	-10.8581
▁நிறுவனங்களில்	-10.8582
▁செல்சியசு	-10.8588
▁பலவீன	-10.8588
137	-10.8589
▁அப்பகுதி	-10.8589
ug	-10.8592
▁ஆண்டிலிருந்து	-10.8593
ியதால்	-10.8594
ட்டீ	-10.8595
குள	-10.8596
▁வேற்றுமை	-10.86
▁ஆதரவாக	-10.86
▁பான்	-10.8601
287	-10.8604
யிலிருந்த	-10.8605
▁விண்ணப்ப	-10.8611
▁புதுமை	-10.8613
und	-10.8615
▁குற்றவாளி	-10.8616
மிங்	-10.8621
▁நிறுவி	-10.8626
▁இறைவி	-10.8627
▁கொள்கையை	-10.863
▁நடராஜ	-10.8631
▁குறைந்தபட்ச	-10.8632
▁வகித்தார்	-10.8634
▁ஊதா	-10.8635
▁நீக்கி	-10.8638
மேற்	-10.864
eg	-10.8642
▁அனுப்பப்பட்ட	-10.8642
▁போட்டு	-10.8643
▁கிருஷ்ணா	-10.8643
▁கிராமங்கள்	-10.8643
▁கிடை	-10.8643
▁கணிசமான	-10.8645
▁சட்டசபை	-10.8648
ba	-10.8654
▁சங்கர்	-10.8654
▁மாய	-10.8656
▁மாறிலி	-10.8659
224	-10.8659
சென்னை	-10.8661
384	-10.8663
ஸ்திர	-10.8665
▁ஸ்காட்	-10.8666
▁ட்ர	-10.8666
▁கண்டது	-10.8668
▁அழைப்பு	-10.8671
▁கவனத்தை	-10.8675
▁வீசி	-10.8675
▁ஹொங்கொங்	-10.8675
▁கொடுமை	-10.8677
430	-10.8678
▁மறைந்து	-10.8682
▁திரைப்படத்	-10.8685
னியர்	-10.8685
த்துவம்	-10.8686
▁சாப்பிட	-10.8687
▁காற்பந்து	-10.8687
▁இங்கிருந்து	-10.8688
ுபவர	-10.8688
▁ஜன	-10.869
▁இணையாக	-10.8693
▁மலையாளம்	-10.8697
▁பாண்ட	-10.8697
▁விண்	-10.8702
▁பிரான்சிஸ்	-10.8702
▁அடித்த	-10.8702
ாயி	-10.8705
ண்டெ	-10.8705
த்தின்போது	-10.8706
che	-10.8709
800	-10.8711
▁அபிவிருத்தி	-10.8716
▁அற்புத	-10.8716
பிளா	-10.8717
ியலாளர்	-10.8717
▁கஜ	-10.8718
▁தீவிரமாக	-10.872
னிஸ்	-10.8721
ரம்ப	-10.8721
▁கோயிலுக்கு	-10.8723
▁தாவரம்	-10.8725
▁பயன்பட்ட	-10.8726
▁இருந்துள்ளார்	-10.8727
ுயிர்	-10.873
▁வளைவு	-10.873
▁அகராதி	-10.8731
▁மூடி	-10.8734
▁தாய்லாந்து	-10.8736
▁பின்னால்	-10.874
151	-10.8741
▁புனை	-10.8741
▁சூட்ட	-10.8742
170	-10.8743
▁ரஷ்ய	-10.8744
▁இப்பறவை	-10.8745
வேத	-10.8745
▁சிறி	-10.8745
▁ஒன்	-10.8747
ச்சார்	-10.8752
▁இரகசிய	-10.8752
▁படைப்ப	-10.8753
▁வேற	-10.8754
182	-10.8757
▁அதிகப்படியான	-10.8759
க்கர	-10.8759
▁குமர	-10.8763
▁முடியாமல்	-10.8765
▁பாகு	-10.8767
Re	-10.8767
ிலிருந்தே	-10.8769
மரம்	-10.8771
புராண	-10.8772
னிலை	-10.8773
▁விழுந்த	-10.8773
▁மாண்ட	-10.8774
225	-10.8774
Ka	-10.8775
▁நமக்கு	-10.8776
ிலிருக்கும்	-10.8777
▁ஊற்ற	-10.8777
▁இழந்து	-10.878
சித்திர	-10.8782
▁மலாய்	-10.8782
பேறு	-10.8782
ea	-10.8782
வாகவும்	-10.8782
▁அனைவர	-10.8782
▁கனக	-10.8784
▁ஜோடி	-10.8786
கருதப்படுகின்றது	-10.8786
▁வளர்ச்சியை	-10.8786
றுப்பு	-10.879
ச்சிய	-10.879
ப்பதி	-10.8792
போர்டு	-10.8795
மேல	-10.8798
ிருக்கின்றது	-10.8804
டைகிறது	-10.8804
மல்ல	-10.8807
▁43	-10.8808
▁ஏற்படுத்திய	-10.881
கோட்ட	-10.8811
▁முயல்	-10.8811
ின்போது	-10.8812
uth	-10.8813
▁ஈரப்பத	-10.8813
ுறு	-10.8814
▁வழிநடத்த	-10.8814
▁ஈய	-10.8817
▁மலாக்கா	-10.8817
▁ஹீ	-10.8818
▁மென்பொருள	-10.8819
ப்படுவதற்கு	-10.8821
யுற்ற	-10.8822
▁எதிர்த்த	-10.8822
▁வருமானம்	-10.8823
▁பதக்கம்	-10.8823
▁பதிப்பகம்	-10.8823
▁துண்ட	-10.8823
▁ஏற்றி	-10.8824
▁ஒருவரான	-10.8825
405	-10.8825
▁Br	-10.8828
ஆன்	-10.8828
▁அகவையில்	-10.883
ree	-10.883
▁வினையூக்கி	-10.8831
▁வடிவத்தை	-10.8831
▁Me	-10.8832
▁விளங்குகின்றது	-10.8833
▁குன்று	-10.8836
கொண்டிருக்கின்றன	-10.8837
ம்பர	-10.884
ில்லாமல்	-10.8841
▁போதை	-10.8841
வார்ட்	-10.8842
▁வாக்குகள்	-10.8842
art	-10.8846
▁மேய்	-10.8847
we	-10.8848
திசை	-10.885
தாகத்	-10.8851
▁ஆட்டோ	-10.8853
▁செந்	-10.8854
டெல்	-10.8856
▁பொதுப்	-10.8857
▁ஓரிட	-10.8859
▁விஜயநகர	-10.886
▁ரஷ்யா	-10.8862
▁சுமை	-10.8864
க்கட்டி	-10.8864
231	-10.8864
நல	-10.8866
▁விக்	-10.8868
டன	-10.8868
267	-10.887
▁வாங்கிய	-10.8874
▁பற்றாக்குறை	-10.8874
▁ஆறாவது	-10.8875
▁அதுவே	-10.8879
▁குழந்தைகளின்	-10.888
▁முகம்	-10.8881
▁15,	-10.8882
▁13,	-10.8884
▁சத்து	-10.8885
▁சாம்ப	-10.8886
ுலக	-10.8886
▁கணக்கெடுப்பு	-10.8889
▁திகழ்கிறது	-10.8889
▁எல்லோர	-10.8892
ுமாவார்	-10.8897
▁அழைக்கின்றனர்	-10.8901
▁கரைசல்	-10.8902
ight	-10.8904
▁சின்னம்	-10.8907
ேஸ்வரி	-10.8908
▁ஐந்த	-10.8909
▁வெளிவரும்	-10.8912
மாதிரி	-10.8914
▁பகா	-10.8916
▁சொல்லை	-10.8918
ப்பாய்	-10.8919
▁கார்ப	-10.8919
▁பணியாற்றியவர்	-10.892
ங்களி	-10.8921
316	-10.8921
▁குரங்கு	-10.8921
▁அழகான	-10.8928
▁தாது	-10.8928
ிருப்பதை	-10.8929
▁அசுர	-10.8929
be	-10.8929
டியூ	-10.893
▁Ba	-10.893
▁மேளகர்த்தா	-10.8933
▁ரிச்சர்ட்	-10.8933
▁அலைவரிசை	-10.8935
ain	-10.8937
▁சித்தி	-10.8944
யார	-10.8944
மையும்	-10.8945
▁கொண்டாட்ட	-10.8947
▁அழிவு	-10.8947
▁இயற்கணித	-10.8947
▁பரிமாற	-10.8949
பிரான்	-10.8949
▁தேக்க	-10.895
▁செய்யுள்	-10.8951
▁மகனான	-10.8951
▁உள்நாட்டுப்	-10.8952
▁ஊதிய	-10.8953
war	-10.8955
ron	-10.8957
▁முறைகளில்	-10.8961
390	-10.8966
▁கப்பல	-10.8968
▁சான்றிதழ்	-10.8968
ப்பாளர்	-10.8968
▁%)	-10.8969
▁உலகளவில்	-10.8969
▁26,	-10.8969
▁இந்தியாவை	-10.897
▁பொருளில்	-10.8972
▁குடிமக்கள்	-10.8975
ern	-10.8975
▁அநேக	-10.8979
]],	-10.8979
கார்ட்	-10.8981
நியூ	-10.8981
▁ஆதாரங்கள்	-10.8982
▁ஆபிரிக்க	-10.8989
▁வழக்கறிஞர்	-10.8992
▁பாரா	-10.8993
▁ஆண்களும்	-10.8993
ங்களாகவும்	-10.8993
முடியாத	-10.8997
▁சுருள்	-10.8998
do	-10.9
யின்போது	-10.9001
▁கண்டறியப்பட்டது	-10.9002
▁போராட	-10.9003
▁மேட்டு	-10.9003
▁உரிமையாளர்	-10.9004
▁நிர	-10.9005
▁உணவக	-10.9005
▁அதிலிருந்து	-10.9006
▁முந்திய	-10.9007
▁மையமாகக்	-10.9008
ரிசு	-10.9016
ப்படுகிற	-10.902
▁கொலம்பியா	-10.9021
▁பெற்றோர	-10.9021
▁மொழிபெயர்க்க	-10.9021
▁சொல்லும்	-10.9022
▁விருத்தி	-10.9023
▁மதுரா	-10.9024
களையே	-10.9024
▁தலைவரான	-10.9025
▁பக்த	-10.9026
ந்தான்	-10.9027
▁இவ்வூரில்	-10.9032
த்திற்குத்	-10.9036
▁போதனை	-10.9037
▁அடியில்	-10.9037
▁நாட	-10.9038
ரோடு	-10.9039
Pa	-10.9042
113	-10.9045
▁நூலாக	-10.9046
சேரி	-10.9047
▁மரணம்	-10.9049
176	-10.905
▁சாளுக்கிய	-10.905
▁மறுமலர்ச்சி	-10.905
▁கரிய	-10.9051
▁சேகரிக்க	-10.9051
sc	-10.9051
131	-10.9052
▁சுருங்க	-10.9052
▁கொள்கைகளை	-10.9053
▁அதன்படி	-10.9055
ப்பால்	-10.9055
▁பிரை	-10.9056
க்கேற்ப	-10.9057
▁இணைக்கிறது	-10.9058
157	-10.906
மட்டத்திலிருந்து	-10.9061
▁திரைப்படமான	-10.9065
▁பேரில்	-10.9067
செய்து	-10.9069
வந்தார்	-10.907
▁வெடிப்பு	-10.9071
311	-10.9078
▁பிணைய	-10.9081
▁பெண்ணை	-10.9081
▁வளர்ச்சியடைந்த	-10.9087
ப்பழ	-10.9087
▁செய்யப்பட்டன	-10.9089
▁எண்ணிக்கையை	-10.9093
ிருக்கின்றனர்	-10.9094
▁அப்பொழுது	-10.9096
▁என்பவற்றை	-10.9098
▁ஒவ்வொன்றும்	-10.9102
▁தானியங்கி	-10.9103
▁மாந்த	-10.9104
▁பேராசிரியராக	-10.9105
ச்செயல	-10.9105
▁ஃபார்	-10.9107
▁திருத்தல	-10.911
▁என்பதோடு	-10.9112
▁எதிர்ப்ப	-10.9112
கண்ண	-10.9113
▁உண்ணும்	-10.9114
▁ஆராய்ச்சியாளர்	-10.9116
▁கிறிஸ்து	-10.9117
238	-10.9122
ood	-10.9122
397	-10.9123
▁மைக்ரோசாப்ட்	-10.9124
சித்த	-10.9126
403	-10.9126
▁விரும்பிய	-10.9127
அவர்	-10.9127
▁சபையின்	-10.9128
▁பாத்திரத்தில்	-10.9131
▁வளாகத்தில்	-10.9133
▁250	-10.9134
▁கிழக்க	-10.9136
▁காப்பிய	-10.9138
த்திணை	-10.914
▁சுற்றுப்பயண	-10.914
▁தெளிவு	-10.9141
▁இச்சேர்ம	-10.9144
▁பாம்ப	-10.9145
▁பெர	-10.9148
ிக்கொள்ள	-10.915
▁உரி	-10.9152
▁ஷோ	-10.9153
▁விக்டோரியா	-10.9154
306	-10.9156
IS	-10.9156
▁பாக்கித்தான	-10.9157
▁தினமும்	-10.9158
▁நிலப்பரப்பு	-10.9158
சினி	-10.9159
ஃபை	-10.9161
▁120	-10.9161
▁தோன்றினார்	-10.9163
▁தொகைக்	-10.9166
காடு	-10.9166
▁அமைப்பாகும்	-10.9169
குறியீட்ட	-10.917
▁விடுத்த	-10.9171
▁சிட்டி	-10.9171
▁கனவு	-10.9172
▁நான்க	-10.9172
த்துக்குப்	-10.9174
▁இக்காலத்தில்	-10.9174
▁விரல்	-10.9175
▁உபயோக	-10.9176
▁கிரீன்	-10.9178
வியலாளர்	-10.9179
▁தேற்ற	-10.9182
▁பொழுதுபோக்கு	-10.9184
▁உருவம்	-10.9187
பொது	-10.9189
வர்களும்	-10.9189
▁நகர்வு	-10.9192
▁கருத்துக்கள்	-10.9192
tu	-10.9196
பரப்ப	-10.9196
ாரின்	-10.9197
குமாரி	-10.9198
293	-10.92
chi	-10.9202
▁600	-10.9206
▁எடுத்துக்கொண்ட	-10.9206
▁இயக்கியுள்ளார்	-10.921
▁உணர்ந்து	-10.9211
▁1900	-10.9214
▁வினைபுரிந்து	-10.9214
யாக்கி	-10.9217
காளி	-10.9218
▁திட்டமிட	-10.922
▁உண்டாகும்	-10.9221
ica	-10.9222
▁குளிர்கால	-10.9225
▁குஞ்சு	-10.9226
மோன்	-10.9226
▁விவரித்த	-10.9228
தொடர்	-10.9228
நாட்டின்	-10.9229
▁விக்ரம	-10.923
க்கலாம்	-10.9234
ov	-10.9235
லோன்	-10.9235
யப்ப	-10.9238
▁வேல	-10.9239
ப்பட்டதாக	-10.924
▁கார்ல்	-10.924
294	-10.9245
யாக்கம்	-10.9245
ீட	-10.9245
▁டைம்ஸ்	-10.9247
▁பொருள்களை	-10.9247
▁1932	-10.9249
▁அறிவுரை	-10.9256
▁வாகை	-10.9257
dia	-10.9257
வேலு	-10.9258
▁நய	-10.9259
▁வியட்நாம்	-10.9259
▁செய	-10.926
▁மகாராட்டிர	-10.926
▁கூறியது	-10.9261
▁பயன்படுத்துவது	-10.9264
264	-10.9264
▁இறைய	-10.927
▁தனித்து	-10.927
▁நகரமாக	-10.9272
▁நூற்	-10.9273
▁இடத்தையும்	-10.9273
▁பிரான்சிசு	-10.9274
▁கத்தி	-10.9275
செட்டி	-10.9277
152	-10.9279
யாங்	-10.9282
பிள	-10.9282
▁மொத்தமாக	-10.9283
ில்லாத	-10.9284
▁இப்பிரிவு	-10.9284
வாட்	-10.9285
ஆல்	-10.9287
▁முறையும்	-10.9288
▁ஐதராக்சைடு	-10.9289
▁டெட்ரா	-10.9292
▁ஸ	-10.9294
ப்படுவத	-10.9297
398	-10.9298
▁காளை	-10.93
▁குறைவ	-10.93
hu	-10.93
▁துவங்கியது	-10.9303
▁அழித்த	-10.9305
▁கோட	-10.9307
▁எதிர்மின்	-10.9309
▁ஆதாரமாக	-10.9311
▁நாடாளுமன்றம்	-10.9312
▁உந்து	-10.9321
▁சென்றனர்	-10.9321
▁எடுக்கும்	-10.9322
▁ஆப்பிள்	-10.9322
▁வெளியேறி	-10.9322
▁தற்காலிக	-10.9323
மளிக்க	-10.9324
▁குடும்பத்தின்	-10.9325
▁எண்ணை	-10.9326
▁தெரியும்	-10.9327
பூரில்	-10.9331
முனி	-10.9332
▁ஜனாதிபதி	-10.9335
செயல்	-10.9336
▁இலி	-10.9337
ல்லர்	-10.9338
▁காட்சிகள்	-10.934
▁நினைக்க	-10.934
வெர்	-10.934
▁நிரலாக்க	-10.9341
▁என்பவன்	-10.9344
▁திரும்பினார்	-10.9344
▁சட்டங்கள்	-10.9347
கலன்	-10.9348
மடைய	-10.9353
ரசி	-10.9354
uk	-10.9356
▁அமர்	-10.9357
▁வெளிப்பாடு	-10.9357
▁அளிக்கிறது	-10.9359
hy	-10.936
▁புதுப்பிக்க	-10.9365
▁மேம்பாடு	-10.9366
ari	-10.9367
▁கரைசல	-10.9369
ங்காடு	-10.937
382	-10.937
மாண்ட	-10.937
▁திருவா	-10.937
lan	-10.9371
▁(17	-10.9372
ளூ	-10.9374
cl	-10.9374
▁பெயரிடப்பட்டது	-10.9374
▁1924	-10.9375
▁அவனுக்கு	-10.9376
▁சீதை	-10.9376
▁மயக்க	-10.9376
▁ஷே	-10.9378
▁விரிவுபடுத்த	-10.9379
▁பஞ்சா	-10.938
▁ஏழாம்	-10.9381
▁முடுக்க	-10.9381
▁உயிரிழந்த	-10.9381
ப்போர்	-10.9384
▁உடன	-10.9385
▁தங்கியிருந்த	-10.9389
▁வித்யா	-10.9391
▁நடப்ப	-10.9394
▁வயதான	-10.9395
▁பிண	-10.9398
▁கட்டுரைகளை	-10.9401
ance	-10.9401
422	-10.9402
▁கிழமை	-10.9403
கண்	-10.9403
▁இப்படத்தின்	-10.9408
▁ஒருவரை	-10.9409
▁கூறுகள்	-10.9411
▁பூர்த்தி	-10.9414
▁ஆகியோர	-10.9415
▁நிறமாலை	-10.9416
▁ஆரம்பித்து	-10.9416
ஜிய	-10.9417
▁மௌ	-10.9418
வியர்	-10.9419
வைத்து	-10.9424
ுபவை	-10.9427
▁இறகு	-10.9427
▁படும்	-10.9427
bo	-10.943
▁தெரிவிக்கின்றன	-10.9432
விடுகின்றன	-10.9433
Co	-10.9433
▁தமிழ்க்	-10.9434
ப்பதை	-10.9434
▁இழைய	-10.9435
ளும்	-10.9438
பஞ்ச	-10.944
159	-10.9441
ப்பொருட்கள்	-10.9441
▁கம்யூனிஸ்ட்	-10.9442
▁சித்தாந்த	-10.9442
▁பக்தர்	-10.9443
▁கிறித்துவ	-10.9443
▁முதலமைச்சர்	-10.9444
118	-10.9445
▁விளக்கும்	-10.9446
▁விதிகள்	-10.9448
▁பிரிவினர	-10.9448
▁பொறுப்பை	-10.9449
கோர்	-10.945
▁போனது	-10.945
▁நெஞ்ச	-10.9454
298	-10.9456
மென	-10.9457
தொகுதியிலிருந்து	-10.9457
ப்பட்டால்	-10.9457
▁விளைவிக்க	-10.9457
▁சமாதி	-10.9457
▁சேர்ப்ப	-10.9458
315	-10.9461
ராவின்	-10.9464
▁இறங்கி	-10.9465
ளிப்பு	-10.9466
ாசிரியர	-10.9466
▁கடி	-10.9468
ளாக	-10.9469
▁செயற்	-10.9471
ுற	-10.9473
▁சிவராத்திரி	-10.9473
ிறோம்	-10.9473
429	-10.9482
க்கடை	-10.9483
▁பேரரசை	-10.9484
▁மீதி	-10.9486
▁அறநிலைய	-10.9488
▁அறிவுறுத்த	-10.949
▁சிறுநீர்	-10.949
▁புளோரைடு	-10.949
▁நற்	-10.9492
▁இடம்பெறும்	-10.9493
▁சால்	-10.9498
நாட்	-10.95
324	-10.95
pl	-10.9504
▁மின்னோட்ட	-10.9505
▁செய்கின்றனர்	-10.9506
காசி	-10.9507
▁புலம்	-10.9509
▁முன்வைத்த	-10.951
▁வோ	-10.9511
திகார	-10.9511
▁சிக்கல	-10.9511
▁முதல்வர்	-10.9512
▁தாவரவியல்	-10.9515
பாறை	-10.9521
▁வேகத்தில்	-10.9522
▁மைக்ரோ	-10.9525
▁கூறப்படும்	-10.9526
▁ஒதுக்கப்பட்ட	-10.9526
▁நண்பர	-10.9527
▁திட்டங்களை	-10.9528
அக	-10.9529
▁இந்நூலில்	-10.953
▁காரணிகள்	-10.953
யிற்	-10.9531
Te	-10.9532
ுவதைக்	-10.9535
▁படைத்துறை	-10.9536
தாரி	-10.9537
ice	-10.9537
▁செலுத்தும்	-10.9539
▁ஜீவ	-10.954
▁நாடி	-10.9541
▁துருக்கி	-10.9541
▁22,	-10.9542
▁பாங்க	-10.9544
ாடு	-10.9544
▁அதற்குப்	-10.9546
▁பாக்டீரியா	-10.9546
ச்சொற்கள	-10.9547
▁நொடி	-10.9548
▁23,	-10.9551
னைல்	-10.9552
▁19,	-10.9552
239	-10.9552
▁குறைவாகவே	-10.9557
ick	-10.9559
வயல்	-10.9561
NO	-10.9561
▁ஆழ்ந்த	-10.9565
407	-10.9565
மலர்	-10.9566
▁பிரித்தெடுக்க	-10.9566
▁ஆலோ	-10.9567
ரெட்டி	-10.9568
▁வருடங்கள்	-10.9568
▁மலேசியாவின்	-10.9573
343	-10.9574
சொல்	-10.9574
சிற்றிதழ்	-10.9575
ஜென்	-10.9576
331	-10.958
▁ஊக்குவிக்க	-10.9581
▁st	-10.9583
▁வித்தியாச	-10.9585
▁1933	-10.9587
▁சொற்களை	-10.9589
▁தொகுப்பில்	-10.959
▁வகுக்க	-10.9591
▁பூச்சிய	-10.9593
▁மூடிய	-10.9598
▁கோதுமை	-10.9598
▁சதவிகித	-10.9601
▁பயன்படுத்தினார்	-10.9602
கரா	-10.9606
நாதசுவாமி	-10.9606
▁நேர்ந்த	-10.9606
கேட்	-10.9609
ிட்டு	-10.9611
John	-10.9613
▁எச்சரிக்கை	-10.9613
▁நடத்தப்பட்டது	-10.9613
▁41	-10.9616
வழக்க	-10.9618
சாய்	-10.9618
யடைய	-10.962
▁அலைகள்	-10.9621
▁தொழிலை	-10.9623
ங்கின்	-10.9623
▁மீத	-10.9623
▁இக்குழு	-10.9626
▁வயதிலேயே	-10.9629
▁இறுக்க	-10.9631
Di	-10.9631
த்தோற்ற	-10.9631
386	-10.9631
322	-10.9633
▁நுகர்வோர்	-10.9634
▁உதவிய	-10.9635
தூர	-10.9635
▁கோவிலின்	-10.964
▁மூக்கு	-10.9642
▁பெரியார்	-10.9642
▁பெல்ஜிய	-10.9645
னியன்	-10.9645
ட்லி	-10.9646
▁உருவாக்கப்படும்	-10.9646
346	-10.9647
இதன்	-10.9647
▁பயன்படுத்திக்	-10.9647
ராய்டு	-10.9647
ிருப்பதால்	-10.9648
▁நிகழ்கிறது	-10.9648
▁விளிம்பு	-10.965
▁தொழிலாளர்கள்	-10.9653
▁கர்ப்ப	-10.9655
▁பொறியாளர்	-10.9659
▁போன்றோர்	-10.9659
வாடா	-10.9659
ராகப்	-10.966
▁தனிமங்கள்	-10.966
▁கமல	-10.9661
▁பயன்படுகின்றது	-10.9662
▁தீர்ப்பு	-10.9664
▁இரத்தின	-10.9665
▁ஏமாற்ற	-10.9667
ங்களுக்காக	-10.9668
▁வகுப்ப	-10.9669
Ne	-10.9669
▁கனடிய	-10.967
▁இயற்கையான	-10.967
புறம்	-10.9673
தாச	-10.9675
▁விவகார	-10.9676
▁கொடிய	-10.9676
▁தேங்காய்	-10.9676
▁தங்கை	-10.9678
விடுகிறது	-10.9678
▁விசாக	-10.9684
▁சாப	-10.9685
▁மிதமான	-10.9685
▁வரையும்	-10.9686
St	-10.9687
பெர்க்	-10.9688
பெட்	-10.9689
ென்	-10.969
▁மட்டுமன்றி	-10.9691
ச்சொல்ல	-10.9691
▁நிகழ்ந்தது	-10.9692
▁கண்ணி	-10.9692
▁எழுதப்பட்டது	-10.9693
ினதும்	-10.9694
ட்டெ	-10.9698
mal	-10.9699
▁துரித	-10.9701
▁பாதிக்கப்பட	-10.9704
▁அமெரிக்கப்	-10.9706
▁அன்றாட	-10.9707
▁கவர்ந்த	-10.9708
▁பெருந்த	-10.9709
▁பெண்மணி	-10.9709
வித்து	-10.971
▁சிவலிங்க	-10.9712
▁ஈர்க்க	-10.9715
▁முக்கோணத்தின்	-10.9716
▁தம	-10.9717
ரீன்	-10.9718
▁பர்மா	-10.9719
▁உலகக்கோப்பை	-10.9723
லைட்	-10.9723
▁மறைமாவட்ட	-10.9723
▁அசாம்	-10.9726
கொண்டான்	-10.9729
▁உலா	-10.9732
▁இம்மலை	-10.9734
Mo	-10.9736
▁பொதுநலவாய	-10.9739
▁இலண்டன்	-10.9739
▁சாட்சி	-10.974
▁வெளிச்ச	-10.9741
▁நுழைவு	-10.9745
-4	-10.9748
▁21,	-10.9748
த்தீவு	-10.9749
▁கிலோமீட்டர்கள்	-10.9749
▁பயில	-10.9749
▁முழுதும்	-10.975
லாந்தில்	-10.9751
பாஸ்	-10.9753
▁தங்களுடைய	-10.9754
ஸன்	-10.9755
▁முதலியார்	-10.9757
▁அம்சங்களை	-10.9759
▁நிகழ்வுகளை	-10.976
▁நல்	-10.976
ஃபர்	-10.9761
244	-10.9761
▁தொடங்குகிறது	-10.9762
388	-10.9763
▁தத்துவம்	-10.9764
▁பாடல்களில்	-10.9764
▁வெடித்த	-10.9765
▁வருவ	-10.9768
▁எக்சு	-10.9769
நடு	-10.9769
▁Sh	-10.9771
▁வாக்காளர்	-10.9771
▁தேர்தல	-10.9774
▁பொங்கல்	-10.9775
▁ஊடுருவ	-10.9776
▁குடியரசின்	-10.9777
347	-10.9778
▁கூடியதே	-10.9779
▁Pro	-10.9782
▁மில்லியன	-10.9783
▁ப்ர	-10.9784
விட்டால்	-10.9784
▁அனந்த	-10.9785
▁காவல	-10.9793
▁மகேந்திர	-10.9795
ங	-10.9795
▁1919	-10.9797
▁மைக்	-10.9798
342	-10.9799
▁எசுப்பானியா	-10.9803
▁சந்திப்ப	-10.9804
▁நிகழ்ச்சிகளை	-10.9804
▁இன்றியமையாத	-10.9806
are	-10.981
▁அம்பு	-10.9812
▁கட்	-10.9813
▁பிரசுர	-10.9813
▁28,	-10.9813
▁கோட்பாட்ட	-10.9814
▁பண்ண	-10.9814
மாகி	-10.9814
▁உருது	-10.9817
▁பிரீமியர்	-10.9818
▁ஆழ்வார்	-10.9819
▁அருட்	-10.982
த்திலே	-10.9823
▁1928	-10.9823
▁அமைந்திருந்தது	-10.9824
▁ராமசாமி	-10.9825
▁சமயத்தை	-10.9826
▁மீன	-10.9827
az	-10.9831
▁உள்ளடங்க	-10.9831
▁கூறுவது	-10.9831
▁கிர்	-10.9834
▁சங்கீத	-10.9835
▁மாநிலங்கள்	-10.9838
▁அவருடன்	-10.9839
▁வைத்திருப்ப	-10.984
தவ	-10.9844
tor	-10.9846
▁முன்னேற்றம்	-10.9848
ாசிரியராக	-10.985
▁சிறிதளவு	-10.985
▁பரிணாம	-10.985
▁பன	-10.985
▁ஒருவகை	-10.9852
ஷ்டி	-10.9852
▁மன்னார்	-10.9852
▁சிகர	-10.9853
Se	-10.9854
▁அசோ	-10.9854
IP	-10.9856
▁வைக்கும்	-10.9857
▁கள்ள	-10.9857
▁தொல்காப்பியம்	-10.9857
பன	-10.9859
▁இனப்பெருக்கம்	-10.986
▁பவள	-10.9861
▁சகோதரர்கள்	-10.9862
▁பூக்கள்	-10.9862
களிலுள்ள	-10.9865
▁ஹாரி	-10.9865
▁வேண்டுகோள	-10.9866
▁நுழைவாயில	-10.9868
▁மதிப்பீட்டின்	-10.9868
▁வாழ்கின்றன	-10.9868
156	-10.9869
▁நுண்ணுயிரி	-10.9869
▁ஊரின்	-10.9869
யென	-10.987
▁கிடைக்கவில்லை	-10.9871
▁ஜொ	-10.9872
▁ஜோதி	-10.9872
▁புறா	-10.9873
393	-10.9873
▁பல்லவர்	-10.9875
▁Se	-10.9878
கொள்வதற்கு	-10.988
▁தமக்கு	-10.9881
டபிள்யூ	-10.9882
பாடல்	-10.9882
▁மக்களாட்சி	-10.9883
▁கூட்டத்தில்	-10.9884
▁திருமால்	-10.9885
▁விளைபொருள	-10.9885
▁இலட்சம்	-10.9888
மாதேவி	-10.9892
ப்போட்டி	-10.9894
▁பிரிவின்	-10.9894
▁தேவைகளை	-10.9896
▁கூலி	-10.9896
▁அழகி	-10.9897
▁புறம்	-10.9898
▁வேளைகளில்	-10.9899
▁54	-10.9899
AF	-10.99
▁திணை	-10.9901
237	-10.9903
▁இட்ட	-10.9904
▁நடத்தும்	-10.9906
தாகவே	-10.9908
▁பரிமாண	-10.9908
▁புற்றுநோய	-10.9908
ook	-10.9909
▁கருத்துக்	-10.991
▁இறைவனை	-10.9912
த்திற	-10.9912
▁தயார்	-10.9916
▁மாபெரும்	-10.9921
கெல்	-10.9923
▁வழிபாட்ட	-10.9924
னாவின்	-10.9926
▁செலவில்	-10.9927
▁மிருக	-10.9929
▁இலக்கியங்கள்	-10.993
▁திருகோணமலை	-10.993
▁முக்கியப்	-10.9933
▁ஆரோக்கிய	-10.9933
▁கொள்கைகள்	-10.9934
325	-10.9936
▁1921	-10.9936
406	-10.9939
▁Al	-10.994
▁வேளை	-10.994
▁எனப்படுகின்றன	-10.9941
▁அறியப்பட்டது	-10.9941
▁திருப்பதி	-10.9942
▁அப்போ	-10.9943
▁சதி	-10.9944
வேதி	-10.9945
▁பிலிப்பைன்	-10.9947
ev	-10.995
ிட்ட	-10.9952
▁பிரித்தானியா	-10.9954
254	-10.9954
▁சேர்ந்தவர்கள்	-10.9954
▁அள்ளி	-10.9954
▁சக்கரத்தின்	-10.9955
▁வெல்	-10.9956
▁நகரும்	-10.9957
▁சேவ	-10.9957
▁முயற்சியில்	-10.9958
=375	-10.9959
வனின்	-10.996
▁பெருமான	-10.9963
த்தாக்குதல	-10.9965
▁ஆசியாவில்	-10.9966
▁இசைக்கருவி	-10.9967
▁வருகின்றார்	-10.9967
▁போராட்டத்தில்	-10.9971
என்ற	-10.9974
▁மாதங்களுக்கு	-10.9974
▁அறியலாம்	-10.9975
▁விவசாயி	-10.9975
▁அறிவை	-10.9976
பனை	-10.9977
▁உழ	-10.9978
▁நேர்மின்	-10.9978
ology	-10.9979
ொழி	-10.9979
▁இதழின்	-10.9979
▁பாண்டவர்	-10.9979
▁கர்நாடகா	-10.9981
தேவன்	-10.9982
ாண்டில்	-10.9983
▁கட்டமைப்பை	-10.9984
▁உள்ளதாக	-10.9987
▁பகுதிகளைக்	-10.9989
▁வினையில்	-10.9991
Me	-10.9992
மின்ன	-10.9992
▁மாரி	-10.9994
▁வானியலாளர்	-10.9995
▁சமீபத்திய	-10.9996
▁குடியரச	-10.9996
=333	-10.9997
▁இக்கோவில்	-10.9997
▁பொறுத்தவரை	-10.9998
தொகுப்ப	-11
▁உதாரண	-11.0003
▁வெற்றிட	-11.0003
▁உம்	-11.0003
ாயினும்	-11.0006
ava	-11.0006
▁பாசன	-11.0008
▁ஆட்டத்தில்	-11.0009
▁சப்பானிய	-11.0012
▁செருமானிய	-11.0012
▁கள்ளக்குறிச்சி	-11.0012
த்தில	-11.0012
▁கணிதம்	-11.0014
%25	-11.0015
▁இயந்திரம்	-11.0015
▁காற்றில்	-11.0015
▁டெஸ்	-11.0015
ous	-11.0016
akk	-11.0017
▁கைதி	-11.0018
▁திமுக	-11.0019
▁நிர்வாகத்	-11.0022
யாகிய	-11.0023
▁டெர்	-11.0024
▁யாரும்	-11.0026
▁சந்தன	-11.0027
ack	-11.0027
163	-11.0028
▁ஏகாதசி	-11.0028
▁வான்படை	-11.0029
ng	-11.0032
▁வழிகாட்டி	-11.0034
▁வடிவங்களில்	-11.0034
▁வருகின்ற	-11.0035
▁அவி	-11.004
க்கொண்டிருந்த	-11.004
ya	-11.004
▁காரணமாகும்	-11.0042
▁வெளிப்படையாக	-11.0044
▁இணைந்தார்	-11.0046
les	-11.0046
Na	-11.0046
227	-11.0046
▁யூனியன்	-11.0047
▁மறுக்க	-11.0047
▁உள்ளதால்	-11.0048
▁ஆகியவற்றுக்கு	-11.005
▁பெயரிட்ட	-11.005
▁ஆலி	-11.005
▁மார்க்க	-11.0051
த்தாள்	-11.0051
423	-11.0053
▁காலனி	-11.0055
▁அமர்த்த	-11.0057
▁மாடி	-11.0058
▁ஆவ	-11.0059
▁இதன்படி	-11.0059
▁காலப்போக்கில்	-11.006
4)	-11.0061
▁அக்கா	-11.0063
▁கங்க	-11.0065
▁வணங்கி	-11.0066
▁கவர்	-11.0067
▁2-	-11.0068
▁பரவியது	-11.0069
▁கேட்	-11.007
ral	-11.007
▁ஓவர்	-11.0071
▁தாள்	-11.0074
nal	-11.0075
▁இளவரசர்	-11.0077
▁பூஞ்சை	-11.0077
▁குறைய	-11.0077
ஞ்சேரி	-11.0078
="375	-11.008
▁ஓடும்	-11.0082
▁உறுதியாக	-11.0083
▁இருக்கும்போது	-11.0086
▁மைல்கள்	-11.0086
ட்ரான்	-11.0089
=355	-11.009
புத்தூர்	-11.009
▁அச்சிட	-11.0091
▁எலிசபெத்	-11.0093
நூல	-11.0094
யிருக்கும்	-11.0096
361	-11.0098
ear	-11.0099
தன்மை	-11.01
▁செயல்பாட்டு	-11.0101
▁குரல	-11.0104
▁நாட்டிய	-11.0105
▁முதுகலை	-11.0106
218	-11.0107
சியன்	-11.0107
ock	-11.0108
▁சுட்டு	-11.0109
=366	-11.0111
▁பாய்ம	-11.0113
▁பயிர	-11.0114
ith	-11.0114
▁குருவி	-11.0117
=374	-11.0119
▁செய்முறை	-11.0121
▁கணவர்	-11.0124
▁திபெத்	-11.0125
கோபால	-11.0125
▁எண்ணற்ற	-11.0129
▁செய்தவர்	-11.013
▁முனிவர	-11.0132
▁நெதர்லாந்து	-11.0132
ாளரான	-11.0135
▁போற்றி	-11.0138
ung	-11.014
▁ஒருவரின்	-11.0142
ுணர்ச்சி	-11.0142
▁முதுகெலும்ப	-11.0143
▁பத்தாம்	-11.0143
▁சான்ற	-11.0143
▁கண்டறிந்தார்	-11.0146
▁முகலாய	-11.0148
▁பட்டியலிட	-11.0148
295	-11.0149
▁ஈட்ட	-11.0152
-6	-11.0153
146	-11.0157
amp	-11.0157
▁வான்காணக	-11.0159
▁மட்டுமின்றி	-11.0159
▁வேறொரு	-11.016
▁தென்காசி	-11.0162
▁மூன்றில்	-11.0162
▁வாரிசு	-11.0162
▁அண்ணாமலை	-11.0163
மதிப்பு	-11.0163
▁மனிதனின்	-11.0163
212	-11.0166
ப்பரப்ப	-11.0168
▁கெய்	-11.0169
▁தினம்	-11.0169
▁வால	-11.017
▁நடைமுறைப்படுத்த	-11.017
▁என்னை	-11.0171
▁நிறமற்ற	-11.0171
su	-11.0173
▁நெகிழி	-11.0176
▁மும்பையில்	-11.0176
▁தந்தையார்	-11.0176
பார்க்க	-11.0177
▁அணிகள்	-11.018
▁சுவாமிகள்	-11.0182
குளோரோ	-11.0183
415	-11.0184
▁பான	-11.0187
▁விளக்குகிறது	-11.0189
▁இளவரசி	-11.0192
▁இசைத்	-11.0192
▁மாவட்டங்கள்	-11.0194
▁இந்நிலையில்	-11.0196
▁இதுவாகும்	-11.0196
▁நடைபெறுகின்றன	-11.0196
De	-11.0196
▁நகர்ப்புற	-11.0199
▁சம்பந்தப்பட்ட	-11.02
▁இலக்கியத்தில்	-11.02
=350	-11.0206
▁பெருங்கடல	-11.0208
▁கருவிகளை	-11.0208
▁தினசரி	-11.021
▁தேர்ந்தெடுத்த	-11.021
▁புத்தகங்கள்	-11.021
thi	-11.0213
▁ஆகியவற்றுடன்	-11.0213
▁மரபியல்	-11.0213
="374	-11.0213
▁பதவியை	-11.0214
▁செய்யவும்	-11.0217
▁அமிலங்கள்	-11.0219
▁பேரி	-11.022
▁வயல்	-11.022
▁சமூகத்தில்	-11.0223
▁அவசிய	-11.0224
▁உரிமையை	-11.0225
▁வகிக்கிறது	-11.0225
▁மகரந்த	-11.0225
ோல்	-11.0226
▁நாடகங்கள்	-11.0227
▁இடம்பெற்றது	-11.0227
▁நுண்ண	-11.0228
▁29,	-11.0231
▁அவைகள்	-11.0233
▁தோன்றுகிறது	-11.0234
=364	-11.0234
வெடி	-11.0236
▁புனைவு	-11.0236
▁பாதுகாப்பான	-11.0236
மொன்ற	-11.0237
▁இதழ்களில்	-11.0237
ஸெ	-11.0238
▁கரடி	-11.0238
="355	-11.0238
▁தள்ளி	-11.0239
▁இறக்குமதி	-11.0242
வரே	-11.0242
▁ஒழி	-11.0244
▁ஹால்	-11.0246
AN	-11.0246
▁கவச	-11.0247
ச்சந்திரன்	-11.0248
oph	-11.0248
ியற்	-11.0248
▁உருசியா	-11.0248
களானது	-11.025
gen	-11.0252
செய்யப்படுகின்றன	-11.0253
லென்	-11.0256
ரௌ	-11.0259
▁கூட்டி	-11.0259
="366	-11.0262
▁நீளமும்	-11.0264
கின்றார்	-11.0264
▁(0.	-11.0264
309	-11.0265
ஃபீ	-11.0265
ham	-11.0266
▁அருகாமையில்	-11.0267
லிலும்	-11.0272
="364	-11.0272
▁பின்னரே	-11.0274
சுகி	-11.0274
▁செயல்பாடுகளை	-11.0275
▁ஈடுபடுத்த	-11.0275
▁என்னுமிடத்தில்	-11.0275
▁உருமாற்ற	-11.0276
▁மட்டுமல்லாமல்	-11.0276
▁அதைப்	-11.0277
சுந்தர	-11.0277
▁அதேவேளை	-11.0278
174	-11.0278
▁1926	-11.028
த்தேன்	-11.0281
▁உறுதியான	-11.0282
டோர்	-11.0283
▁அண்ண	-11.0284
ாவதி	-11.0286
ich	-11.0286
▁இசுலாமியர்	-11.0286
205	-11.0288
▁கீர	-11.0289
ஆனால்	-11.0289
▁விவேக	-11.0291
▁மெக்சிக்கோ	-11.0292
▁மருத்துவப்	-11.0293
▁செய்வதற்காக	-11.0295
▁பூக்கும்	-11.0295
▁இத்திரு	-11.0295
▁இணையதள	-11.0296
▁மூலக்கூற	-11.0296
▁ஆகியோரால்	-11.0298
▁டவுன்	-11.0303
▁முதுகு	-11.0303
சிறப்ப	-11.0306
▁கொள்வது	-11.0306
▁இக்கட்ட	-11.0308
▁படையினர	-11.0309
▁con	-11.0312
▁Ra	-11.0312
▁அடையாளப்படுத்த	-11.0313
▁உமா	-11.0315
காலி	-11.0316
▁இருப்பத	-11.0317
▁நிர்வாகி	-11.0317
▁தேவைப்படுகிறது	-11.0319
▁இருப்பார்	-11.0319
▁சாந்தி	-11.0319
▁காலத்துக்கு	-11.032
="350	-11.0323
▁கலைஞர்கள்	-11.0323
▁வேண்டுமென	-11.0324
▁இவா்	-11.0324
▁மகாத்மா	-11.0326
ூரை	-11.0327
▁அங்கமாக	-11.0329
▁எடி	-11.0329
▁வாசித்த	-11.033
▁முற்ற	-11.0331
ரெஸ்	-11.0333
▁வயதுக்கு	-11.0334
▁அன்றி	-11.0336
ிறக்க	-11.0338
▁கம்பனி	-11.034
▁காரிய	-11.0341
▁பீரங்கி	-11.0342
▁சமையல்	-11.0342
National	-11.0343
▁கட்சியை	-11.0343
169	-11.0345
▁குன்ன	-11.0345
▁இதனைத்	-11.0346
▁ஜோன்	-11.0346
▁சோதிட	-11.0346
AP	-11.0347
▁அழைக்கப்படுகிறா	-11.035
▁வெளிநாடு	-11.0353
ச்சோ	-11.0359
▁தரையில்	-11.0361
▁நூற்றாண்டுகளில்	-11.0362
▁கவர்ச்சி	-11.0363
▁ஓவியர்	-11.0364
345	-11.0368
▁கண்டார்	-11.0369
▁பூச்சிகள்	-11.0369
▁பிடிப்ப	-11.0369
▁இருக்காது	-11.037
▁அம்சங்கள்	-11.0372
▁எபிரேய	-11.0376
mer	-11.0377
ஸ்டின்	-11.038
▁குழாய	-11.038
▁இச்சொல்	-11.038
▁பட்டியலிடப்பட்ட	-11.0384
▁லட்ச	-11.0384
sis	-11.0386
டைமை	-11.0386
▁பிராமண	-11.0387
▁பாதுகாக்கப்பட்ட	-11.0389
க்கெ	-11.039
த்தொழில்	-11.0392
▁வைட்டமின்	-11.0393
▁சிலப்பதிகார	-11.0393
▁லூயி	-11.0393
▁பரப்பளவைக்	-11.0394
▁நாட்டைச்	-11.0396
▁உலகத்	-11.0397
▁காடுகளில்	-11.0399
▁தொட்ட	-11.0399
ric	-11.0399
▁டிஸ்	-11.04
▁அரேபிய	-11.0406
▁ஐதர	-11.041
▁சட்டத்தை	-11.041
▁பெங்களூர்	-11.041
▁72	-11.0413
319	-11.0414
▁அகதி	-11.0414
▁கல்லூரிகள்	-11.0415
▁டய	-11.0417
க்கொண்டே	-11.0417
=373	-11.0417
யாகவோ	-11.0417
▁நீதிமன்றத்தில்	-11.0418
ஸோ	-11.0419
▁இருக்கிற	-11.042
Ko	-11.0421
▁இந்நிலை	-11.0422
▁நிக்கல்	-11.0423
▁இலக்கணம்	-11.0424
▁செய்கின்ற	-11.0426
▁பிரகடன	-11.0427
▁சற்றே	-11.0427
▁எனக்கு	-11.0427
▁ஆண்டிற்கு	-11.0428
▁மதிப்பெண்	-11.0428
▁தொழிலில்	-11.0429
▁பிராட்	-11.0429
▁தழுவிய	-11.0429
▁முதலீட்டாளர்	-11.0429
▁சுக	-11.0431
▁அடிப்படையான	-11.0432
▁மயில	-11.0433
=360	-11.0434
▁கைவிடப்பட்ட	-11.0434
▁பௌ	-11.0437
குறிச்சி	-11.0437
▁மேற்படி	-11.0439
மண்ட்	-11.0439
▁பயன்படுத்தினர்	-11.0442
▁தொகுத்த	-11.0445
357	-11.0445
ப்பதன்	-11.0447
▁கூறப்பட்ட	-11.0448
ib	-11.045
▁வரையப்பட்ட	-11.0452
ானா	-11.0452
பீன்	-11.0455
▁சொல்லப்படுகிறது	-11.0456
▁சேவையை	-11.0457
▁அதன்பின்	-11.0457
கடவுள	-11.046
▁முழுவதிலும்	-11.0461
266	-11.0461
▁இருபதாம	-11.0463
▁ஒன்றே	-11.0464
▁தலைப்ப	-11.0466
▁நலன்	-11.0467
ram	-11.0468
▁முடிவுகளை	-11.0469
பயன்	-11.047
டெட்	-11.047
2000	-11.047
189	-11.0471
▁இயல்பாக	-11.0473
▁பாராட்டி	-11.0475
▁சுண்ணாம்பு	-11.0478
▁மசூதி	-11.0478
255	-11.0479
▁வாயில	-11.0481
யியலில்	-11.0483
▁அவசியமாக	-11.0483
NH	-11.0484
="360	-11.0484
▁பரோ	-11.0484
▁நடத்தப்படும்	-11.0485
▁ஆதரவை	-11.0488
="373	-11.0489
▁இங்குக்	-11.049
▁மீட்க	-11.0491
▁கருத்துரு	-11.0492
▁அனைவருக்கும்	-11.0496
கல்ல	-11.0496
▁ஆளும்	-11.0496
▁அதனுடைய	-11.0496
கூறு	-11.0498
▁பள்ளிவாசல்	-11.0499
▁இதழாகும்	-11.05
▁குறிப்பிட்டார்	-11.0501
போதே	-11.0502
நட	-11.0504
▁கோயிலை	-11.0505
▁பேட்	-11.0511
▁புழு	-11.0513
▁கழுத்து	-11.0514
ப்படும்போது	-11.0515
gar	-11.0517
▁உலகக்	-11.0519
▁1925	-11.052
▁சக்தியை	-11.0522
▁குடும்பங்கள்	-11.0522
=363	-11.0524
▁பாடினார்	-11.0525
▁விலங்குகளின்	-11.0528
▁சிரியா	-11.0529
அடி	-11.053
▁சார்ந்தது	-11.0532
▁வாரியம்	-11.0533
ரத்தின	-11.0536
ett	-11.0538
▁ரோஜா	-11.0539
▁காட்டுகின்றன	-11.0544
▁பெரிதாக	-11.0545
▁up	-11.0545
▁கல்லீரல்	-11.0546
▁எட்டாம்	-11.0547
▁தொழிற்துறை	-11.0547
387	-11.0548
fer	-11.0548
▁பராமரிப்பு	-11.0552
பிடிக்க	-11.0553
▁உமிழ்	-11.0555
▁படங்களை	-11.0556
▁தகடு	-11.0556
▁சாந்த	-11.0557
▁இயற்ற	-11.0557
▁ஒவ்வொன்ற	-11.0557
வற்	-11.056
▁கனடாவில்	-11.0561
▁உருவாக்குகின்றன	-11.0562
▁சிக்கல்கள்	-11.0563
▁படையெடுப்ப	-11.0563
▁நச்சுத்தன்மை	-11.0564
யிலோ	-11.0566
▁கொல்	-11.0567
▁மீட்டர்கள்	-11.0567
▁உயர்நிலை	-11.0569
▁பங்காற்ற	-11.0576
▁பிரிய	-11.058
ப்பயண	-11.0581
பொழுத	-11.0582
▁நிலா	-11.0584
ட்டிற்கு	-11.0585
களாவன	-11.0587
பாதி	-11.059
▁சவ்வ	-11.0593
நூற்ற	-11.0596
▁தீவுகளில்	-11.0597
▁குடியேறிய	-11.0597
▁மல்	-11.0597
▁நிரூபிக்க	-11.0598
▁அதிர்ச்சி	-11.0598
▁கைலாசநாதர்	-11.0598
படியாக	-11.0599
விலங்க	-11.0599
▁இணையான	-11.06
▁வணக்க	-11.0601
ச்சூர்	-11.0601
புதிய	-11.0602
ிணைப்பு	-11.0603
▁வாசகர்	-11.0605
▁கொண்டவையாக	-11.0607
▁தொடர்ந்தார்	-11.0608
ுவான்	-11.061
ாமலும்	-11.0611
▁வீச்சு	-11.0613
▁மெய்யெண்	-11.0616
▁திபெத்திய	-11.0616
▁பெங்களூரு	-11.0617
▁மொழிபெயர்த்த	-11.0617
பட்ச	-11.062
392	-11.062
▁விருத்த	-11.0621
▁படல	-11.0623
▁செல்வாக்க	-11.0624
▁ஹார்ட்	-11.0626
ண்மை	-11.0626
▁கன்ன	-11.0629
▁ஒழுங்குபடுத்த	-11.063
▁ஒடிசா	-11.0633
▁அடங்குவர்	-11.0634
இட	-11.0636
▁தமிழ்நாட்டு	-11.0637
▁ஸ்ரீதேவி	-11.0637
▁தேய்	-11.0637
▁திருமால	-11.0639
▁திசையன்	-11.0641
▁ஆளுநராக	-11.0642
▁தொழில்நுட்பக்	-11.0643
="363	-11.0645
▁இருத்தல்	-11.0647
ுங்கள்	-11.0647
சாரா	-11.0647
▁துவங்கிய	-11.0648
▁நுண்ணிய	-11.065
▁வீரராக	-11.0651
ft	-11.0652
▁சொல்லுக்கு	-11.0652
her	-11.0653
▁ஓட்டு	-11.0654
ென்ற	-11.0656
ஃப்ட்	-11.0657
▁எங்கும்	-11.0663
▁உத்தம	-11.0666
gu	-11.0667
▁நிலத்தை	-11.0669
▁செவ்வாய்	-11.0669
பசு	-11.0671
143	-11.0672
▁மேலை	-11.0672
ுயிரி	-11.0672
▁பூமியில்	-11.0673
▁அளிக்கப்பட்ட	-11.0675
▁அகன்ற	-11.0675
lam	-11.0678
▁தோட்டம்	-11.0679
▁தொடரை	-11.068
மில்லாத	-11.068
▁சிதம்பர	-11.0681
▁La	-11.0682
256	-11.0682
▁பகுதியிலும்	-11.0684
▁கண்காணிப்ப	-11.0685
▁அட்லாண்டிக்	-11.0685
▁சஞ்சிகை	-11.0685
▁வில்லி	-11.0685
2008	-11.0686
▁இப்பொழுது	-11.0687
▁போர்ட்	-11.0687
ாலான	-11.0688
▁கன்னடம்	-11.0688
க்காலத்தில்	-11.0689
▁நிரல	-11.069
த்தினுள்	-11.0692
▁செப	-11.0692
▁58	-11.0692
கிறார்கள்	-11.0692
▁தோற்கடித்த	-11.0694
▁காங்கிரச	-11.0694
வாதிகள்	-11.0696
▁காவலர்	-11.0696
சக்கர	-11.0696
▁கொண்டதாகும்	-11.0699
▁கல்கத்தா	-11.0702
▁பயணிக்க	-11.0703
▁கோளாறு	-11.0704
▁கூத்த	-11.0705
▁வெற்றிகரமான	-11.0705
226	-11.0705
208	-11.0705
▁பாரம்பரியக்	-11.0706
▁தாக்கிய	-11.0707
▁பகுதிகளும்	-11.0708
▁உந்த	-11.0709
▁நீக்கப்பட்ட	-11.0712
▁வார்டு	-11.0712
முழு	-11.0713
▁வழிகளில்	-11.0714
▁தார்	-11.0715
▁பரந்து	-11.0717
மைந்த	-11.0717
திற்கு	-11.0718
▁முனையில்	-11.072
▁நேர்த்தி	-11.0721
▁யுனி	-11.0724
▁ரயில்வே	-11.0725
▁கோடைக்கால	-11.0725
காட்டு	-11.0726
▁அதிகாரத்தை	-11.0727
▁குவிய	-11.0731
▁பச்ச	-11.0732
▁கோலா	-11.0732
▁2011-	-11.0732
▁ஒப்பிடுகையில்	-11.0737
▁கலாசார	-11.0738
▁அரண்	-11.074
வெற்றி	-11.074
ங்கல	-11.0742
▁ஊர்கள்	-11.0744
▁பிரசாத்	-11.0747
=372	-11.0748
ிறாள்	-11.0749
கொள்கிறது	-11.0751
▁தோன்றின	-11.0752
▁கண்காணிக்க	-11.0754
▁தணிக்கை	-11.0754
வேலை	-11.0758
▁தரப்பட்ட	-11.0759
ொன்றில்	-11.0759
▁ஒய்	-11.0763
▁கூறப்பட்டுள்ளது	-11.0764
▁),	-11.0766
▁அளித்தது	-11.0767
காட்சி	-11.0769
▁எக்ஸ்பிரஸ்	-11.0772
▁350	-11.0773
▁சந்திரசேகர	-11.0773
▁பழங்கள்	-11.0775
▁உயர்வு	-11.0776
▁சத்திர	-11.0777
▁ஜெர்மனியின்	-11.0778
▁1912	-11.0779
விதி	-11.078
▁கழ	-11.0784
நாயகம்	-11.0785
▁சேர்த்துக்	-11.0786
▁பிரிவை	-11.0786
385	-11.0787
▁முன்வைக்க	-11.0787
ங்கூர்	-11.0788
▁அதிரடி	-11.079
▁இவர்களது	-11.079
▁மாயா	-11.079
▁கேரளத்தின்	-11.0791
▁துணைத்	-11.0791
▁பாலா	-11.0792
▁அடிகள்	-11.0792
▁பூட்ட	-11.0793
▁அரசர்கள்	-11.0793
க்கார்	-11.0794
▁வினா	-11.0794
ளவை	-11.0796
433	-11.0803
பிறழ்	-11.0803
புரா	-11.0804
▁ஆதரவாளர்	-11.0806
253	-11.0807
▁(4	-11.0808
▁இந்துக்கள்	-11.0809
▁அக்கறை	-11.081
173	-11.081
▁பகுத்த	-11.0811
குரோ	-11.0814
▁யுக	-11.0816
▁நிறுவனமாக	-11.0817
▁காட்சிப்படுத்த	-11.0818
▁மேலதிக	-11.0818
ச்சர	-11.0819
▁மேற்பரப்பில்	-11.0819
my	-11.082
ஜெர்	-11.0821
▁செயல்படுகின்றன	-11.0825
▁எப்போது	-11.0825
▁நூலாகும்	-11.0826
ஷே	-11.0827
▁கோட்	-11.0827
="372	-11.0828
ப்பூச்சி	-11.083
▁வலம்	-11.0832
▁ஆகியவற்றால்	-11.0834
▁அரசாங்கத்தின்	-11.0834
▁இணக்க	-11.0834
அரச	-11.0835
▁வழிவகுத்தது	-11.0839
▁பண்டிகை	-11.0843
▁பள்ளிகளில்	-11.0843
த்தையே	-11.0843
ure	-11.0846
▁கலைஞர	-11.0848
▁ஓம்	-11.0848
▁சமகால	-11.0849
▁மீறி	-11.0849
▁சான்றாக	-11.0849
மேற்கு	-11.0849
▁அப்படியே	-11.0851
▁அம்ப	-11.0851
▁தகவலை	-11.0852
▁வருமாறு	-11.0855
எதிர்	-11.0857
▁ஒருங்கிணைக்க	-11.0859
▁ஆப்கானிஸ்தான	-11.086
▁நன்கொடை	-11.086
▁கடவு	-11.0862
▁US	-11.0865
▁நெருக்கமாக	-11.0868
▁பெறுவதற்கு	-11.0869
▁கிருமி	-11.087
▁பாட்டு	-11.087
2011	-11.0872
▁ஊரை	-11.0873
▁காரணமான	-11.0873
▁சுப்ரமணிய	-11.0874
▁மகாதேவ	-11.0877
▁நோயை	-11.0877
▁கருணாநிதி	-11.0878
▁தரமான	-11.0879
▁கூற்றுப்படி	-11.088
ப்பொருட்கள	-11.088
▁போரை	-11.088
▁ஆற்காடு	-11.0881
ோரை	-11.0882
▁பலவகை	-11.0884
▁இஸ்லாம்	-11.0884
▁தொடர்பை	-11.0885
391	-11.0886
▁வளர்த்து	-11.0887
▁கடற்கரையில்	-11.0887
தொகு	-11.0887
▁குழுமம்	-11.0887
2010	-11.0889
▁அழைத்துச்	-11.0895
▁எழுத்தாளரும்	-11.0895
▁மற்றொன்று	-11.0895
▁பேதுரு	-11.0896
val	-11.0896
▁நெருங்க	-11.0897
313	-11.0898
ank	-11.0899
▁சமாதான	-11.09
▁தியோ	-11.09
▁துல்லியமான	-11.0902
ரவி	-11.0903
▁மாச	-11.0903
▁புயல்	-11.0905
▁குறிப்பிடலாம்	-11.0905
ினூடாக	-11.0905
▁ஈழத்து	-11.0906
=376	-11.0909
▁கூற்ற	-11.0909
▁காலத்திலேயே	-11.091
▁சிறந்து	-11.0912
▁கவிஞர	-11.0912
▁மென்மையான	-11.0914
பீர்	-11.0914
▁சுழல	-11.0915
▁விசுவநாத	-11.0919
▁அரசியல	-11.0921
▁தீப	-11.0922
சுடன்	-11.0924
▁Ca	-11.0927
மேட்டு	-11.0928
▁நாயுடு	-11.0931
▁ரீதியில்	-11.0931
▁மாறுபாடு	-11.0933
▁தயாராக	-11.0933
குளுக்கோ	-11.0933
328	-11.0935
og	-11.0935
▁1923	-11.0937
▁இத்தொகுதி	-11.0939
▁தழுவ	-11.094
▁ஆகியவையும்	-11.0943
▁தேவா	-11.0943
El	-11.0946
▁உண்ப	-11.0947
▁முல்லை	-11.0947
சியே	-11.0948
Am	-11.0948
▁விரும்பும்	-11.0948
▁தட்ட	-11.095
▁உவமை	-11.0951
▁புதினம்	-11.0954
379	-11.0955
IN	-11.0956
▁இன்னமும்	-11.0959
ோடி	-11.096
209	-11.096
▁விக்கிரம	-11.0961
265	-11.0961
▁மகனாக	-11.0961
229	-11.0962
▁ஆவணி	-11.0965
▁துத்தநாக	-11.0967
▁மிகச்சிறந்த	-11.0967
▁நகை	-11.0968
▁இறக்கும்	-11.0969
▁பாகவத	-11.097
கிழக்கு	-11.097
▁தீங்கு	-11.0972
▁செப்பு	-11.0972
▁அடர்	-11.0973
▁எவர	-11.0973
▁அம்பல	-11.0977
▁தகவல	-11.098
▁உதவுகின்றன	-11.0983
▁துடுப்ப	-11.0983
yn	-11.0988
▁கணிப்பு	-11.0988
▁சாதனையை	-11.0988
▁கடினமாக	-11.099
▁படு	-11.099
▁நாளாக	-11.0993
▁இங்கிலாந்த	-11.0994
326	-11.0994
▁சுல்தானக	-11.0994
நைட்ரோ	-11.0996
▁வேப்ப	-11.0997
▁உறுப்புக்	-11.0997
றுத்த	-11.1
▁எண்ணிம	-11.1001
குண	-11.1002
ப்போல	-11.1002
▁நகரமும்	-11.1002
சூர	-11.1003
▁இயற்கையில்	-11.1003
ox	-11.1004
▁கல்வெட்ட	-11.1006
▁(5	-11.1007
கார்பன்	-11.1007
=359	-11.1008
▁செல்கின்றன	-11.1009
332	-11.101
▁அவ்விட	-11.1012
▁மொழியியல்	-11.1014
="376	-11.1015
▁முன்னேற	-11.1015
▁விளங்கி	-11.1018
▁கபில	-11.1018
▁களி	-11.102
Par	-11.1021
▁வரம்ப	-11.1021
வாணி	-11.1021
▁களிமண்	-11.1021
▁ஓலை	-11.1022
ிருக்கவில்லை	-11.1023
▁அரியானா	-11.1023
▁செட்டியார்	-11.1023
▁பலமுறை	-11.1025
▁வாகனம்	-11.1026
▁காடி	-11.1028
▁எதிர்மின்னி	-11.1029
▁உறுப்புகள்	-11.103
மழை	-11.1031
▁இத்தீவு	-11.1032
ீசு	-11.1033
▁சீரான	-11.1034
கௌ	-11.1034
269	-11.1034
▁அதிகமாகும்	-11.1036
முதல	-11.1037
▁சூரியக்	-11.1042
▁உதவியாக	-11.1051
யூட்டி	-11.1052
▁கட்டற்ற	-11.1052
▁ஒலிபரப்பு	-11.1054
▁சாத்த	-11.1054
▁புரிந்துகொள்ள	-11.1059
சட்ட	-11.1061
ிலோ	-11.1063
▁பவானி	-11.1063
▁அதேபோல	-11.1064
▁விழாக்	-11.1066
▁நினைத்து	-11.1071
ஃபே	-11.1073
▁முசுலிம்	-11.1075
▁வறண்ட	-11.1075
▁எடுத்துக்காட்ட	-11.1076
▁ஜெர்மானியப்	-11.1078
▁தொகுக்க	-11.1079
ச்செல்ல	-11.108
▁செய்தியை	-11.1083
297	-11.1086
யிலி	-11.1087
▁நிமிடங்கள்	-11.1088
▁சல்பைடு	-11.109
▁போட்டியாளர்	-11.1093
ுவதுடன்	-11.1093
▁அண்ணன்	-11.1099
க்கூர்	-11.1101
▁இத்தலம்	-11.1103
▁1910	-11.1104
418	-11.1107
pro	-11.1111
▁முஸ்லீம்	-11.1111
மாட	-11.1113
டஸ்	-11.1114
▁அடர்ந்த	-11.1114
▁தோறும்	-11.1115
லாந்தின்	-11.1116
▁தந்தி	-11.1117
▁நீக்கம்	-11.1117
AD	-11.1118
▁நகரியம்	-11.1119
203	-11.1119
▁திருக்குறள்	-11.112
mar	-11.1121
க்காட்ட	-11.1121
▁இராணுவம்	-11.1122
▁காலப்பகுதி	-11.1122
லாந்த	-11.1122
▁...	-11.1123
▁ஹோட்டல்	-11.1123
▁அமைச்சரவை	-11.1125
▁வேறுபடுத்தி	-11.1127
ரேட்டு	-11.1128
tes	-11.1128
▁சாம்பியன்	-11.1129
▁சரஸ்வதி	-11.1129
▁தானுந்து	-11.1129
▁பஞ்சாயத்து	-11.113
▁வேதாந்த	-11.1131
▁புத்தகத்தில்	-11.1132
▁ஊழல்	-11.1132
▁இதுபோன்ற	-11.1133
திரைப்பட	-11.1135
▁கரோ	-11.1136
▁எழுதும்	-11.1138
வீச்சு	-11.1138
▁Con	-11.114
▁எரு	-11.1141
ஸ்டோ	-11.1142
▁கென்	-11.1142
log	-11.1143
▁இசையை	-11.1144
ாவிலிருந்து	-11.1145
▁உரையாடல்	-11.1145
சுல்தான	-11.1146
▁வேட்பாளர்	-11.1146
▁இந்நோய்	-11.1147
▁குடியுரிமை	-11.1148
▁பொதுவுடைமை	-11.1148
பவன்	-11.1148
▁இருக்கின்ற	-11.1151
ஹர்	-11.1153
ினும்	-11.1153
ஜ்ஜ	-11.1156
▁கிராமத்தின்	-11.1157
சூரிய	-11.1159
▁காரணங்கள்	-11.116
ST	-11.116
▁வரலாற்றுப்	-11.116
▁ஆகியோரை	-11.1161
Mar	-11.1162
▁இசுலாம்	-11.1162
▁சாட்ட	-11.1163
▁பாபு	-11.1164
="359	-11.1171
▁மனதில்	-11.1172
▁செதுக்க	-11.1173
▁இருப்பதில்லை	-11.1173
ப்ளா	-11.1176
▁குணப்படுத்த	-11.1177
▁புல்ல	-11.1178
ரியர்	-11.1179
துளை	-11.1179
தேசம்	-11.1181
▁நறுமண	-11.1184
▁நிலத்தடி	-11.1185
ோட்டம்	-11.1189
▁பாராட்டு	-11.119
ஜன்னிய	-11.1193
IC	-11.1196
வையாகவும்	-11.1197
▁அதிகாரியாக	-11.1197
▁முதலீட்டு	-11.1198
Ti	-11.12
▁வரைந்த	-11.1202
▁செயலாற்ற	-11.1203
▁சேமித்து	-11.1203
▁சதுப்பு	-11.1203
▁1927	-11.1203
▁முன்னோடியாக	-11.1204
▁புல்வெளி	-11.1204
▁படைப்பிரிவு	-11.1206
▁இவ்வு	-11.1207
=125	-11.121
▁ஆத	-11.1211
▁குறிஞ்சி	-11.1211
▁வகையாக	-11.1212
:1	-11.1212
ுவதோடு	-11.1214
சிங்கம்	-11.1215
▁ஆசி	-11.1218
பற்றி	-11.1218
▁மூலக்கூறுகள்	-11.1218
மியம்	-11.122
▁தீவிரவாத	-11.122
வாரா	-11.1221
▁குற்றச்சாட்டு	-11.1223
▁ஆல்பம்	-11.1223
▁ஒளியின்	-11.1224
▁இலகு	-11.1225
ஹவுஸ்	-11.1225
▁1922	-11.1227
▁விளையாட்டரங்க	-11.1227
▁இனத்தவர்	-11.1229
▁அமிர்த	-11.1229
▁முடிச்சு	-11.123
▁தாக்குதலை	-11.1231
▁போட்டியின்	-11.1231
▁மெகா	-11.1231
▁பெறவில்லை	-11.1237
ாடை	-11.1239
▁பொதுவுடமை	-11.1239
▁ஊர்தி	-11.124
யளவு	-11.1242
▁காஸ்	-11.1242
▁அகமது	-11.1243
▁விவரம்	-11.1243
▁பட்டய	-11.1244
▁நாயகி	-11.1245
▁தந்து	-11.1246
▁கட்சியைச்	-11.1247
▁பொருந்தும்	-11.1248
ஸ்ஸ	-11.1248
ரைன்	-11.1251
▁பன்முக	-11.1253
▁விஷயங்கள	-11.1253
▁நிர்ணயிக்க	-11.1254
▁108	-11.1256
▁வழங்குகின்றன	-11.1256
▁57	-11.1258
▁வளர்சிதை	-11.1258
▁மங்கல	-11.1258
▁பகதூர்	-11.1258
▁நல்லூர்	-11.1258
▁வீட்டிற்கு	-11.1259
கீர்	-11.1261
351	-11.1261
▁தொண்டு	-11.1262
▁அந்தமான்	-11.1262
▁படிவ	-11.1263
▁ஆண்டுகளுக்குப்	-11.1271
முரண்	-11.1272
▁குழுவினர்	-11.1274
ளவிலான	-11.1274
▁மூழ்க	-11.1275
▁அயர்லாந்து	-11.1276
ஞா	-11.1278
125	-11.128
▁ஆற்றிய	-11.128
▁ஒருவருக்கு	-11.128
oll	-11.128
▁நீரிணை	-11.1284
▁அதிகளவில்	-11.1285
ொட்ட	-11.1287
▁புளூ	-11.1288
கட்சி	-11.1288
=124	-11.1289
▁பாளைய	-11.129
▁வல்லுனர்	-11.1295
▁போன்றவற்றின்	-11.1296
ிருப்பு	-11.1296
257	-11.1298
▁ஸ்பெயின	-11.1299
சைட்டு	-11.13
▁பட்டியல	-11.13
ருடைய	-11.13
▁குறியீடுகள்	-11.1303
▁நெட்வொர்க்	-11.1306
▁நுனி	-11.1307
ராவார்	-11.1307
▁அழைக்கப்பட்டார்	-11.1307
▁சால	-11.1307
▁பொருளாகும்	-11.1308
land	-11.1309
▁பதப்படுத்த	-11.1309
417	-11.131
▁ஊருக்கு	-11.131
▁கூறுகளை	-11.1311
▁வாசனை	-11.1311
▁மாற்றியமைக்க	-11.1313
adi	-11.1314
▁மதுரையில்	-11.1314
ப்பட்டினம்	-11.1315
▁திரைப்படங்களை	-11.1317
ட்டல்	-11.1318
▁துறந்த	-11.1318
▁அம்பாள்	-11.1319
▁தொலைக்காட்சித்	-11.1319
ட்டிங்	-11.1319
தல்ல	-11.1319
▁பயனுள்ள	-11.132
432	-11.132
▁1914	-11.132
நாடக	-11.1321
242	-11.1321
ப்பதில்லை	-11.1322
▁நாராயணன்	-11.1324
▁வீட்டை	-11.1326
▁செயலக	-11.1327
மருத்துவ	-11.1328
cul	-11.1328
▁மாறுகிறது	-11.133
த்தன்மையை	-11.1331
▁உலகிலேயே	-11.1331
▁அரக்கோணம்	-11.1332
app	-11.1332
▁சுழி	-11.1332
▁ரோமானிய	-11.1334
▁1927-	-11.1337
▁காள	-11.1337
மத்திய	-11.1337
▁குறித்தும்	-11.1337
▁சிப்பாய்	-11.1339
▁சமசுகிருத	-11.1343
செய்தி	-11.1343
▁பிரான்	-11.1344
ுவிட்டது	-11.1344
hal	-11.1346
ெண்ண	-11.1348
டலில்	-11.1352
▁கட்டணம்	-11.1352
416	-11.1353
▁தீர	-11.1355
▁இந்தியாவிற்கு	-11.1357
தீஸ்வரர்	-11.1357
nam	-11.1358
▁யாழ்ப்பாணத்தில்	-11.1359
▁காரி	-11.1361
▁தரவுகளை	-11.1362
▁இருவர்	-11.1364
▁கொல்லப்பட்டார்	-11.1367
▁மாவட்டமும்	-11.1368
வீரர்	-11.1369
▁ஸ்டுடியோ	-11.1369
="124	-11.1369
ெலும்பு	-11.137
▁சார்லஸ்	-11.1371
▁நிலைநிறுத்த	-11.1372
▁போருக்கு	-11.1376
437	-11.1377
▁அகத்திய	-11.1379
▁டைம்	-11.1379
=356	-11.138
▁கல்லூரியிலும்	-11.138
மிழ	-11.1381
▁மோத	-11.1381
Ac	-11.1385
▁அரங்கு	-11.1386
▁கல்வெட்டுகள்	-11.1386
▁ரகசிய	-11.1387
▁பாதுகாவல	-11.1388
▁முழுவதுமாக	-11.1388
▁சுவீடன	-11.1389
▁நண்பர்கள்	-11.1389
▁புரோமைடு	-11.1391
கிளை	-11.1393
▁1911	-11.1396
▁வடக்க	-11.1398
▁கொடுக்கிறது	-11.1399
▁நாடுகளும்	-11.1399
▁பதிப்பக	-11.1402
▁அதனைத்	-11.1403
▁விழிப்புணர்வு	-11.1406
▁பிரபஞ்ச	-11.1409
ste	-11.141
▁வெப்பமண்டல	-11.141
▁காக	-11.141
▁ஆளுனர	-11.1411
▁ஏஞ்சல	-11.1411
▁வளாகம்	-11.1413
காரண	-11.1413
▁யாதவ	-11.1415
கிழார்	-11.1416
▁தாலி	-11.1418
▁ஆக்கங்கள்	-11.1418
▁யூனி	-11.1419
ஞர்	-11.1419
▁180	-11.1423
மாற்று	-11.1425
=365	-11.1425
▁கற்பித்த	-11.1426
▁கார்பனேட்டு	-11.1426
▁மூங்கில்	-11.1426
▁சாத்திர	-11.1427
▁அழித்து	-11.1427
▁சமஸ்தான	-11.1429
▁எரிபொருள	-11.143
▁வழிகாட்ட	-11.143
fi	-11.1431
கரமான	-11.1432
▁கொச்சி	-11.1432
யில்லாத	-11.1433
▁அறிவிப்ப	-11.1433
▁இராணி	-11.1435
▁கொள்கின்றன	-11.1437
▁1917	-11.1438
▁குறைத்து	-11.1438
▁புரிய	-11.1438
எண்	-11.1439
428	-11.1439
▁தேவாலயம்	-11.1439
சுழற்சி	-11.1441
த்தாள	-11.1445
▁நிக்கோ	-11.1445
அந்த	-11.1445
=358	-11.1447
▁ஆழம்	-11.1447
▁பிரதமராக	-11.1449
▁வள்ள	-11.1452
▁தீவிரமான	-11.1453
▁Mar	-11.1457
▁கரண	-11.1458
425	-11.1459
▁விரிந்த	-11.1461
ிழைய	-11.1461
ட்ரீ	-11.1462
▁இனத்தைச்	-11.1462
▁ஞானம்	-11.1463
▁ஐசோ	-11.1463
வாயு	-11.1464
▁குழந்தைகளை	-11.1467
▁பூரண	-11.1468
▁செலுத்திய	-11.1472
ser	-11.1472
க்கண்ண	-11.1472
▁சமீபத்தில்	-11.1473
▁அமைப்புகளில்	-11.1474
236	-11.1475
சதுர	-11.1475
Ge	-11.1476
▁அவரிடம்	-11.1477
▁தலைமைப்	-11.1477
bl	-11.1477
▁இளையராஜா	-11.1482
ுதவி	-11.1483
▁இத்துறை	-11.1484
▁நகரத்திற்கு	-11.1484
▁அதிகரித்தது	-11.1484
▁தமிழ்நாட்ட	-11.1489
ிவிடும்	-11.149
▁படிக்கும்	-11.1493
▁எங்க	-11.1494
களுமே	-11.1494
▁மரத்தின்	-11.1494
▁முகாம்	-11.1494
▁அமர்ந்து	-11.1495
▁தந்திர	-11.1498
▁அர்ச்ச	-11.1498
▁நீள்	-11.15
▁பரிமாற்றம்	-11.1501
▁என்பவருக்கு	-11.1501
▁இக்கட்சி	-11.1504
வானி	-11.1506
▁குறிக்கோள்	-11.1508
▁திசுக்கள	-11.1509
▁ஸ்டீ	-11.1509
ஆங்கில	-11.151
▁கலந்துகொண்ட	-11.1511
▁யார்க்	-11.1511
▁பேசப்படும்	-11.1511
▁1500	-11.1511
▁தொட்டு	-11.1512
▁இணைக்கப்பட்டது	-11.1514
=129	-11.1516
▁யாவும்	-11.1517
நூறு	-11.1517
321	-11.1519
▁உரிம	-11.1519
▁கீழை	-11.1519
▁பூர்வீக	-11.1519
▁பிரம	-11.1521
183	-11.1522
நிறை	-11.1523
▁எழுத்துக்களை	-11.1526
402	-11.1526
க்கணி	-11.1527
▁நாட்டிற்கு	-11.1528
மாகவோ	-11.1529
="125	-11.153
▁பண்டார	-11.1531
▁மண்டபத்தில்	-11.1533
▁தீர்த்தம்	-11.1534
முது	-11.1534
▁போக்குவரத்த	-11.1536
▁விக்கிப்பீடியா	-11.1538
▁பில்லி	-11.1539
▁பகவதி	-11.154
▁ஆனை	-11.1541
ER	-11.1541
AR	-11.1542
▁சங்கு	-11.1542
லுக்கும்	-11.1545
▁ஊர்வல	-11.1546
▁மதத்தை	-11.1548
ிழந்த	-11.1549
▁கொள்கிறது	-11.1551
▁வரிகள்	-11.1552
▁வளைந்த	-11.1552
▁காச	-11.1557
▁இலித்தியம்	-11.1557
▁முதலை	-11.1559
▁விளையாட்டில்	-11.1559
ருள	-11.156
="365	-11.156
tha	-11.1561
▁ஒழுங்கமை	-11.1562
215	-11.1563
▁நிறுவனங்கள	-11.1564
▁இத்தொடர	-11.1565
வற்றின்	-11.1567
▁இனிப்பு	-11.1568
கிருத	-11.1571
▁பகுதியும்	-11.1571
நிலையை	-11.1572
ங்களோடு	-11.1572
▁வலையமைப்ப	-11.1573
▁ஆட்டக்காரர்	-11.1573
▁பிரிவுகளில்	-11.1574
ade	-11.1575
▁நம்பிய	-11.1575
▁மாற்றும்	-11.1575
▁கண்ணகி	-11.1577
▁இருந்தபோதிலும்	-11.1579
▁குழுவினர	-11.1579
▁சந்திரன்	-11.1579
▁எழுதியவர்	-11.158
421	-11.1585
▁வினையின்	-11.1585
▁நெட்ட	-11.1586
▁அறிஞர	-11.1587
="356	-11.1587
ko	-11.1588
2,000	-11.1593
அள்ளி	-11.1598
▁நிழல்	-11.1598
▁காலத்திலும்	-11.1599
eri	-11.1601
▁காரணங்களால்	-11.1602
திருப்ப	-11.1604
பார்வை	-11.1606
கல்வி	-11.1607
▁அட்ட	-11.1608
▁கச்சேரி	-11.1608
▁மண்டலத்தின்	-11.1613
▁ஆகியவற்றைப்	-11.1613
▁தொலைத்தொடர்பு	-11.1614
▁நாயனார்	-11.1614
▁நிதியுதவி	-11.1614
▁இயற்பியல	-11.1615
▁தலம்	-11.1615
▁கனடாவின்	-11.1616
கேசரி	-11.1616
▁தேவதை	-11.1617
▁நிகழ்ச்சியை	-11.1619
=367	-11.162
▁மணிநேர	-11.1621
▁உழைப்ப	-11.1621
▁பழுத	-11.1622
▁போர்த்துக்கேய	-11.1623
மாரி	-11.1626
▁குஜராத்தி	-11.1627
▁மகி	-11.1627
ங்கால்	-11.1627
▁கொள்கிறார்	-11.163
▁சேகரிப்ப	-11.1631
▁வடிவமாக	-11.1632
▁ஆப்கானித்தான	-11.1633
aj	-11.1635
▁நூல்களின்	-11.1637
சிட்ட	-11.1641
ிழப்பு	-11.1642
ரத்ன	-11.1643
▁செல்வது	-11.1643
யிலா	-11.1645
▁பயனர்கள்	-11.1645
வனுக்கு	-11.1646
▁இதனைக்	-11.1648
▁கோட்டையை	-11.1649
▁நவராத்திரி	-11.1652
▁பெருங்க	-11.1655
="358	-11.1655
▁கோட்பாடுகள்	-11.1659
▁நீடிக்க	-11.1666
▁நாளும்	-11.1669
▁பழக்கம்	-11.1671
▁கிரெ	-11.1671
▁மெக்சிகோ	-11.1672
▁எத்தனை	-11.1672
▁வீழ்ந்த	-11.1673
ust	-11.1673
▁உருவாக்கப்பட்டன	-11.1674
▁He	-11.1678
▁பெறலாம்	-11.1679
▁சரித்திர	-11.1679
▁மண்ணில்	-11.168
த்தியம்	-11.1681
பேட்	-11.1681
▁பொறிக்கப்பட்ட	-11.1681
▁சங்ககாலப்	-11.1682
▁கைப்பற்றியது	-11.1684
▁டால்	-11.1687
புளோர	-11.1688
197	-11.1689
மில	-11.169
▁கலிங்க	-11.169
▁பெண்களை	-11.169
▁மகாராஷ்டிரா	-11.1691
ெதிர்	-11.1691
▁பிள்ளைகள்	-11.1694
ிருக்கிறார்கள்	-11.1695
வொ	-11.1695
▁சுந்தரம்	-11.1696
▁உணர்வ	-11.1697
▁இற்கு	-11.1698
=120	-11.1699
▁படமான	-11.17
▁சுரங்கள்	-11.17
▁அமுத	-11.17
▁அப்பால்	-11.17
▁வெளிப்படுத்தும்	-11.1701
,500	-11.1701
▁பகல்	-11.1703
▁மலைப்பகுதி	-11.1704
▁கார்பன	-11.1709
▁சனத்தொகை	-11.171
▁காரை	-11.1711
▁சரவண	-11.1712
ினையும்	-11.1713
▁ராஜஸ்தான்	-11.1713
▁பறக்க	-11.1713
▁டென்	-11.1714
▁be	-11.1716
▁விரிவுரை	-11.1717
▁நடுவே	-11.1718
▁1918	-11.1718
பரப்பு	-11.1719
="129	-11.172
களாகவே	-11.172
▁கலக	-11.1722
▁(6	-11.1724
▁அவரால்	-11.1725
▁பெயருடன்	-11.1725
413	-11.1726
▁அட்டவணையில்	-11.1727
▁புகையிலை	-11.173
▁உடையவர்	-11.1731
▁வெளியீட்டு	-11.1734
ப்படுபவர்	-11.1734
▁அங்கீகாரம்	-11.1735
விடுகிறார்	-11.174
▁வங்காளம்	-11.174
▁பைசா	-11.1742
ப்பெண்	-11.1744
HO	-11.1745
திட்ட	-11.1745
ோவிய	-11.1746
▁சுற்றிலும்	-11.1748
▁அழ	-11.1748
ிடத்தில்	-11.1748
414	-11.1748
▁பிரதிபலிக்க	-11.1749
▁இயக்குனராக	-11.1749
▁செயின்ட்	-11.175
▁சிட்னி	-11.175
pan	-11.1751
▁அதனுடன்	-11.1753
▁ஏதுவாக	-11.1755
▁பரவல்	-11.1762
பயிற்சி	-11.1762
▁வாழிட	-11.1762
க்கல்லூரி	-11.1763
▁கண்ணன்	-11.1764
▁ஆலன்	-11.1765
▁உங்கள்	-11.1765
ங்கன்	-11.1765
▁ஒருவராவார்	-11.1766
▁கடைப்பிடிக்க	-11.1768
▁மக்னீசியம்	-11.1768
▁நாணயங்கள்	-11.177
245	-11.177
றிதல்	-11.1772
▁அதிகரிக்கிறது	-11.1774
▁கிணறு	-11.1775
▁இணங்க	-11.1776
IT	-11.1777
▁கதாபாத்திரங்கள	-11.1779
▁உதவியது	-11.178
▁உருவாக்கப்பட்டு	-11.1782
ப்போக்கு	-11.1783
▁பேசிய	-11.1784
mu	-11.1785
▁ரக	-11.1786
▁கணிதவியலாளர்	-11.1789
▁சொல்லான	-11.1789
▁ஆசிரம	-11.1789
▁ஆரஞ்சு	-11.1789
▁அவரே	-11.179
223	-11.179
▁நாளன்று	-11.179
ுவதிலும்	-11.1792
▁நாசா	-11.1794
="367	-11.1794
டேர்	-11.1794
427	-11.1795
▁பலா	-11.1795
▁நெடுஞ்சாலையில்	-11.1796
▁துல்லிய	-11.1796
யென்	-11.1797
▁தடுக்கும்	-11.1797
▁சிறுமி	-11.1802
▁நிறுவனத்திற்கு	-11.1802
விஜய	-11.1803
▁அனுப்பிய	-11.1806
▁ஒன்றுக்கொன்று	-11.1807
▁மீதமுள்ள	-11.1808
நோக்கு	-11.1809
▁முழுக்க	-11.181
▁கோடைகால	-11.1811
▁மலர	-11.1812
இணை	-11.1814
▁வருவாய	-11.1815
▁பேட்டி	-11.1816
▁புதர்	-11.1816
தீவு	-11.1817
▁விரும்பினார்	-11.1817
கொள்கிறார்	-11.1818
▁சமச்சீர்	-11.1819
Ja	-11.1819
▁நியூட்டன	-11.182
▁ஸ்டே	-11.182
▁அரங்கம்	-11.1821
Or	-11.1821
="120	-11.1822
▁காட்டினார்	-11.1823
ளிக்கும்	-11.1824
▁வழிபட்டு	-11.1826
▁ஆய்வுகளை	-11.1828
ப்பெற்றது	-11.1829
▁பொருத்து	-11.1829
▁இவ்வாலய	-11.1829
▁குசராத்	-11.1829
ிருத்தல்	-11.1829
▁மாறுபட	-11.1829
ப்பட்டிருக்கிறது	-11.183
282	-11.1835
▁உபயோகிக்க	-11.1836
ris	-11.1842
▁இலவசமாக	-11.1844
ிகா	-11.1846
▁குடிபெயர்ந்த	-11.1846
மங்கை	-11.1846
ப்படுகின்றார்	-11.1847
▁அங்கத்தினர்	-11.1848
மதுரை	-11.1848
கூட்ட	-11.1849
-10	-11.185
▁ஜாவா	-11.185
▁பல்வகை	-11.1851
காய்	-11.1852
▁வைத்திருக்க	-11.1855
=334	-11.1855
▁சிவபெருமான	-11.1857
▁கேட்ப	-11.1858
ரைட்டு	-11.1859
▁மர்ம	-11.1862
ப்பெருக்க	-11.1864
ப்பிற்கு	-11.1864
க்கொண்டது	-11.1865
▁சாதாரணமாக	-11.1865
▁வீச்ச	-11.1866
▁வாடகை	-11.1866
lor	-11.1868
▁அதிர்வு	-11.1868
பாலா	-11.187
▁தாண்ட	-11.1873
AC	-11.1875
▁பிரீ	-11.1875
னேரி	-11.1875
ஒளி	-11.1876
▁அனுப்பினார்	-11.1878
ஷர்	-11.188
mic	-11.1881
▁வாழ்வை	-11.1882
▁ஏற்படுகின்றன	-11.1882
▁நார்வே	-11.1884
▁உரிமம்	-11.1886
▁விழுந்து	-11.1887
▁காரணத்தினால்	-11.1888
▁வெகுவாக	-11.1889
▁அமைப்பாக	-11.1891
▁கொண்டிருந்தன	-11.1894
▁சோதி	-11.1897
iz	-11.1897
எழு	-11.19
▁அடைக்கப்பட்ட	-11.1901
ுவதாகக்	-11.1901
▁1.5	-11.1903
▁Jump	-11.1905
▁நெசவு	-11.1905
▁பாக்கிஸ்தான	-11.1905
▁வஞ்சி	-11.1909
▁ஆண்டிற்கான	-11.191
▁மார்ட்டின்	-11.191
408	-11.191
▁சீதா	-11.1911
▁1905	-11.1912
▁சுற்றுப்புற	-11.1912
▁பத்தி	-11.1913
▁விவரிக்கப்படும்	-11.1913
▁எய்த	-11.1915
▁பெருக்கல்	-11.1916
▁விளையாட்டுக்கள்	-11.1917
▁மயில்	-11.1918
தூர்	-11.1921
Car	-11.1921
252	-11.1924
▁பேச்சுவார்த்தை	-11.1925
▁முரண்பாடு	-11.1925
▁நுணுக்க	-11.1925
▁எழுத்துமுறை	-11.1925
▁ஒலிபரப்ப	-11.1925
▁செர்சி	-11.1928
▁இயலவில்லை	-11.1928
▁வட்டு	-11.1929
Fe	-11.1932
▁முறி	-11.1932
ாழ்வார்	-11.1933
▁Ro	-11.1933
▁கிடைப்பத	-11.1936
யமைப்பு	-11.1937
▁பெருங்	-11.1939
▁வேகத்தை	-11.1943
▁உற்பத்தியாளர்	-11.1943
▁அருணாசல	-11.1944
▁கண்காணிப்பு	-11.1945
ாம்பிகை	-11.1947
வாசக	-11.1947
▁வொ	-11.195
ven	-11.1951
ஹு	-11.1952
BC	-11.1954
▁இப்போட்டி	-11.1955
▁அறிமுகமான	-11.1956
ுனர	-11.1957
▁ஆசியாவின்	-11.1958
▁ஒளியை	-11.1959
படியான	-11.1961
▁இயங்கிய	-11.1962
▁விதிக்கப்பட்ட	-11.1962
▁மேல்நிலைப்பள்ளி	-11.1964
▁இக்கோட்டை	-11.1965
▁வியாழன	-11.1965
▁வரலாற்றுச்	-11.1967
▁ஈரான்	-11.1968
▁கோணம்	-11.1968
▁போலந்து	-11.197
▁தெய்வம்	-11.1971
str	-11.1971
நார்	-11.1972
புளோரைடு	-11.1972
▁ஆகி	-11.1973
▁மாவட்டத்தை	-11.1974
="334	-11.1977
ஃபோர்ட்	-11.1978
▁கணித்த	-11.1979
▁குடிமக்கள	-11.1981
▁வாழ்க்கையின்	-11.1983
▁நன்றி	-11.1984
▁தட்சிணாமூர்த்தி	-11.1984
=128	-11.1984
▁முப்பத்த	-11.1984
▁தாத்தா	-11.1985
-17	-11.1985
▁காரணங்களுக்காக	-11.1985
▁மிதி	-11.1988
▁மதிக்க	-11.1989
விளக்க	-11.1989
ருக்கான	-11.1994
மடம்	-11.1994
▁நிலையாக	-11.1995
▁வாய்ப்பை	-11.1996
▁தந்தது	-11.1997
▁நாகர்	-11.1997
ருங்க	-11.1998
டாய்	-11.2
▁நாகர்கோவில	-11.2001
க்காட்டு	-11.2001
▁வாய்ப்புகள்	-11.2002
வராய	-11.2003
மாரியம்மன்	-11.2004
▁திரையுலக	-11.2004
▁அருள்மிகு	-11.2005
▁காந்தாரம்	-11.2005
▁நிகழ்த்திய	-11.2006
வாங்	-11.2006
▁அன்னா	-11.2007
பாகு	-11.2011
▁ஒட்டிய	-11.2011
426	-11.2013
▁வகைப்பாடு	-11.2016
▁காரணங்கள	-11.2016
AS	-11.2019
உள்ள	-11.2019
▁இலக்கியங்களில்	-11.202
▁திரையிட	-11.2021
யெல்லாம்	-11.2022
▁ஆதலால்	-11.2028
மங்கல	-11.203
▁குறிப்பிட்டு	-11.2031
▁கிறிஸ்துவ	-11.2033
▁கபூர்	-11.2034
களில	-11.2038
▁சுற்றுலாப்	-11.2039
▁நிலவும்	-11.2042
▁மனை	-11.2044
▁மென்பொருட்	-11.2044
ina	-11.2044
▁சார்பின்	-11.2045
▁மூழ்கி	-11.2045
▁உபநிடத	-11.2046
▁வியட்	-11.2047
▁எண்ணிக்கையிலான	-11.2047
▁விகிதத்தில்	-11.2048
rit	-11.2049
ப்பருவ	-11.2051
ெரி	-11.2052
த்துடனும்	-11.2053
▁கடத்து	-11.2053
▁அளவிலும்	-11.2054
▁இவ்வகையான	-11.2055
ப்பதாக	-11.2057
தெய்வ	-11.2061
யுமான	-11.2061
▁ஒளிப்பதி	-11.2062
சீர	-11.2063
▁வாக்கெடுப்ப	-11.2064
▁ஏழாவது	-11.2064
▁புண்	-11.2064
இள	-11.2064
▁தன்னார்வ	-11.2065
▁தலையில்	-11.2069
▁எதிர்கொள்ள	-11.207
▁மூக்க	-11.207
▁அசல்	-11.2073
▁பாலிவுட்	-11.2075
=126	-11.2075
▁உரையாட	-11.2077
▁திறனாய்வு	-11.2081
▁குத்து	-11.2081
▁சுற்றுப்	-11.2084
▁வனவிலங்கு	-11.2084
▁டாம்	-11.2084
▁விலா	-11.2085
களினதும்	-11.2086
▁சூரியனை	-11.2087
las	-11.2088
tin	-11.2089
▁சந்தித்தார்	-11.2089
▁ஒப்பிட்டு	-11.2089
▁விளைவை	-11.2091
▁நிலப்பரப்ப	-11.2092
▁அங்கிருந்த	-11.2092
சாதன	-11.2094
நேர்	-11.2096
ள்ளா	-11.2097
▁அயல்	-11.2098
▁பெற்றுள்ள	-11.2101
▁பாதுகாத்து	-11.2103
International	-11.2104
▁சார்ந்தவர்	-11.2105
ost	-11.2105
ner	-11.2107
395	-11.2107
▁கிழங்கு	-11.2108
▁சமூகத்தின்	-11.2116
▁மேற்பரப்ப	-11.2118
nes	-11.2119
▁புளிய	-11.2119
▁ஜெயலலிதா	-11.2124
▁செயிண்ட்	-11.2124
▁உலகெங்கும்	-11.2127
rat	-11.2127
▁எய்	-11.2128
▁Com	-11.2128
=106	-11.2131
▁விவரங்கள்	-11.2132
▁அங்குலம்	-11.2132
▁விவசாயிகள்	-11.2133
▁உள்ளாட்சி	-11.2134
▁வாழ்த்து	-11.2134
En	-11.2134
நல்ல	-11.2135
form	-11.2135
ort	-11.2135
க்குப்பம்	-11.2136
aya	-11.2141
லெஸ்	-11.2141
=104	-11.2143
▁ஐரோப்பியர்	-11.2143
தங்க	-11.2143
="128	-11.2145
▁தூண்டுதல	-11.2148
▁தாயார	-11.2148
▁எழுத்தாளர்கள்	-11.2148
மைவு	-11.215
க்கிங்	-11.2154
▁அரசவை	-11.2156
வீட்ட	-11.2158
நொ	-11.2158
▁பலவற்றை	-11.216
▁கடலை	-11.2161
▁தனித்தனியாக	-11.2161
▁கோவிலுக்கு	-11.2162
வெளியிட்டுள்ளார்	-11.2162
▁மிஸ்	-11.2163
2009	-11.2165
▁சீரமைப்ப	-11.2166
▁கொண்டதாகவும்	-11.2168
▁மூலமாகவும்	-11.2169
▁மாணவர்களின்	-11.2169
▁திருப்பணி	-11.2171
▁பாணியில்	-11.2171
▁இந்நூல	-11.2173
▁நகரமான	-11.2176
மானிய	-11.2177
▁நுழைய	-11.2178
▁கோலாலம்பூர	-11.2178
apuram	-11.2179
▁சமி	-11.218
▁சிலைகள்	-11.218
▁பேருந்துகள்	-11.2182
▁செய்பவர்	-11.2182
▁துயர	-11.2183
▁வைத்திய	-11.2184
▁படைத்தார்	-11.2184
▁தற்காப்பு	-11.2184
▁நண்பன	-11.2184
▁கோட்பாட்டு	-11.2185
▁பனிக்கட்டி	-11.2185
வேந்தர்	-11.2188
▁தேசம்	-11.2189
▁புலிகளின்	-11.2189
hen	-11.2191
குறை	-11.2192
▁கருவியாக	-11.2195
▁மக்கா	-11.2195
▁மிகப்பெரும்	-11.2196
▁Th	-11.2196
▁கழுகு	-11.2196
▁அலுவல்	-11.2197
போலி	-11.2197
▁முடிவை	-11.2198
▁ஒப்புதல்	-11.2201
▁தளி	-11.2201
ஜெய	-11.2202
▁அகாடமி	-11.2204
▁ஐம்பது	-11.2204
290	-11.2205
▁செங்குத்து	-11.2205
▁இலத்திரன்	-11.2205
▁பிறக்கும்	-11.2206
▁அதிசய	-11.2206
▁பிரிவாக	-11.2211
ருகே	-11.2211
▁அரபி	-11.2212
நய	-11.2212
▁நிலங்கள்	-11.2212
தலால்	-11.2219
மாறி	-11.2221
▁ஹர்	-11.2221
▁நலம்	-11.2222
▁பகுதிகளையும்	-11.2224
▁கவுன்சில	-11.2225
▁10%	-11.2228
▁கன்னிமார்	-11.2228
=130	-11.2233
ாவிட்டால்	-11.2235
▁பிரிக்கப்பட்டு	-11.2237
nu	-11.2239
="130	-11.2242
த்தொகுப்பு	-11.2244
▁அமீரக	-11.2245
▁கையொப்ப	-11.2245
▁காவேரி	-11.2245
▁அந்தோனி	-11.2248
▁காந்தியின்	-11.2249
ாச்சாரி	-11.225
▁தலைவரும்	-11.225
▁சிற்றின	-11.2251
பாக்கம்	-11.2253
CD	-11.2255
▁வருகிறார்கள்	-11.226
▁இதிலிருந்து	-11.226
▁காயம்	-11.2261
▁பெரும்பான்மையாக	-11.2261
யன்று	-11.2261
▁மிட்	-11.2262
▁பெறப்பட்டது	-11.2263
த்திரன்	-11.2264
▁டிஜிட்டல்	-11.2265
▁நீர்த்தேக்க	-11.2265
▁இழுத்து	-11.2266
▁நடுக்க	-11.2266
ey	-11.2268
ச்சூழல	-11.2268
412	-11.227
▁வளரக்கூடிய	-11.2272
ign	-11.2274
tur	-11.2275
▁ஸ்டேட்	-11.2275
▁பேசுகின்றனர்	-11.2276
▁முட்டைகள்	-11.2276
kar	-11.228
▁கருத்துகள்	-11.228
▁குடா	-11.2281
வரிடம்	-11.2282
நடை	-11.2282
424	-11.2282
ச்சத்து	-11.2282
="104	-11.2283
▁மாற்றத்தை	-11.2283
▁செய்வதில்	-11.2285
▁பொள்ளாச்சி	-11.2286
▁மூதாதை	-11.2286
▁தொடர்ந்தது	-11.2286
▁வாகனங்கள்	-11.2287
▁பிரச்சினைகள்	-11.2288
▁அலுவலரால	-11.2289
▁1908	-11.2292
வுள்ளது	-11.2296
Su	-11.2297
▁நவாப்	-11.2298
▁இதன்மூலம்	-11.2298
▁டிகிரி	-11.2299
▁கார்த்திக்	-11.23
▁மருந்தாக	-11.23
▁செய்யப்பட்டனர்	-11.23
▁பாய்ந்து	-11.2301
▁இணையத்தள	-11.2301
கொலம்ப	-11.2303
▁வங்கிகள்	-11.2304
▁செஞ்சி	-11.2305
▁நூற்றுக்கணக்கான	-11.2306
▁பின்தங்கிய	-11.2306
நாயக்கன்பட்டி	-11.2308
▁சோடி	-11.2308
▁உயரிய	-11.231
▁தண்ணீர	-11.2312
▁பாய்கிறது	-11.2312
பாண்டி	-11.2312
▁வாதிட	-11.2313
▁வேதிச்	-11.2315
▁தில்லியில்	-11.2318
▁பலபடி	-11.2318
▁பாக்ஸ்	-11.2319
கூடிய	-11.2321
▁பேராசிரிய	-11.2325
▁ஆறுமுக	-11.2325
▁ஊக	-11.2326
சுந்தரம்	-11.2326
▁வேறுபட	-11.2328
ங்கார	-11.2328
▁சாங்	-11.2331
▁நிறுவனங்களுக்கு	-11.2331
▁விரத	-11.2332
▁கதவு	-11.2332
▁தனித்தன்மை	-11.2332
விட்டதாக	-11.2332
▁ஜெக	-11.2332
bu	-11.2333
▁பீகார்	-11.2336
▁சேர்மங்களை	-11.2338
ID	-11.234
▁டாலர்கள்	-11.2341
தாக்க	-11.2342
வளர்ச்சி	-11.2342
▁பெயர்பெற்ற	-11.2345
▁வர்த்தகம்	-11.2345
net	-11.2346
▁ஓய்வூதிய	-11.2347
▁சொற்றொடர	-11.2347
▁விற்ற	-11.2349
▁வினைபுரிய	-11.2349
▁சிகாகோ	-11.235
▁இதழ்கள்	-11.2358
▁இந்தியாவுக்கு	-11.2358
▁மகனாகப்	-11.2361
▁இடம்பெற்றுள்ளன	-11.2363
▁அமெரிக்கன்	-11.2364
▁பாடகர	-11.2365
="126	-11.2366
▁குறுக்கே	-11.2368
▁கற்கள்	-11.2368
▁பேய்	-11.2369
▁தோற்றத்தை	-11.237
▁கணவன	-11.2373
▁பத்தாண்டு	-11.2373
▁மையங்கள்	-11.2375
use	-11.2376
▁இருமுறை	-11.2376
▁ஆசு	-11.2376
பக்கம்	-11.2376
=123	-11.2377
விளைவு	-11.2379
ப்படுபவை	-11.2385
▁வம்சத்தின்	-11.2385
▁கொல்லி	-11.2386
▁தூபி	-11.2386
னெட்	-11.2388
▁பணியாற்றியுள்ளா	-11.2388
▁மணந்தார்	-11.2391
▁பாத்திரம்	-11.2391
▁உறவை	-11.2393
▁லவ்	-11.2394
▁முதுகலைப்	-11.2394
▁குளோரோ	-11.2395
▁மக்களில்	-11.2395
கட்டி	-11.2397
▁குடும்பத்தினர	-11.2399
▁அவன	-11.2399
▁கண்கள்	-11.2401
▁படுகின்றன	-11.2405
▁பாதிக்கும்	-11.2406
▁சந்தைப்படுத்த	-11.2406
▁தவம்	-11.2406
▁பரப்பி	-11.2408
="123	-11.2408
▁மின்னஞ்சல்	-11.2409
▁வழிவகுக்க	-11.2409
வனே	-11.241
▁சாம்பியன்ஷிப்	-11.241
▁ரேடியோ	-11.241
▁திணைக்கள	-11.2411
▁இம்முறையில்	-11.2412
▁நீட்சி	-11.2416
▁கூட்டமைப்ப	-11.2417
▁குடியிருப்ப	-11.2419
▁குல்	-11.242
ெங்கும்	-11.2421
▁மற்றவர்கள்	-11.2422
▁சீக்கியர்கள	-11.2422
▁வெங்க	-11.2424
▁தரப்பட்டுள்ளன	-11.2424
ஹார்	-11.2425
ப்பேர	-11.2429
▁பன்னிரண்டு	-11.243
car	-11.2432
▁சிவாலய	-11.2433
▁வல்லமை	-11.2435
▁திவ்ய	-11.2436
தேவர்	-11.2437
pur	-11.2438
▁இரண்டையும்	-11.2439
ley	-11.244
Har	-11.2442
▁மௌரிய	-11.2444
▁சாலைகள்	-11.2444
▁இயக்கவியல்	-11.2444
nic	-11.2445
ெலி	-11.2449
▁பிரகாஷ்	-11.2451
▁குவாண்டம்	-11.2451
▁புள்ளிவிவர	-11.2451
▁ஆக்சிசன	-11.2451
▁வரையறுத்த	-11.2452
▁வெளியிட்டு	-11.2455
த்திடம்	-11.2456
டெய்	-11.2456
gh	-11.2456
▁உளவு	-11.2456
▁தனிச்	-11.2457
▁பரப்புரை	-11.2459
▁ஸ்மித்	-11.2459
▁மூர்	-11.2462
திருத்த	-11.2462
="106	-11.2463
க்காரணி	-11.2464
▁மகிழ	-11.2466
ுமானால்	-11.2466
▁சாதனங்கள்	-11.2468
▁நெருக்கமான	-11.247
▁எளிமையாக	-11.2471
▁இக்கோயில	-11.2472
▁இளவரசன	-11.2472
▁வரவு	-11.2474
▁திருமுறை	-11.2474
▁உருவாக்கினர்	-11.2475
▁இப்பட	-11.2475
▁சல்பேட்டு	-11.2482
So	-11.2483
செய்யும்	-11.2484
▁கருதினார்	-11.2485
▁வேதியியலில்	-11.2485
▁இம்மர	-11.2485
▁உள்ளடக்கி	-11.2488
▁வயதிற்கு	-11.249
இராம	-11.249
▁வீடுகளில்	-11.2491
▁சோசலிச	-11.2492
▁மொபைல்	-11.2492
▁ஜேர்சி	-11.2492
▁கொண்டுள்ளனர்	-11.2493
த்துக்குள்	-11.2493
▁பல்லி	-11.2494
▁நிலையங்களில்	-11.2495
▁பாரிஸ்	-11.2495
▁ஆண்டளவில்	-11.2497
▁அரியணை	-11.2497
த்தட்டு	-11.2501
▁அகவை	-11.2501
▁மகனும்	-11.2501
▁அகலம்	-11.2501
ுரிமை	-11.2501
▁அருச்சுனன	-11.2502
▁பெட்ரோ	-11.2503
▁புனிதர்	-11.2505
▁கீழுள்ள	-11.2507
தூத	-11.2509
▁வாரம்	-11.251
▁முதன்முறையாக	-11.2513
▁ஆற்றங்கரை	-11.2513
▁நாடார்	-11.2513
▁கொண்டிருந்தனர்	-11.2515
▁ஓசை	-11.2516
▁வைரஸ்	-11.2517
AM	-11.2518
▁மதிய	-11.2519
ரண்ட	-11.2519
கணினி	-11.252
▁பெயரான	-11.2522
▁10,000	-11.2522
▁ஜல	-11.2526
▁செய்வதை	-11.2527
னியோ	-11.2528
▁ஆவணங்கள்	-11.253
▁என்பார்	-11.2531
▁சந்திக்கும்	-11.2532
▁விரைவுவண்டி	-11.2534
2006	-11.2535
▁மருத்துவர்கள்	-11.2536
▁தாக்கும்	-11.2539
▁புள்ளியியல்	-11.2542
கொல்ல	-11.2545
▁நேபாளத்தின்	-11.2545
▁ஆராய்ந்து	-11.2547
▁கற்கால	-11.2548
▁மாணவி	-11.255
முயற்சி	-11.255
நகரம்	-11.2551
▁பலவகையான	-11.2552
▁டென்மார்க்	-11.2556
line	-11.2556
ங்களிலேயே	-11.2558
ப்படுவதுண்டு	-11.2559
▁வாய்ப்பாட்டால	-11.2559
ப்புழு	-11.256
வொரு	-11.2561
க்கிளி	-11.2562
cle	-11.2563
udi	-11.2565
▁வரைபடம்	-11.2565
▁குழுவாக	-11.2567
▁இணைத்துக்	-11.2567
419	-11.2568
▁அமைச்சர	-11.2568
▁காயமடைந்த	-11.2569
▁மண்டை	-11.257
▁மோரி	-11.2573
▁ஆய்வின்	-11.2574
ras	-11.2574
▁முதலாவதாக	-11.2576
▁ஜெனரல்	-11.2576
▁அவையாவன	-11.2576
▁நிவாரண	-11.2576
▁சூடுபடுத்த	-11.2576
▁Le	-11.2576
=127	-11.258
▁ஆன்மா	-11.258
▁பெருந்	-11.258
▁அமைப்புகளை	-11.258
▁குடிநீர்	-11.2581
▁கண்டன	-11.2583
▁படிவு	-11.2583
பழைய	-11.2585
▁மாத்திரை	-11.2586
▁மாவு	-11.2587
▁இராமசாமி	-11.2589
▁கதிரவ	-11.2589
▁தாயின்	-11.259
ல்ஃப்	-11.259
களுக்கே	-11.2591
▁பத்த	-11.2591
▁பயன்பாடுகள்	-11.2593
▁மாறுபடும்	-11.2597
▁திருவனந்தபுரம்	-11.2597
▁பருமன	-11.2597
த்தமிழ்	-11.26
▁உபதேச	-11.26
ரீஸ்	-11.2601
▁கிராண்ட்	-11.2605
▁திகழ	-11.2605
▁பங்களிப்ப	-11.2605
▁ஸ்டெ	-11.2605
▁மாநிலத்திலுள்ள	-11.2608
▁நெல்லை	-11.261
▁காட	-11.2612
வேண்டுமென்ற	-11.2614
ூடாக	-11.2615
▁ஆல்ககால்	-11.2617
▁கலாச்சாரம்	-11.262
▁அழைத்தனர்	-11.2625
sk	-11.2626
▁ரகு	-11.2629
▁சுங்க	-11.2629
▁தனு	-11.2631
palayam	-11.2639
▁சனநாயக	-11.2639
▁உடற்பயிற்சி	-11.2639
ரீனா	-11.264
▁அனுமதிக்கப்பட்ட	-11.2641
▁காய்ச்சல்	-11.2641
க்குறிப்பு	-11.2642
விரி	-11.2644
▁தொழிலாக	-11.2646
▁வைப்பு	-11.2646
▁எதிர்வினை	-11.2647
▁இந்நிறுவன	-11.265
ஹைட்ர	-11.2653
▁எழும்	-11.2654
▁பறப்ப	-11.2654
▁உண்மையை	-11.2655
▁ஏரியின்	-11.2657
▁அமிலத்தை	-11.2657
▁யூரோ	-11.266
▁அவ்வாறே	-11.266
▁மேலவை	-11.2661
க்குடும்ப	-11.2661
▁சின்னமாக	-11.2661
▁மின்னூட்ட	-11.2663
▁அலகுகள்	-11.2663
குறு	-11.2664
▁வேதியியல	-11.2666
▁பால்வெளி	-11.2669
▁தெரி	-11.267
▁தீட்ட	-11.2676
▁இருந்துள்ளது	-11.2676
▁கொண்டுவரப்பட்ட	-11.2679
ஷியா	-11.2682
▁அலு	-11.2683
▁நிலையிலும்	-11.2685
▁புரொ	-11.2686
CC	-11.2689
▁தென்னை	-11.269
▁குடும்பத்தை	-11.269
▁சிற்றிதழ்	-11.269
ப்படல	-11.2691
▁சாவக	-11.2692
பெண்ணின்	-11.2693
▁இளநிலை	-11.2698
▁காங்	-11.2698
றோ	-11.2698
சிகிச்சை	-11.27
▁கருணை	-11.2705
=102	-11.2706
Kar	-11.2708
▁அனுபவம்	-11.271
▁வேடத்தில்	-11.2711
ருகு	-11.2711
▁ரெட்	-11.2716
▁பிராமணர்	-11.272
▁பரப்பில்	-11.2723
▁ஓய்வ	-11.2723
▁மாநிலங்களவை	-11.2724
▁நெகிழ்	-11.2724
▁அலைநீள	-11.2725
▁எல்லையை	-11.2726
▁நோர்வே	-11.273
▁மாதிரியான	-11.2732
▁பிரஞ்சு	-11.2732
▁செய்வதன்	-11.2732
▁கடக்க	-11.2738
▁கூடியதாக	-11.2738
ப்படக்கூடிய	-11.2738
▁நாகா	-11.2744
நதி	-11.2746
▁உயர்நிலைப்பள்ளி	-11.2747
▁உள்வாங்க	-11.2748
▁போட்டியை	-11.275
வண்டி	-11.275
▁இலகுவாக	-11.2751
▁அரேபியா	-11.2751
டிரா	-11.2753
▁முதுநிலை	-11.2753
▁1916	-11.2753
▁காமா	-11.2754
▁மங்கள	-11.2754
▁முகப்பு	-11.2755
ஷிய	-11.2755
=133	-11.276
tro	-11.276
▁சதுக்க	-11.276
▁ஏற்படுத்தப்பட்ட	-11.2762
▁கவனிப்ப	-11.2765
▁நைட்ரசன்	-11.2765
சமூக	-11.2766
ou	-11.2766
▁செங்கிஸ்	-11.2767
▁பிரிக்கலாம்	-11.2768
▁ஐந்தாண்டு	-11.2768
▁கொள்ளப்படுகிறது	-11.2773
▁சண்டிக	-11.2774
ஹை	-11.2775
▁800	-11.2776
▁உதாரணம்	-11.278
▁பரிசை	-11.2781
▁ஆப்பிரிக்காவில்	-11.2782
▁ஆசிரியராகப்	-11.2782
▁மாஸ்கோ	-11.2784
2007	-11.2784
▁எருசலேம்	-11.2787
▁முக்கியமானது	-11.2787
▁உலகக்கிண்ண	-11.2788
▁மறுபடியும்	-11.2788
_3	-11.2789
SI	-11.2789
▁திடீர்	-11.2789
▁பிரதிநிதியாக	-11.2789
▁உயர்த்தி	-11.2791
▁(16	-11.2791
▁நகரங்களை	-11.2791
ஸ்ஸி	-11.2792
▁அயோடைடு	-11.2792
▁உடையார்	-11.2795
ிவிட்டது	-11.2797
புத்த	-11.2803
▁குழல்	-11.2803
▁ஆண்டனர்	-11.2804
▁நீர்நிலை	-11.2806
▁அடையாளமாக	-11.2806
செர்	-11.2807
▁குழந்தையை	-11.2807
ென்றால்	-11.2809
▁ஒளிர்	-11.281
▁தைவதம்	-11.281
▁பட்டப்படிப்பு	-11.281
▁மின்னோட்டம்	-11.2811
கொண்டா	-11.2811
▁சுடு	-11.2815
▁மொழியாகும்	-11.2816
களுக்காகவும்	-11.2819
▁0.0	-11.2819
ki	-11.2819
▁குளோரின்	-11.2819
▁கோபம்	-11.282
fr	-11.2822
▁பாலு	-11.2825
▁தேற்றம்	-11.2825
▁மேம்பாட்ட	-11.2826
▁நீரோட்ட	-11.2826
▁காலத்து	-11.2827
▁வற்புறுத்த	-11.2831
▁கூகுள்	-11.2832
▁பிரசித்தி	-11.2832
▁வாழ்ந்தார்	-11.2832
▁விற்ப	-11.2833
=105	-11.2835
ப்பரப்பு	-11.2836
▁1913	-11.2839
▁திரைப்படத்துறை	-11.2839
▁குதி	-11.284
ase	-11.284
▁கழித்த	-11.2845
▁விதைகள்	-11.2847
="127	-11.2847
="102	-11.2853
▁மத்திமம்	-11.2853
2001	-11.2854
▁நிகழ்வுகளில்	-11.2854
முன்ன	-11.2855
நை	-11.2855
பயண	-11.2855
மாலி	-11.2856
மெட்	-11.2861
▁நிற்ப	-11.2861
ுக்கே	-11.2863
▁கொடுத்தது	-11.2863
▁கவனித்து	-11.2864
காட்ட	-11.2865
▁பெயராலும்	-11.2866
ுள்ளதால்	-11.2867
▁வசித்த	-11.2867
யனூர்	-11.2868
▁எல்லையாக	-11.2868
▁கண்ணோட்ட	-11.2869
▁1907	-11.2872
▁விலகிய	-11.2874
▁சாசன	-11.2877
▁பாடும்	-11.288
தொகை	-11.2883
ுதலில்	-11.2885
▁மார்பக	-11.2888
▁பறை	-11.289
▁மெய்யியல	-11.2891
▁சந்தர்ப்ப	-11.2893
="133	-11.2895
2014	-11.2896
▁தோற்கடிக்க	-11.2896
▁சிற்றிலக்கிய	-11.2897
▁கோடுகள்	-11.2897
▁அளவுகளில்	-11.2898
▁குடைவரை	-11.2898
▁குலசேகர	-11.2898
▁அடைகிறது	-11.2899
▁பேராலய	-11.2899
▁கம்போடியா	-11.2899
டூர்	-11.29
▁ஆயுள்	-11.29
126	-11.2901
▁நூல்களையும்	-11.2903
▁நானோ	-11.2905
▁நடித்திருந்தார்	-11.2905
▁முற்பகுதியில்	-11.2905
SP	-11.2907
▁ஜய	-11.2909
▁செய்தால்	-11.2909
▁முன்னோர்	-11.291
ளீ	-11.2914
காரர்	-11.2917
▁பீட்டா	-11.2917
=362	-11.2917
▁பதினாறாம்	-11.2918
▁நாளிதழ்	-11.2919
▁ஜென்	-11.2919
கிறீ	-11.2921
▁தம்ம	-11.2922
புகழ்	-11.2924
▁செல்லியம்மன்	-11.2924
▁மக்களிடம்	-11.2924
▁நடுவர்	-11.2925
தேர்	-11.2926
▁தொல்காப்பிய	-11.2926
PA	-11.2926
▁ஈட்டி	-11.2927
▁தவிர்த்த	-11.2928
▁பகுப்பாய்வ	-11.2929
ிதழ்	-11.293
▁எட்டி	-11.293
▁சூட்டி	-11.2932
வியலா	-11.2936
▁குடும்பத்தினர்	-11.2937
ces	-11.294
▁முப்பது	-11.294
▁அத்தியாயங்கள	-11.294
▁கலைக்களஞ்சிய	-11.294
தண்ட	-11.2941
▁தலைமையிடமாக	-11.2942
▁தலைசிறந்த	-11.2942
ப்படுவார்	-11.2942
▁பொடி	-11.2943
▁பகுதிகளின்	-11.2946
▁1901	-11.2947
பாங்	-11.2948
யீட்டு	-11.2948
▁கட்டப்பட்டு	-11.295
▁பொருட்களில்	-11.295
▁கருத்துப்படி	-11.2952
▁மூட்டு	-11.2952
▁உருகு	-11.2953
வியலின்	-11.2954
▁என்றழைக்கப்பட்ட	-11.2954
▁நிறுவனர்	-11.2955
▁பாடலில்	-11.2955
▁நிறுவனமாகும்	-11.2956
▁இடைவெளியில்	-11.296
▁செல்லும்போது	-11.296
ுதலுக்கு	-11.2963
▁ஒதுக்கீடு	-11.2963
▁பாறைகள்	-11.2966
புள்ளி	-11.297
▁முதலமைச்சராக	-11.297
▁அளிக்கப்பட்டது	-11.297
▁செல்கள்	-11.2972
ப்பற்று	-11.2976
▁புன்ன	-11.2977
▁இருபத்தி	-11.2978
▁சென்றாய	-11.2982
amb	-11.2984
▁இடம்பெயர்ந்த	-11.2984
▁மட்டுமல்லாது	-11.2984
▁ஆர்வலர்	-11.2988
வருட	-11.2989
▁நாட்டார்	-11.299
▁லாப	-11.2993
▁திறக்கப்பட்டது	-11.2995
▁செய்துகொண்ட	-11.2996
த்தளம்	-11.2996
சூழ	-11.2997
▁இயக்குனர	-11.2997
▁1906	-11.2999
பூர்வமான	-11.2999
=122	-11.3001
▁வரலாற்றின்	-11.3002
களுடனான	-11.3002
▁திரள	-11.3004
▁அலெக்சா	-11.3004
▁யப்பான	-11.3004
▁செய்வத	-11.3005
▁வேணுகோபால	-11.3006
▁தியாகராஜ	-11.3007
▁சிவபெருமானின்	-11.3008
ாவிட்டாலும்	-11.3009
344	-11.3014
▁சூழப்பட்ட	-11.3017
▁மாகாணங்களில்	-11.3018
▁பராமரிப்ப	-11.3021
cal	-11.3026
▁முதல்வராக	-11.3027
▁முறியடித்த	-11.3028
▁சம்பள	-11.3028
▁பிராமி	-11.3028
▁நோர்	-11.3029
adu	-11.3029
kka	-11.3031
unt	-11.3032
சிறந்த	-11.3032
▁இராகங்களில்	-11.3033
▁முன்னிலை	-11.3034
▁தாக்கல்	-11.3034
ound	-11.3036
▁குறையும்	-11.3039
ிருக்கிற	-11.3039
▁கிரிஸ்	-11.3039
▁விடுகிறது	-11.304
▁இடமாற்ற	-11.3042
▁காற்றின்	-11.3043
than	-11.3043
▁இயற்பியலில்	-11.3043
="105	-11.3043
வருடைய	-11.3043
பத்திர	-11.3045
▁வேறுபடுத்த	-11.3047
அதிகாரப்பூர்வமாக	-11.3048
▁சூழலை	-11.3048
▁முகமை	-11.3049
▁சிறுபான்மை	-11.305
▁பாதரச	-11.3052
குண்டு	-11.3052
▁பூர்வ	-11.3055
▁வெளிப்படும்	-11.3056
▁தயாரிக்கப்படும்	-11.3057
▁மையத்தின்	-11.3062
▁அழிக்கப்பட்ட	-11.3062
க்குழாய்	-11.3063
க்கொள்கை	-11.3066
▁நிறமி	-11.3067
ளுக்கு	-11.3067
▁கடலின்	-11.3069
▁உரிமைகளை	-11.3071
▁வறட்சி	-11.3072
▁சக்கரவர்த்தி	-11.3072
▁பீடபூமி	-11.3072
▁உயிர்ச்சத்து	-11.3074
டவு	-11.3074
▁படைகளுக்கு	-11.3075
வேதியியல்	-11.3075
="362	-11.3075
▁நாங்கள்	-11.3077
▁அதிமுக	-11.3078
▁அழைத்த	-11.3082
▁திரட்டி	-11.3083
▁செயல்களை	-11.3083
▁தஞ்சாவூர	-11.3083
▁சுற்றுப்பாதை	-11.3084
▁அண்மைய	-11.3087
க்கோட்ட	-11.3088
▁பயன்பாட்டை	-11.3088
▁முற்று	-11.3096
டினோ	-11.3097
▁வேலையை	-11.31
▁Pr	-11.31
▁நோயின்	-11.3103
களாகவோ	-11.3104
▁வித்தியா	-11.3105
▁அரசினர்	-11.3106
ark	-11.3107
▁ஆதாரம்	-11.3108
▁ஏற்றார்	-11.3108
▁இணைத்த	-11.311
குறைந்த	-11.3111
▁சொல்லின்	-11.3113
▁நஞ்ச	-11.3114
த்திலான	-11.3114
▁சாஸ்திரி	-11.3116
▁இராவணன	-11.3117
▁எட்டாவது	-11.3117
▁நூலாசிரியர்	-11.3117
▁அரவிந்த	-11.3118
▁யாத்திரை	-11.3119
▁உய்	-11.3121
▁தழை	-11.3121
ப்பயன்	-11.3123
▁குச்சி	-11.3124
▁சம்மத	-11.3124
முதன்மை	-11.3124
ப்பொறி	-11.3126
கொடி	-11.3127
▁பணக்கார	-11.3129
▁தெருவில்	-11.3129
▁புத்தி	-11.3131
▁வகைப்பாட்ட	-11.3132
ங்காய்	-11.3134
="122	-11.3138
▁ஒன்பதாம்	-11.3138
▁மலேரியா	-11.3138
▁பங்குச்	-11.3142
▁பட்டதாரி	-11.3142
திருத்தந்தை	-11.3142
▁இவ்விழா	-11.3142
▁பிரபந்த	-11.3142
▁விவாதிக்க	-11.3143
ச்செல்வ	-11.3145
▁கெர்	-11.3145
▁உயிரணுக்கள்	-11.3147
▁உச்சியில்	-11.3148
▁மார்பு	-11.3149
னப்பள்ளி	-11.3149
▁சோர்	-11.315
▁வேலு	-11.315
▁அக்னி	-11.3152
▁வெடிக்க	-11.3158
மகன்	-11.3158
▁வெளியேறும்	-11.3158
வொர்	-11.316
▁யுனெஸ்கோ	-11.316
▁பின்வருவன	-11.316
▁முற்போக்கு	-11.316
▁எட்வர்ட்	-11.3161
ஹள்ளி	-11.3161
▁ஒப்படைக்க	-11.3162
▁பயனாக	-11.3163
▁தீர்மானித்த	-11.3163
▁வினவ	-11.3164
▁மலர்கள்	-11.3165
▁கெட்டி	-11.3166
-11	-11.3166
▁நிறைவேற	-11.3166
தாரர்	-11.3167
▁1909	-11.3169
ருமேனிய	-11.3171
▁பிரிவுகளைக்	-11.3172
▁மனநிலை	-11.3173
▁தோற்று	-11.3177
வுண்ட்	-11.3182
டெரிக்	-11.3183
▁தலையை	-11.3186
ster	-11.3191
க்காரன்	-11.3193
▁எடுக்கப்பட்டது	-11.3194
க்கென	-11.3195
▁முடிவெடுத்த	-11.3196
▁போருக்குப்	-11.3197
▁போராடி	-11.3197
ிற்குள்	-11.3197
2012	-11.3199
▁தலித்	-11.3199
▁கேட்கும்	-11.32
பட்டினம்	-11.32
நிகழ்	-11.3203
யினுள்	-11.3206
ஞ்செ	-11.3208
முற	-11.3209
▁அமைச்சராகவும்	-11.321
ult	-11.3212
▁கோவிலை	-11.3216
▁தீபம்	-11.322
க்கோல	-11.3222
▁போதே	-11.3222
▁தாங்கிய	-11.3223
▁ஆகியவற்றிற்கு	-11.3225
▁சுதேச	-11.3226
▁இரண்டாவதாக	-11.3228
▁சந்நிதி	-11.3228
▁திசைவேக	-11.323
▁விசுவாச	-11.323
▁மணந்து	-11.3233
▁இம்மாவட்ட	-11.3234
▁கட்டினார்	-11.3235
▁காணப்பட்டன	-11.3235
▁வடிவங்களை	-11.3238
▁அமைப்புகளின்	-11.3238
438	-11.3238
▁காஷ்மீர	-11.324
▁தெருக்கள	-11.3241
▁பின்னரும்	-11.3241
▁கோட்பாட்டை	-11.3242
ெண்ணெய்	-11.3245
தென்னிந்தியாவில்	-11.325
▁குலோத்துங்க	-11.325
▁பிறப்பிடமாகக்	-11.325
ிற்கே	-11.3251
▁தீவிரவாதி	-11.3251
ப்பெட்டி	-11.3252
▁எதிர்பார்த்த	-11.3253
▁தெரிவ	-11.3254
▁கவுண்டி	-11.3256
▁வாக்கிய	-11.3256
▁பெருமையை	-11.3257
▁தனியான	-11.3257
குண்ட	-11.3261
▁அசைவு	-11.3262
▁ஒருங்கிணைப்பு	-11.3264
▁குறிக்கோள	-11.3266
▁மக்கள்தொகையில்	-11.3269
▁திறப்பு	-11.3269
▁தற்காலிகமாக	-11.3269
மாவட்ட	-11.327
த்துக்குரிய	-11.327
▁அதிபர	-11.3271
▁தலமாக	-11.3272
▁காப்பீட்டு	-11.3274
SC	-11.3276
▁வழங்கப்பட்டு	-11.3279
ஸ்ட்ரா	-11.3283
-12	-11.3283
வெள்ள	-11.3287
▁அறிவிப்பு	-11.3292
▁ஆகியோரும்	-11.3293
▁எதிர்க்க	-11.3294
▁பழக	-11.3295
▁அளிக்கப்படும்	-11.3299
▁பயணத்தை	-11.33
▁குறிக்கின்றது	-11.3301
ருளி	-11.3303
விகித	-11.3303
▁சேது	-11.3304
▁ஆளாக	-11.3304
▁நால்வர	-11.3305
Indian	-11.3306
ஞ்சர்	-11.3309
ஐதராக்சி	-11.331
▁விளங்குகின்றன	-11.331
▁ரூபா	-11.3312
▁ஆய்வுகளில்	-11.3314
▁வேடங்களில்	-11.3315
▁அமாவாசை	-11.3318
▁உடலுக்கு	-11.3318
▁தேவையை	-11.3318
▁கடைபிடிக்க	-11.3319
▁ஆபத்தான	-11.332
▁அழிப்ப	-11.332
குளோ	-11.3321
தொடர்பு	-11.3322
கிராம்	-11.3322
▁பாடகி	-11.3323
▁சபையில்	-11.3323
ஆக்சைட	-11.3324
▁நரி	-11.3325
▁இந்தியர்கள்	-11.3328
1,000	-11.3329
▁நினைவுச்	-11.3329
▁அறியப்படுகின்றன	-11.3337
கோவ்	-11.3342
▁பொறியியல	-11.3344
▁உள்ளீடு	-11.3345
▁துரத்த	-11.3345
▁பாடத்திட்ட	-11.3345
▁கூட்டமைப்பின்	-11.3346
▁வரும்போது	-11.3346
▁நஞ்சு	-11.3347
பண்ப	-11.3348
▁கையாண்ட	-11.3349
▁நியமிக்க	-11.3351
இந்தி	-11.3352
▁India	-11.3353
ull	-11.3353
▁மேற்கொள்ளும்	-11.3354
▁தமனி	-11.3355
▁யோகா	-11.3357
▁மற்றைய	-11.3358
▁வாசக	-11.3359
யிறு	-11.3359
▁கண்டுபிடித்து	-11.336
▁வருண	-11.336
▁முப்பரிமாண	-11.3363
▁பட்டுக்கோட்டை	-11.3365
▁இருக்கவில்லை	-11.3367
▁குடல்	-11.3368
▁மட்டு	-11.3369
புரத்தில்	-11.337
▁அனுமதிக்கிறது	-11.3372
▁வம்சம்	-11.3374
▁இருவகை	-11.3376
▁காரணமாகவும்	-11.3379
▁படையினர்	-11.338
▁வந்தான்	-11.3381
▁பாபா	-11.3384
▁நீர்வீழ்ச்சி	-11.3386
▁எஃகு	-11.3386
▁என்பதற்கான	-11.3388
mm	-11.3388
▁வழிகாட்டுதல	-11.339
▁எனப்படுகின்றது	-11.3392
▁Bo	-11.3395
ET	-11.3396
▁காணாமல்	-11.3398
▁இராசி	-11.3403
105	-11.3403
ப்பெறும்	-11.3404
▁புலன்	-11.3405
▁இல்லம்	-11.3406
▁மகிழ்வ	-11.3407
▁உபயோகப்படுத்த	-11.3407
▁அனைத்திந்திய	-11.3409
கிரிகோரியன்	-11.3409
▁அண்டி	-11.3409
▁அமைத்தார்	-11.341
▁கண்டிப்பாக	-11.3411
▁பிரான்ச	-11.3411
▁பாண்டி	-11.3412
▁தவிர்ப்ப	-11.3415
▁புலவர	-11.3416
▁நடிப்பில்	-11.3418
க்கொடுத்த	-11.3421
▁உலாவி	-11.3422
▁குமரி	-11.3422
▁கருத்தாக்க	-11.3423
த்திலோ	-11.3429
▁நாற்பது	-11.3432
▁விடவும்	-11.3433
▁நாடா	-11.3435
▁குட்டை	-11.3435
▁அழைக்கிறார்கள்	-11.3435
▁பாடல்களும்	-11.3435
▁பகல	-11.3437
▁கொழும்பில்	-11.3439
▁விடுவிக்க	-11.3442
▁வகைகளாக	-11.3445
▁நடத்தப்படுகிறது	-11.3446
▁அயோடின்	-11.3447
▁உறுப்பினர்களாக	-11.3451
கொண்டார்	-11.3451
▁சுட்டுக்	-11.3452
▁கடிதம்	-11.3453
▁சொத்துக்கள	-11.3454
சியர்	-11.3454
▁பொருண்மை	-11.3455
▁வெள்ளிக்கிழமை	-11.3455
▁இறால்	-11.3455
col	-11.3456
▁லூயிஸ்	-11.3457
▁உக்ரைன	-11.3457
eng	-11.3459
யோட்ட	-11.3461
▁அமுக்க	-11.3461
விளையாடியுள்ளார்	-11.3467
▁பொருளாதாரத்தில்	-11.3473
▁மருவி	-11.3473
குளோர	-11.3474
▁இருக்கின்றனர்	-11.3474
2013	-11.3475
▁உருக	-11.3478
▁நிரம்பிய	-11.3481
▁Ho	-11.3481
ave	-11.3482
▁இயக்குநர	-11.3482
ஹான்	-11.3486
▁சவுத்	-11.3489
மின்மை	-11.3492
▁பொருத்தப்பட்ட	-11.3495
▁திலக	-11.3496
▁வழங்கப்பட	-11.3498
▁தோல்வியுற்ற	-11.3501
▁காப்பீடு	-11.3502
▁விளக்கி	-11.3503
=111	-11.3504
க்கோயில்	-11.3505
ஸ்டீ	-11.351
▁சமயத்தின்	-11.3511
▁அதன்பிறகு	-11.3511
▁க்ள	-11.3511
▁பிரான்சிய	-11.3514
▁தபால்	-11.3516
ஷ்ய	-11.3517
▁தாவரங்களில்	-11.3517
டேன்	-11.3521
▁காக்கும்	-11.3521
▁வேள்வி	-11.3524
▁உதவினார்	-11.3525
▁காரைக்குடி	-11.3525
▁செய்தித்தாள்	-11.3525
▁வருடத்தில்	-11.3526
ப்பதிவு	-11.3533
▁இச்சட்ட	-11.3537
யாளரும்	-11.3541
▁நிகழ்வை	-11.3541
▁அலெக்சாண்டர்	-11.3542
▁நெடுங்க	-11.3545
▁சொற்பொழிவு	-11.3547
▁பிலிம்பேர்	-11.3547
▁ஓசோன்	-11.3547
▁விரிவடைந்த	-11.3547
▁சிலந்தி	-11.3547
புனித	-11.3547
▁தடகள	-11.3548
வகையில்	-11.3548
▁இஸ்ரேல	-11.3549
ection	-11.355
▁இம்மாநில	-11.355
▁குறைக்கும்	-11.3551
▁பழி	-11.3552
▁மீட்பு	-11.3552
▁தர்க்க	-11.3552
▁3000	-11.3554
குளோரைடு	-11.3556
▁இருப்பவர்	-11.3558
▁உடைமை	-11.3558
▁புத்தகங்களை	-11.356
சைடு	-11.3561
▁அறிக்கையில்	-11.3562
▁இக்கதை	-11.3562
▁கலப்ப	-11.3563
▁ஜீன்	-11.3564
தென்னாப்பிரிக்கா	-11.3565
=241	-11.3566
▁நோயாளிகளுக்கு	-11.3567
▁வினாடி	-11.3569
ஸ்ஸா	-11.3569
▁துகள்கள்	-11.3569
▁அதிகாலை	-11.357
▁சரிவு	-11.3571
▁கிளப்	-11.3572
▁ஆரம்பித்தது	-11.3572
▁வசதிகளை	-11.3573
▁எருமை	-11.3573
ms	-11.3573
மினோ	-11.3577
▁தருண	-11.3577
▁விலகினார்	-11.3582
-7	-11.3583
தையடுத்து	-11.3583
மெரி	-11.3583
▁சேமிப்ப	-11.3587
யாளி	-11.3587
▁இலக்காக	-11.3593
▁அமோனியம்	-11.3593
▁நீர்ப்பாசன	-11.3593
▁வகையிலும்	-11.3597
▁சமன்	-11.3597
▁நம்புகின்றனர்	-11.36
▁வெப்பத்தை	-11.3601
▁விருதைப்	-11.3604
வோடு	-11.3605
▁பாண	-11.3607
▁பெருங்கோவில்	-11.3609
▁ஏற்படுத்துகிறது	-11.3611
Jo	-11.3613
▁இல்லாததால்	-11.3617
டர்ஸ்	-11.3618
▁பிடாரியம்மன்	-11.3618
▁பங்கேற்றார்	-11.3618
▁கல்லூரியின்	-11.3619
▁கற்பித்தல்	-11.3623
▁ஈர்த்த	-11.3624
Pro	-11.3625
பெர்ட்	-11.3628
▁விலங்குகளை	-11.3628
▁தடுத்த	-11.3628
=110	-11.3629
▁சேரும்	-11.363
Le	-11.363
▁முற்	-11.3633
▁இராச்சியத்தில்	-11.3635
போக	-11.3637
▁அங்கேயே	-11.3637
▁கூட்டாக	-11.3637
▁ஆசிரியராகவும்	-11.3639
=135	-11.3639
▁அமைச்சரவையில்	-11.3642
▁முக்தி	-11.3642
நாட்டை	-11.3643
="111	-11.3644
க்கொள்வத	-11.3645
ப்பிடிப்ப	-11.3645
புதினம்	-11.365
யாருக்கு	-11.3651
▁தாக்குதல	-11.3653
▁பெயராக	-11.3654
▁வீதியில்	-11.3654
=121	-11.3655
ுமென	-11.3656
ழற்சி	-11.3658
0°	-11.366
▁Be	-11.3662
யோக	-11.3663
▁ஒருங்கிணைத்த	-11.3663
▁விருந்து	-11.3664
▁சீனிவாச	-11.3665
▁செய்துள்ளது	-11.3667
▁1898	-11.3668
சௌ	-11.3669
own	-11.3671
▁தொன்மையான	-11.3673
▁கணவாய்	-11.3673
ாமலேயே	-11.3673
ராலும்	-11.3673
▁கயிறு	-11.3675
▁மொழிகளிலும்	-11.3681
பிரே	-11.3683
▁வினைகளில்	-11.3684
▁நற்கருணை	-11.3687
▁ஒட்டுண்ணி	-11.3688
▁கிருட்டிணகிரி	-11.3688
▁நடராச	-11.3689
▁கும்பகோணத்த	-11.3689
கொள்வர்	-11.369
▁விலங்கின	-11.3695
▁160	-11.3696
ஷீ	-11.3698
▁குறிப்பிடுகின்ற	-11.3699
வீதி	-11.3699
▁இயேசுவை	-11.37
மூன்று	-11.3702
▁தண்ணீரில்	-11.3702
▁பெரும்பாலானவை	-11.3705
▁சரணாலயம்	-11.3705
▁திரிபு	-11.3707
▁நியமித்த	-11.3708
பூர்வமாக	-11.3708
ாம்பாள்	-11.3709
▁இங்க	-11.3715
▁மகிழ்ந்த	-11.3715
மில்லாமல்	-11.3715
▁இப்போர	-11.3716
▁நிலவுகிறது	-11.372
▁செயல்பாட்டை	-11.3721
▁பக்கங்கள்	-11.3721
▁ஜான்சன்	-11.3722
நிறுத்த	-11.3722
▁நெற்	-11.3725
▁கண்டறிந்து	-11.3725
NT	-11.3727
▁பிரியா	-11.3728
த்திலிருந்த	-11.3728
த்தம்மன்	-11.373
ஆண்டு	-11.3731
நிரல்	-11.3732
த்திலிருந்தே	-11.3732
▁தெற்காசியா	-11.3732
▁திராட்சை	-11.3734
127	-11.3735
▁பதிக	-11.3735
▁இடதுசாரி	-11.3735
▁கூட்டாளி	-11.3739
▁மேசை	-11.374
▁வருவதற்கு	-11.374
ans	-11.3741
கொல்லி	-11.3743
▁நிகழ்ச்சிகளில்	-11.3744
ene	-11.3745
▁இருப்பின்	-11.3747
▁இண்டி	-11.3748
▁காற்றை	-11.375
வராயன்	-11.3752
▁இருக்கிறார்கள்	-11.3756
Ba	-11.3757
▁அமைந்தன	-11.3757
விற்கான	-11.3757
▁பரிவர்த்தனை	-11.3758
▁போட்ட	-11.376
▁படைவீரர்	-11.3761
▁ஓராண்டு	-11.3761
கப்பல்	-11.3762
▁சகல	-11.3765
▁தொழிற்சாலைகள்	-11.3769
▁அண்டை	-11.3769
▁அக்பர்	-11.3771
3,000	-11.3775
புலியூர்	-11.3776
▁நடத்தினர்	-11.378
World	-11.3781
▁பதினான்கு	-11.3781
▁தானாகவே	-11.3781
199	-11.3782
▁வரதராஜ	-11.3782
▁ஒப்பீட்டளவில்	-11.3782
▁குடியேறி	-11.3784
▁தூண்டி	-11.3785
ங்கரை	-11.3785
வுக்கான	-11.3787
▁தனித்துவ	-11.3789
▁கலக்கிறது	-11.3789
ோரும்	-11.379
இயக்க	-11.3791
▁சரண	-11.3797
▁கதிர்வீச்ச	-11.3799
="110	-11.3803
▁இதிகாச	-11.3805
▁அனுராதபுர	-11.3805
▁தொழிலதிபர	-11.3805
▁இருக்கக்கூடும்	-11.381
▁வளங்களை	-11.3811
இந்து	-11.3817
▁நிலைநாட்ட	-11.3817
▁இந்தியாவிலும்	-11.3819
ுவதையும்	-11.3823
ake	-11.3823
ச்செடி	-11.3823
oor	-11.3825
செல்வ	-11.3828
▁தரையிறங்க	-11.3829
▁சாமுவேல்	-11.3829
▁பதினாறு	-11.3829
▁இராகமாகிய	-11.383
RI	-11.3831
▁ஆல்பா	-11.3831
நுட்ப	-11.3832
▁நரம்ப	-11.3832
யுரு	-11.3833
▁வழிமுறைகள்	-11.3833
▁புஷ்	-11.3834
▁மெட்ரிக்	-11.3838
▁கோல்ட்	-11.3843
hr	-11.3844
▁திரையரங்கு	-11.3845
ாம்பட்டி	-11.3845
lin	-11.3847
▁அயோத்தி	-11.3851
▁மிகச்சிறிய	-11.3853
▁நவக்கிரக	-11.3853
▁மெழுகு	-11.3853
முடியாது	-11.3854
▁வங்கியின்	-11.3854
இலிருந்து	-11.3856
வகையான	-11.3857
பிரிட்	-11.3858
▁இயந்திரங்கள்	-11.3858
▁அணியை	-11.386
_4	-11.3861
ிரண்டு	-11.3862
="241	-11.3863
▁நிறுவனங்களை	-11.3863
பல்ல	-11.3864
▁தம்பதி	-11.3866
=134	-11.3873
▁நாகரீக	-11.3877
▁ஐம்ப	-11.3877
▁முன்னேறி	-11.3878
▁வாழ்வின்	-11.3881
▁வெங்கடேச	-11.3881
▁நோயாளிகள்	-11.3885
வெறு	-11.3886
சைட்	-11.3887
▁ஆளுகை	-11.3888
▁சூரியனின்	-11.3889
▁முற்காலத்தில்	-11.389
▁பிரச்சினைகளை	-11.3891
▁இழுக்க	-11.3892
ope	-11.3892
▁பெருக்கி	-11.3893
ினாள்	-11.3893
ger	-11.3894
▁செய்கை	-11.3894
▁அவரும்	-11.3895
▁வேலைப்பாடு	-11.3896
=117	-11.3899
▁அழிவ	-11.3899
=103	-11.3899
கருவி	-11.39
▁நடிகராக	-11.3901
Tamil	-11.3901
மாட்டார்	-11.3902
▁நியமனம்	-11.3902
OS	-11.3903
ஸ்ட்ரோ	-11.3904
▁பாதுகாக்கும்	-11.3904
="121	-11.3904
▁பஞ்சமம்	-11.3905
ப்பந்து	-11.391
▁நூலான	-11.3912
▁தாய்மொழி	-11.3913
ரங்கு	-11.3915
133	-11.3916
▁விளையும்	-11.3918
▁உடன்பாடு	-11.3918
ப்படுவர்	-11.3919
▁தருகின்றன	-11.3923
பரமேஸ்வர	-11.3924
▁எரிவாயு	-11.3926
▁மேலாளர்	-11.3927
▁1800	-11.3927
ங்களினால்	-11.3933
▁கோபுரங்கள்	-11.3935
வருமான	-11.3935
▁தேர்ந்த	-11.3935
Sc	-11.3936
par	-11.3937
பெரி	-11.3939
▁தொழு	-11.3939
பொதுவாக	-11.3941
▁மட்டை	-11.3945
▁ஒப்புமை	-11.3946
▁ஏழ	-11.3946
▁லண்டனில்	-11.3949
▁மராட்டிய	-11.3949
▁ஒர	-11.395
▁தியேட்டர	-11.3951
▁ஜூலியன்	-11.3951
களுக்கிடையில்	-11.3951
▁மாநிலங்களின்	-11.3957
லேண்ட்	-11.3957
▁சோனி	-11.3962
cent	-11.3965
▁ஏதோ	-11.3967
ுகிறேன்	-11.3968
▁விரிவு	-11.397
▁பல்வேறுபட்ட	-11.397
ef	-11.397
▁துன்புறுத்த	-11.3973
▁ஒன்றிணைந்த	-11.3973
▁ப்ளூ	-11.3974
▁காசுமீர	-11.3975
▁முடியாட்சி	-11.3976
▁பின்னணியில்	-11.3977
▁பதிப்பில்	-11.3981
▁நீடித்தது	-11.3982
ott	-11.3982
▁மாட்டு	-11.3983
▁கூறப்படுகின்றது	-11.3987
▁நிறுவனங்களும்	-11.3988
▁பட்டின	-11.3991
▁படையெடுத்த	-11.3991
▁இக்கிராமம்	-11.3995
▁குடிசை	-11.3996
வாசுதேவ	-11.3996
▁வாஷிங்டன	-11.3997
▁1896	-11.4
▁புரிதல	-11.4
▁ஆற்றை	-11.4
▁செயல்பட்டார்	-11.4
▁கலப்பின	-11.4003
மடைந்து	-11.4004
▁நேரியல்	-11.4004
iss	-11.4005
▁பிடித்தது	-11.4006
▁அம்சங்கள	-11.4007
▁குழந்தையின்	-11.4009
▁பகிர	-11.4012
ED	-11.4012
கொள்வது	-11.4013
சிட்டி	-11.4014
ல்லியன்	-11.4017
▁காணப்படுவது	-11.4017
▁வரவேற்பைப்	-11.4019
104	-11.402
▁இன்றளவும்	-11.4021
▁இலும்	-11.4022
▁நைட்ரேட்டு	-11.4022
▁பாஸ்கர	-11.4023
▁வலியுறுத்தி	-11.4023
நிர்	-11.4024
▁இரண்டுமே	-11.4025
நாயக்கன்	-11.4025
▁ஒப்படைத்த	-11.4026
ative	-11.4029
▁அஞ்சலி	-11.4031
▁நுண்ணறிவு	-11.4034
▁ஈடுபடும்	-11.4034
▁பூமியை	-11.4037
▁சொந்தமாக	-11.4037
லாகும்	-11.4038
="134	-11.4039
MA	-11.404
▁ஒரேயொரு	-11.4046
▁தட்டை	-11.4046
குப்தர்	-11.4046
▁குடை	-11.4047
வீடு	-11.4049
▁நடத்தியது	-11.405
▁இடம்பெற்றுள்ள	-11.4055
▁1915	-11.4057
▁இதேபோல	-11.4058
▁கணவன்	-11.4059
ென்பது	-11.4062
▁பணியாளர்கள்	-11.4063
▁முடிந்து	-11.4064
▁திருக்குறள	-11.4064
▁சீராக	-11.4064
படியே	-11.4067
நுண்	-11.4067
▁சாத்தியமான	-11.4069
▁நீரிழிவு	-11.407
▁விகடன்	-11.407
ள்ளேயே	-11.4073
▁1890	-11.4075
▁சேகரித்து	-11.4076
ali	-11.4079
▁மானிய	-11.4079
புரு	-11.4081
▁தொடராக	-11.4081
▁இடம்பெற்றன	-11.4082
▁ராணா	-11.4082
Ab	-11.4083
▁படமாக்க	-11.4088
ஆல	-11.4091
▁ஆயுதங்கள்	-11.4092
▁கிருட்டிண	-11.4094
▁திருத்தூதர்	-11.4095
▁தொகுப்பை	-11.4095
▁விபத்தில்	-11.4095
▁இழந்தார்	-11.4098
▁காட்டில்	-11.41
▁கொழு	-11.4101
▁எண்ணெய	-11.4103
▁உண்ட	-11.4104
▁ரோட்	-11.4105
▁நெல்லி	-11.4106
▁லூக்கா	-11.4109
▁மோசமாக	-11.4112
றிஞர	-11.4114
ாயுத	-11.4114
▁சதவிகிதம்	-11.4115
=165	-11.4117
தர்ம	-11.4118
▁கோதாவரி	-11.4119
▁நெப்போலியன	-11.4119
="135	-11.4121
▁குங்கும	-11.4121
▁கல்கி	-11.4122
ப்பிட்ட	-11.4122
▁முழங்க	-11.4124
▁உயிரிய	-11.4124
▁சர்மா	-11.4124
ual	-11.4125
▁வளங்கள்	-11.4125
▁இணையத்தில்	-11.4126
மென்ட்	-11.4128
oli	-11.413
▁காரணியாக	-11.4131
▁கருத்தியல்	-11.4131
▁இத்திட்டம்	-11.4132
▁சிறுத்தை	-11.4134
=136	-11.4136
▁அரிதான	-11.4136
▁பார்வையில்	-11.4137
102	-11.4137
▁வாய்ந்தது	-11.414
ுதலும்	-11.4141
▁விற்று	-11.4144
▁சிறைச்சாலை	-11.4145
கொடுக்க	-11.4145
▁பதிப்பித்த	-11.4146
டனும்	-11.415
▁சந்ததி	-11.4151
▁வைத்தது	-11.4151
▁உண்டா	-11.4151
ச்சார	-11.4154
▁கல்லா	-11.4156
▁தாவரங்களின்	-11.4157
▁நாட்டுக்கு	-11.4158
▁குழல	-11.4159
Ag	-11.4159
▁ஈஸ்வர	-11.416
▁படுகை	-11.4161
="165	-11.4161
▁ஊடகங்கள்	-11.4161
ற்காடு	-11.4162
▁கிறித்தவர்கள்	-11.4163
▁விழாக்கள்	-11.4166
▁ஹாலிவுட்	-11.4168
இவ்வ	-11.4168
▁கையகப்படுத்த	-11.4168
▁பாலசுப்பிரமணிய	-11.4169
ந்தலை	-11.4172
▁அவற்றுக்கு	-11.4172
Ni	-11.4175
=291	-11.4181
▁திரிபுரா	-11.4182
▁by	-11.4182
▁பகுதியிலிருந்து	-11.4188
▁கணவர	-11.4189
▁ஊடு	-11.4191
ுருவாக்க	-11.4191
▁தளர்ச்சி	-11.4193
▁மன்னிப்பு	-11.4194
▁ஆண்டாகும்	-11.4198
▁யூதர்	-11.4199
▁தெரிவிக்கிறது	-11.4201
யாளரான	-11.4203
▁என்கின்றனர்	-11.4204
▁பிராண	-11.4206
ச்சட்ட	-11.4206
▁எத்தனால	-11.4209
out	-11.4209
▁காட்டாக	-11.421
▁சீட்டு	-11.4211
▁மேயர்	-11.4216
▁துறவற	-11.4218
▁நிலைப்புத்தன்மை	-11.4218
▁பிலிப்பீன்ச	-11.4218
▁உடனடி	-11.4219
▁நூலுக்கு	-11.4221
▁வலிப்பு	-11.4222
="291	-11.4223
▁1904	-11.4225
▁அமைச்சகம்	-11.4225
▁பாதுகாப்பாக	-11.4226
▁உண்டாக்கும்	-11.423
ப்பண்பு	-11.4231
=112	-11.4235
பிஎஸ்	-11.4235
Ph	-11.4236
▁மேற்புற	-11.4237
▁மொழிபெயர்ப்ப	-11.4238
▁சுற்றுச்சூழல	-11.4238
▁வருடத்திற்கு	-11.4242
=168	-11.4244
▁அரசமரப	-11.4245
▁திருப்பத்தூர்	-11.4246
▁அகழ்	-11.4246
▁ஆந்திரா	-11.4246
ture	-11.4249
▁நகரங்களுக்கு	-11.4251
வர்களாகவும்	-11.4252
▁அளவாக	-11.4253
▁பாடலாக	-11.4253
முத்துமாரியம்மன்	-11.4255
▁கிறித்தவர்	-11.4255
▁இவ்வின	-11.4257
▁ஒளியியல்	-11.4259
[[	-11.4259
நாராயணப்பெருமாள்	-11.4262
மேனியா	-11.4265
▁பறந்து	-11.4265
’’	-11.4265
port	-11.4267
SS	-11.4267
▁இலையுதிர்	-11.4267
▁மரணமடைந்தார்	-11.4267
▁முழுவதையும்	-11.4268
="168	-11.4269
▁பாவனை	-11.4269
=232	-11.427
▁உண்மையாக	-11.4272
-9	-11.4274
க்குள்ளாக	-11.4274
▁மெட்ரோ	-11.4275
▁110	-11.4278
="117	-11.428
டைதல்	-11.4281
="112	-11.4282
▁விழும்	-11.4283
ப்பொருட்களை	-11.4286
▁செதுக்கப்பட்ட	-11.4292
▁பார்க்கவும்	-11.4292
▁மேளமாகிய	-11.4292
▁செவ்வக	-11.4294
▁விளையாட்டுகளில்	-11.4295
▁அரங்கேற்ற	-11.4296
▁நீச்சல்	-11.4296
ada	-11.4297
=224	-11.4297
▁சீர்தர	-11.43
▁130	-11.4301
var	-11.4302
▁பொறுப்பேற்றார்	-11.4302
▁தட்பவெப்ப	-11.4306
▁தொடரும்	-11.4308
மைப்பை	-11.4309
▁மங்கோலியர்	-11.431
மென்று	-11.4314
விழ்	-11.4315
இதில்	-11.4315
மாணிக்கம்	-11.4317
▁பந்தை	-11.4319
ந்தோறும்	-11.4321
▁மார்ப	-11.4322
▁என்பவன	-11.4328
▁நுண்ம	-11.4335
▁Tr	-11.4336
ட்டிலிருந்து	-11.4336
▁வாழ்ந்தனர்	-11.4338
▁நன்னீர்	-11.4338
▁அதிபராக	-11.4338
▁வெண்ண	-11.434
▁இதழை	-11.4342
▁தேடல்	-11.4344
▁பேராய	-11.4345
▁அடுத்ததாக	-11.4345
▁என்பனவாகும்	-11.4346
▁ஜூலி	-11.4348
anth	-11.4348
▁படலம்	-11.4349
ire	-11.435
▁சௌந்தர	-11.4352
▁ரிஷி	-11.4353
▁விளைவிக்கும்	-11.4354
▁1903	-11.4355
▁வளர்ந்தார்	-11.4356
கிறேன்	-11.4356
▁எந்தவித	-11.4357
களாய்	-11.4358
யடுத்து	-11.4363
▁விமானங்கள்	-11.4364
▁சொல்வத	-11.4364
[...]
