<unk>	0
<s>	0
</s>	0
.	-3.04693
,	-3.73844
▁	-4.33228
"	-4.65909
ம்	-4.69299
="	-4.75747
க்	-4.94869
ப்	-4.99399
doc	-5.07301
கள்	-5.07628
்	-5.3333
)	-5.38481
▁(	-5.42036
த்	-5.42682
▁ஒரு	-5.49748
▁மற்றும்	-5.50963
d	-5.58061
/	-5.64493
>	-5.69503
ன்	-5.70746
ta	-5.72214
ு	-5.73666
?	-5.73758
▁<	-5.73955
://	-5.75524
org	-5.75924
https	-5.76287
▁</	-5.76389
wikipedia	-5.76452
wiki	-5.76453
url	-5.7652
curi	-5.766
▁title	-5.76649
▁id	-5.76664
">	-5.77756
ல்	-5.78961
ும்	-5.8505
ர்	-5.85397
து	-5.85483
▁"	-5.89759
▁இந்த	-5.93694
ய	-5.97812
யில்	-6.02099
ச்	-6.02583
ஸ்	-6.03458
த்தில்	-6.07806
=	-6.10535
-	-6.11806
க	-6.1662
ட்	-6.1893
ின்	-6.19093
க்கு	-6.20139
▁ஊராட்சி	-6.21814
▁அ	-6.23806
களை	-6.24431
ன	-6.24601
ங்கள்	-6.25431
களில்	-6.29735
▁இது	-6.30315
யின்	-6.30484
▁என்ற	-6.33904
வ	-6.35304
▁உள்ள	-6.3776
:	-6.39097
▁ஆகும்	-6.39882
ம	-6.39901
ில்	-6.43643
ி	-6.44687
த	-6.44776
▁ஆம்	-6.4829
▁க	-6.49278
சு	-6.50175
▁ஆண்டு	-6.50881
த்தின்	-6.50973
யை	-6.51646
ை	-6.54282
ரி	-6.54407
ர	-6.54844
டி	-6.55748
களின்	-6.55925
ப	-6.57779
க்க	-6.58101
த்த	-6.58912
தி	-6.60953
த்தை	-6.60959
சி	-6.61015
▁பல	-6.62114
▁என்பது	-6.62154
▁இவர்	-6.63423
▁இ	-6.64513
▁கோயில்	-6.6681
▁அல்லது	-6.67176
▁உள்ளது	-6.67913
வை	-6.68035
ா	-6.68223
வர்	-6.70122
லி	-6.72145
▁மக்கள்	-6.72783
கா	-6.73958
ச	-6.74068
ார்	-6.74173
வி	-6.74668
ந்த	-6.75347
ரா	-6.77029
மாக	-6.78231
யும்	-6.79102
▁என்று	-6.8118
▁இருந்து	-6.81755
மா	-6.82073
னி	-6.82459
ல	-6.83994
▁முதல்	-6.84066
டு	-6.84872
▁இந்திய	-6.85441
ஆம்	-6.8559
களும்	-6.86702
ப்ப	-6.86887
ிய	-6.87408
லா	-6.87443
▁("	-6.88601
த்து	-6.88671
வு	-6.90479
ப்படுகிறது	-6.92796
▁என	-6.92949
வா	-6.9297
ட	-6.9325
மான	-6.93342
▁ச	-6.94193
பி	-6.94254
ப்பு	-6.94644
மை	-6.97886
▁த	-6.98673
யா	-6.99781
▁ப	-7.00337
ரை	-7.01302
▁என்னும்	-7.01458
கு	-7.02018
▁கா	-7.02976
யாக	-7.03088
▁போன்ற	-7.04238
மி	-7.04343
ப்பட்ட	-7.05977
▁சில	-7.06406
வும்	-7.06587
▁வி	-7.06708
னா	-7.07893
▁7	-7.07996
வே	-7.08893
லை	-7.0911
▁தொகை	-7.11121
பா	-7.11736
▁அமைந்துள்ள	-7.12367
வின்	-7.12738
▁சி	-7.13005
▁கொண்ட	-7.13007
தா	-7.13304
ுள்ளது	-7.1554
▁கி	-7.16059
அ	-7.16069
களுக்கு	-7.17499
2	-7.18221
ங்களில்	-7.18243
கி	-7.18677
▁அவர்	-7.18944
னர்	-7.19222
▁-	-7.19656
▁இல்	-7.20189
▁பா	-7.20874
▁மேலும்	-7.21
ட்டு	-7.21082
▁ஆ	-7.21674
ங்	-7.21849
▁எ	-7.21904
ாக	-7.22727
s	-7.2426
க்கும்	-7.24968
▁பி	-7.25034
▁உ	-7.25311
சா	-7.25483
▁ம	-7.26687
▁18	-7.26786
▁மு	-7.28346
னை	-7.29209
ே	-7.29282
▁வரை	-7.29837
ட்டி	-7.30194
ந்து	-7.30257
த்தி	-7.31054
ட்ட	-7.32081
▁பயன்படுத்த	-7.32887
ரு	-7.33035
▁சா	-7.33157
▁மா	-7.33315
5	-7.3386
▁இரு	-7.35492
▁இக்கோயில்	-7.35877
மும்	-7.35941
▁ஆண்டில்	-7.36391
;	-7.36927
யான	-7.37621
▁இதன்	-7.37809
▁அமைந்துள்ளது	-7.3859
▁கு	-7.3859
▁உள்ளன	-7.38663
),	-7.39807
ள	-7.40114
4	-7.40405
ங்களை	-7.41836
ப்பட்டது	-7.41938
ப்படும்	-7.4217
▁சு	-7.42513
3	-7.44322
ால்	-7.44649
தாக	-7.44657
▁மாவட்டம்	-7.4535
ற்ற	-7.45351
▁பின்னர்	-7.45573
வில்	-7.45733
றி	-7.45825
▁ந	-7.45877
▁இருக்கும்	-7.46315
த்திற்கு	-7.46491
டை	-7.47872
ான	-7.48017
கோ	-7.48087
ங்க	-7.48218
▁ஏ	-7.49795
▁மூலம்	-7.51201
▁19	-7.51334
மே	-7.52084
று	-7.52715
▁அதன்	-7.53185
ரோ	-7.53264
மு	-7.53267
இ	-7.53558
6	-7.53566
▁தமிழ்	-7.5379
▁தொகுதிக்கும்	-7.53795
▁திரு	-7.54254
▁பேரும்	-7.5457
▁கொண்டு	-7.54766
▁மொழி	-7.54774
ணி	-7.5533
கை	-7.55634
யே	-7.56193
ுக்கு	-7.56516
▁முக்கிய	-7.56732
களையும்	-7.56874
")	-7.57812
1	-7.58307
▁வளர்ச்சி	-7.58347
▁மாவட்டத்தில்	-7.58734
ண	-7.58777
▁தனது	-7.59439
▁இரண்டு	-7.59673
▁ஆகிய	-7.59874
ளி	-7.60184
▁கால	-7.60316
▁ஆனால்	-7.61117
▁செ	-7.61229
▁அந்த	-7.61634
பு	-7.61783
▁இருந்த	-7.62075
தை	-7.6327
ோ	-7.63884
▁மே	-7.63901
டா	-7.63943
8	-7.65193
லாம்	-7.65226
யோ	-7.65605
▁தி	-7.66009
▁இக்கோயிலில்	-7.66038
7	-7.66187
ரின்	-7.66216
▁தா	-7.66827
▁நிலை	-7.67592
0	-7.67791
e	-7.67958
▁பெயர்	-7.68045
ச்சி	-7.68255
▁போது	-7.6869
▁தமிழ்நாடு	-7.69448
▁பெரிய	-7.69465
▁முறை	-7.6952
களைக்	-7.69708
S	-7.69798
▁கொண்டுள்ளது	-7.69849
20	-7.70381
டன்	-7.704
▁கோ	-7.70787
▁ஆவார்	-7.71154
▁வா	-7.71875
▁துடுப்பாட்டப்	-7.71966
'	-7.72026
▁இந்து	-7.72765
▁பு	-7.72834
▁தேசிய	-7.73527
▁மொத்த	-7.74292
ய்	-7.74475
▁பெண்கள்	-7.74753
▁டி	-7.75028
▁2011	-7.75124
y	-7.75204
▁இவை	-7.75386
சன்	-7.75783
ினார்	-7.75853
▁வ	-7.75942
யி	-7.77357
ரே	-7.77729
A	-7.77759
▁ஐ	-7.78122
▁பகுதி	-7.78236
▁கொ	-7.78659
▁பெற்ற	-7.78943
▁வகை	-7.79065
(	-7.79189
ண்ட	-7.79342
9	-7.79454
களால்	-7.79807
ங்களின்	-7.80188
னின்	-7.80212
▁சட்டமன்றத்	-7.80224
▁அது	-7.80627
▁கே	-7.81218
▁பட்டியல்	-7.8157
▁என்றும்	-7.81637
க்கி	-7.82322
10	-7.82525
▁பூ	-7.82992
▁1	-7.83143
▁தேர்ந்தெடுக்க	-7.83213
களாக	-7.83439
வர	-7.83565
ப்படுகின்றன	-7.83669
வ்	-7.83743
▁ஒன்று	-7.84581
▁போ	-7.85068
▁பூசை	-7.8519
ப்பட	-7.85597
▁இங்கு	-7.86029
▁நா	-7.86033
▁அரசு	-7.8631
▁4	-7.86604
க்கா	-7.87055
▁உள்ளனர்	-7.87142
▁மூன்று	-7.87215
ற	-7.87435
▁கீழ்	-7.87597
▁வேண்டும்	-7.87704
இல்	-7.87795
யர்	-7.88401
ள்	-7.88765
▁பிற	-7.88804
C	-7.89202
ச்ச	-7.89219
a	-7.89255
▁மிகவும்	-7.89268
▁து	-7.89643
▁வந்த	-7.89645
▁தகவல்	-7.89834
o	-7.89993
▁அவரது	-7.90197
▁வெளி	-7.90405
▁நகர	-7.9047
al	-7.90592
▁அணி	-7.90854
லோ	-7.90858
▁கல்வி	-7.91108
ழ	-7.91181
▁தமிழ்நாட்டில்	-7.91678
▁செய்ய	-7.91786
▁நில	-7.91893
▁5	-7.92077
சை	-7.92188
▁3	-7.92295
▁தர	-7.92575
n	-7.92595
▁மன்ற	-7.93174
ப்பட்டு	-7.93189
16	-7.93747
▁அடி	-7.93852
19	-7.93854
கம்	-7.93921
▁ஊரில்	-7.94263
ஜி	-7.94424
17	-7.94619
▁எனும்	-7.94801
ந	-7.95578
ஆ	-7.95745
வோ	-7.9651
▁2	-7.96722
▁உலக	-7.96811
▁10	-7.96873
▁மக்களவைத்	-7.97026
ிலும்	-7.97743
ிற்கு	-7.97756
▁இட	-7.97813
▁அமெரிக்க	-7.97842
i	-7.98019
ரிய	-7.98062
ர்கள்	-7.98158
ண்	-7.98213
15	-7.98394
▁மாதம்	-7.98471
▁ஆண்கள்	-7.98715
க்கள்	-7.98792
நிலை	-7.98817
▁2015	-7.98879
மீ	-7.9964
வது	-7.99767
ுகின்றன	-8.00013
13	-8.00077
▁மலை	-8.00159
▁6	-8.00456
▁அவை	-8.00473
▁தன்	-8.00821
படி	-8.00967
▁போர்	-8.01134
▁தீ	-8.0143
▁ஓ	-8.01458
▁தமிழ்நாட்டின்	-8.01687
போது	-8.01783
▁பின்	-8.02501
▁அதிக	-8.02674
▁நிர்வகிக்க	-8.02784
ண்டு	-8.02843
ஷ்	-8.0287
ின்றனர்	-8.03003
போ	-8.03116
▁ஆறு	-8.03528
▁இவற்றில்	-8.03924
▁இயக்க	-8.03954
ங்கு	-8.0399
ுதல்	-8.03999
▁கட்டுப்பாட்டில்	-8.04163
▁கலந்து	-8.0417
30	-8.042
ப்பி	-8.04216
P	-8.0425
▁மெ	-8.04271
14	-8.04341
▁இருந்தது	-8.04483
ற்று	-8.04514
லே	-8.04753
M	-8.04771
வன்	-8.04821
12	-8.04896
▁சேர்ந்தது	-8.05284
▁கை	-8.05414
மாகும்	-8.05534
▁பட	-8.05793
▁தொகுதி	-8.05823
▁பல்வேறு	-8.05898
▁வர	-8.06134
▁17	-8.06444
▁மொத்தம்	-8.06552
▁இதில்	-8.06824
25	-8.07044
▁கோயிலாகும்	-8.07425
களைப்	-8.07795
18	-8.08039
▁நி	-8.08096
▁சேர்ந்த	-8.08292
ணக்கெடுப்பின்படி	-8.08364
▁நூற்றாண்டைச்	-8.08401
▁செய்து	-8.08546
u	-8.08564
ான்	-8.08632
▁இசை	-8.08865
▁ஆர்	-8.08876
▁'	-8.09322
▁உருவாக்க	-8.0955
யாகும்	-8.09583
▁விட	-8.09696
▁வகைப்பாட்டில்	-8.09699
யு	-8.0973
▁திரைப்பட	-8.0996
▁புதிய	-8.09974
▁பொதுவாக	-8.10166
ங்களும்	-8.10251
காலப்	-8.10374
விட	-8.10489
கே	-8.10531
h	-8.10988
er	-8.11186
▁ஒ	-8.11246
னோ	-8.11276
தால்	-8.11434
▁15	-8.11437
11	-8.11468
▁இவர்களில்	-8.11636
▁மிக	-8.1171
▁அறநிலையத்துறைய	-8.11994
▁ஓர்	-8.12083
▁ஈ	-8.12237
ோர்	-8.12245
சோ	-8.12292
40	-8.12533
ுள்ள	-8.12562
▁பிர	-8.13006
▁படி	-8.13075
ுகிறது	-8.1321
டோ	-8.13407
"),	-8.13637
த்தா	-8.13968
21	-8.14062
▁அமைப்பு	-8.14143
▁12	-8.14163
ஞ்ச	-8.14337
எ	-8.14491
t	-8.14634
ியது	-8.14951
▁திருக்கோயில்	-8.14969
றை	-8.15115
ியல்	-8.15216
▁துறையின்	-8.15443
ழு	-8.15534
ற்	-8.15538
▁பெற	-8.15696
26	-8.15917
ட்டா	-8.15964
கர்	-8.1624
லின்	-8.16331
▁பெ	-8.16394
▁கரு	-8.16413
ுடன்	-8.16476
24	-8.16579
ையும்	-8.16598
ாகும்	-8.16962
வர்கள்	-8.17266
▁காரணமாக	-8.17398
22	-8.17443
31	-8.1749
▁16	-8.18814
▁தலை	-8.18846
க்கான	-8.18965
▁அளவு	-8.19045
▁பொருள்	-8.19181
க்கோ	-8.19262
▁ஆய்வு	-8.19318
32	-8.19553
▁தொகுக்கப்பட்ட	-8.1977
▁வெற்றி	-8.19834
▁அன்று	-8.19841
D	-8.19884
▁முதன்மைத்	-8.19965
r	-8.20148
ந்தி	-8.20238
▁மீ	-8.20332
யிலும்	-8.20441
▁இவரது	-8.20451
▁சார்ந்த	-8.20514
ங்கா	-8.20635
ண்டி	-8.20847
▁மி	-8.20861
▁நீர்	-8.20871
களுடன்	-8.20984
E	-8.21019
ar	-8.21071
ழி	-8.21154
ாத	-8.2116
முறை	-8.21285
ப்பட்டுள்ளது	-8.21358
p	-8.21422
▁அரச	-8.21599
▁சிறு	-8.21663
▁பகுதியில்	-8.22007
▁மாற்ற	-8.22118
N	-8.22391
▁ஊரக	-8.22398
▁பட்ட	-8.22483
▁பணி	-8.22491
யூ	-8.22493
உ	-8.22552
▁கீழ்க்கண்ட	-8.22567
▁சமூக	-8.22587
▁8	-8.22881
▁கலை	-8.22908
▁இந்தியாவின்	-8.23089
28	-8.23224
33	-8.2324
▁பிறகு	-8.23301
▁வடிவ	-8.23619
வில்லை	-8.23671
▁ஆட்சி	-8.23867
▁பொது	-8.24176
38	-8.24204
▁ஸ்	-8.24224
களிலும்	-8.24311
▁S	-8.24385
▁தொகுதிகளைக்	-8.24514
▁வட	-8.24597
▁படை	-8.2488
▁மாநில	-8.24985
▁மன்றத்	-8.25008
செ	-8.25025
▁சிற்றூர்கள	-8.25053
▁நாள்	-8.25125
மோ	-8.25138
ாமல்	-8.25555
▁காலத்தில்	-8.25569
an	-8.25587
▁பள்ளி	-8.2562
▁பரம்பரை	-8.257
▁Gram	-8.25749
▁முன்	-8.25808
▁Panchayat	-8.25966
▁ஊராட்சியில்	-8.25995
▁சட்ட	-8.26075
29	-8.26259
▁ஊ	-8.26263
▁தரவின்படி	-8.26327
35	-8.26494
தன்	-8.26587
▁இன	-8.26814
▁உட்பட்டதாக	-8.26824
தே	-8.2688
▁உறுப்பினர்களைத	-8.26908
▁மற்ற	-8.26961
▁தான்	-8.26976
ட்டை	-8.2699
யம்	-8.27092
▁அவர்கள்	-8.27181
ாலும்	-8.27244
▁தொடர்ந்து	-8.2725
ைக்	-8.27305
▁ஆண்டுத்	-8.27307
▁நடக்கின்றது	-8.27353
▁வட்டாரத்தில்	-8.27682
த்துக்கு	-8.27782
▁இந்தியா	-8.27939
ப்பா	-8.27993
▁துணை	-8.28026
▁ர	-8.28065
▁பே	-8.28091
ள்ள	-8.28179
யன்	-8.28228
▁அல்லாத	-8.28406
39	-8.28493
யைக்	-8.28736
▁சிறந்த	-8.2881
43	-8.28923
23	-8.29004
ம்ப	-8.29026
T	-8.29203
▁ஹ	-8.29357
ிலிருந்து	-8.29456
ிட	-8.29574
▁ஊராட்சித்	-8.29662
ங்களுக்கு	-8.29733
▁உற்பத்தி	-8.2982
▁சோ	-8.30039
▁நோய்	-8.3018
▁வெளிவந்த	-8.30206
in	-8.30406
ானது	-8.30413
▁ஒவ்வொரு	-8.30442
▁பத்தொன்பதாம்	-8.30691
▁நான்கு	-8.30735
த்திலும்	-8.30855
R	-8.31254
யுடன்	-8.31378
யால்	-8.31454
னார்	-8.31489
ிருந்த	-8.31594
▁அனைத்து	-8.31853
▁எண்	-8.31881
ுவது	-8.31913
ரும்	-8.3196
g	-8.32063
யானது	-8.32335
▁9	-8.32411
ராக	-8.32602
▁ஒளி	-8.33076
▁மனித	-8.33322
▁குறிப்பிட	-8.33503
▁வெ	-8.33657
▁செய்த	-8.33763
▁குறிப்பிட்ட	-8.34027
B	-8.34136
▁வழி	-8.34502
▁இன்	-8.34843
▁அறங்காவலர்	-8.34921
▁மீது	-8.35002
▁தனி	-8.35072
▁உயர்	-8.35129
ங்கி	-8.35245
▁தென்	-8.35276
▁வினை	-8.35584
▁மட்டுமே	-8.35714
▁சென்னை	-8.3586
▁இலங்கை	-8.36159
▁சே	-8.36209
▁பெண்	-8.36241
மன்	-8.36286
▁ஜ	-8.36404
or	-8.36418
ளை	-8.36472
▁கட்சி	-8.36507
▁20	-8.3707
b	-8.3715
க்கூடிய	-8.3716
தான்	-8.37206
▁பற்றி	-8.37779
▁11	-8.37926
நா	-8.38132
ஜ	-8.38165
▁வழங்க	-8.39195
யிலிருந்து	-8.39357
வாக	-8.39392
▁மேல்	-8.39432
▁மன	-8.39526
36	-8.39549
m	-8.39727
▁பெரு	-8.39899
▁சீ	-8.40023
▁தோ	-8.40109
ருக்கு	-8.40416
▁பல்கலைக்கழக	-8.40424
▁நடைபெறுகிறது	-8.40633
▁பாட	-8.40725
ணை	-8.40783
கிறது	-8.40784
சே	-8.40941
▁14	-8.41072
▁கொள்ள	-8.41108
ிருக்கும்	-8.41177
37	-8.41245
42	-8.41275
டைய	-8.41482
சாமி	-8.41482
ுள்ளார்	-8.41707
en	-8.41779
வரை	-8.41854
▁C	-8.42049
▁இதனால்	-8.42067
▁அமைப்பால்	-8.42075
▁தேவை	-8.42303
O	-8.42334
c	-8.42349
▁பற்றிய	-8.42388
வரும்	-8.42432
▁சிறிய	-8.42472
▁சொல்ல	-8.42485
ஹ	-8.42534
ரியா	-8.42816
▁மேற்கு	-8.42903
புரம்	-8.42905
னே	-8.42974
ூ	-8.42998
▁பெற்றார்	-8.43184
▁நூல்	-8.43412
லு	-8.43663
▁துடுப்பாட்ட	-8.44085
▁வரும்	-8.44114
▁காண	-8.44358
▁ஐக்கிய	-8.44369
]]	-8.44445
சீ	-8.44499
▁பெரும்	-8.44628
▁பிரி	-8.44631
▁நாடு	-8.44673
யைப்	-8.44746
மானது	-8.44768
%	-8.44902
▁என்பவர்	-8.44939
▁இதை	-8.4495
ஏ	-8.45438
▁சிவ	-8.45475
▁கண்ட	-8.45554
▁13	-8.45583
▁வணிக	-8.45647
▁தந்தை	-8.45715
▁வேலை	-8.45775
▁மின்	-8.45924
ுள்ளன	-8.46146
வெ	-8.46281
50	-8.4632
க்கப்பட்ட	-8.46369
▁பதி	-8.46858
ஷ	-8.46891
விய	-8.46962
▁கட்ட	-8.46969
▁கெ	-8.4702
ெ	-8.47037
ப்போ	-8.47057
தர	-8.47102
▁மாவட்ட	-8.47336
ஸ	-8.47374
34	-8.47568
▁ரா	-8.47624
▁வே	-8.47657
ப்படுத்த	-8.47717
▁கூடிய	-8.47929
▁கூ	-8.47988
▁மறு	-8.4799
டே	-8.48018
▁ஒரே	-8.48283
▁பிறப்பு	-8.4843
▁A	-8.48486
▁மீண்டும்	-8.4852
41	-8.48531
▁கிராம	-8.48548
▁ஆக	-8.4864
F	-8.48656
▁கிழக்கு	-8.48708
▁கூட்ட	-8.48739
லில்	-8.48999
ைப்	-8.49185
’	-8.49188
▁குழந்தை	-8.49609
▁எதிர்	-8.49813
▁கார்	-8.49815
▁இருப்பினும்	-8.49849
ளா	-8.49893
ிறது	-8.4995
▁கதை	-8.49953
▁மர	-8.49961
I	-8.49965
▁நேர	-8.50141
ண்ட்	-8.5019
▁செல்ல	-8.50248
▁போட்டிகளில்	-8.50295
ின	-8.50506
ிக்க	-8.50755
am	-8.50784
k	-8.50838
▁[[	-8.50991
ur	-8.51053
H	-8.51121
70	-8.51213
▁தே	-8.5127
▁சிறப்பு	-8.51316
முக	-8.51474
▁P	-8.51872
வியல்	-8.51895
▁எஸ்	-8.51928
▁கல்லூரி	-8.51973
▁இரண்டாம்	-8.52341
▁ஆண்ட	-8.52671
▁மத்திய	-8.52739
▁மத	-8.52767
▁கூட	-8.52952
ச்சு	-8.5297
▁போல	-8.53021
L	-8.53192
ரீ	-8.53209
பே	-8.53238
▁என்	-8.53245
▁கூற	-8.53307
▁தேர்வுத்	-8.53397
▁பால	-8.53456
▁B	-8.53487
▁வெப்ப	-8.53607
90	-8.5371
யையும்	-8.53817
▁சம	-8.53894
க்காக	-8.53944
▁சேவை	-8.54132
▁துறை	-8.54325
f	-8.54428
த்துடன்	-8.54482
▁உணவு	-8.54575
னிய	-8.54785
▁சமய	-8.54799
தில்	-8.54852
▁குழு	-8.54979
00	-8.55017
▁தொடர்	-8.55152
▁இல்லை	-8.5518
▁அறிவியல்	-8.55618
▁மருத்துவ	-8.5582
த்திலிருந்து	-8.55901
த்தையும்	-8.56101
▁இவ்வ	-8.56137
பூ	-8.56401
த்திய	-8.56593
▁எம்	-8.5674
▁அம்மன்	-8.56796
▁நிற	-8.56864
▁இதனை	-8.56938
ம்பு	-8.57061
▁வீர	-8.57139
▁முக	-8.57187
▁நீ	-8.57432
▁குறை	-8.57619
தாகும்	-8.57767
▁தற்போது	-8.57933
ப்பை	-8.58011
▁மோ	-8.58079
னால்	-8.58201
ழை	-8.58246
▁விளக்க	-8.58313
ுவதற்கு	-8.58381
▁காணப்படும்	-8.58435
75	-8.58453
on	-8.5853
தாகவும்	-8.58815
▁M	-8.58969
▁இலக்கிய	-8.58974
சிய	-8.59023
ூர்	-8.59254
▁பொ	-8.59322
க்கை	-8.59404
ரெ	-8.59655
▁அக	-8.59694
ீ	-8.59711
▁வேறு	-8.59725
களுக்கும்	-8.59766
▁சூ	-8.59989
▁கருத்து	-8.60006
le	-8.60176
▁குரு	-8.60229
பர்	-8.60629
லம்	-8.60647
▁கண	-8.60687
▁கடல்	-8.60876
▁பாடல்	-8.60894
▁புற	-8.60933
▁of	-8.61085
▁உதவி	-8.61207
▁அளவில்	-8.61326
▁இடம்	-8.61356
▁மணி	-8.61426
99	-8.61771
▁ஆகியவை	-8.61867
▁லா	-8.62078
▁முடியும்	-8.62118
ic	-8.62273
”	-8.62355
சர்	-8.62426
▁தள	-8.62442
▁மூல	-8.6245
ஜ்	-8.62454
▁காட்சி	-8.62572
த்தால்	-8.62589
▁விருது	-8.62654
46	-8.62695
▁அதே	-8.62711
டர்	-8.62737
▁கல	-8.62751
▁பெயர	-8.62761
▁கொண்டது	-8.62945
யார்	-8.62994
ினை	-8.63084
▁பிரிவு	-8.63135
47	-8.63173
தர்	-8.63279
60	-8.6361
▁பெற்று	-8.63688
த்தைக்	-8.64348
▁ஊர்	-8.64408
த்திர	-8.64713
ொ	-8.64898
▁நோ	-8.65236
▁நாட்டின்	-8.65394
▁நிகழ்ச்சி	-8.655
▁உண்டு	-8.656
தல்	-8.65835
▁ஒலி	-8.65836
▁நிலையில்	-8.65866
▁அங்கு	-8.65878
ஞ்சி	-8.65919
▁அரசியல்	-8.65938
▁பங்கு	-8.66082
▁நிறுவனம்	-8.66092
58	-8.66107
பெ	-8.6612
▁மீட்டர்	-8.66195
▁ஐந்து	-8.66268
▁அடிப்படையில்	-8.66362
▁போட்டி	-8.66365
ண்ண	-8.6644
▁அதை	-8.66591
▁அக்டோபர்	-8.66838
▁எழுதிய	-8.67042
▁பெரும்பாலும்	-8.67115
▁இருக்க	-8.67151
வகை	-8.67256
▁மைய	-8.67516
▁மூ	-8.67634
▁சுமார்	-8.67936
க்ஸ்	-8.6796
▁சங்க	-8.67985
▁ஒன்றாகும்	-8.68021
பூர்	-8.68177
▁சென்ற	-8.68286
▁என்பதை	-8.68361
▁எந்த	-8.68564
ாவின்	-8.6859
▁இணைந்து	-8.68789
ஸ்ட்	-8.68839
▁பேர	-8.68908
57	-8.69018
98	-8.69073
49	-8.69236
56	-8.69317
கன்	-8.69349
80	-8.69379
▁மகா	-8.69458
▁மண	-8.69789
▁முதல்தர	-8.70072
▁மாத	-8.70207
▁முதலில்	-8.70254
96	-8.70261
▁இதற்கு	-8.70308
கார்	-8.70497
▁நாட்டு	-8.70693
44	-8.70803
67	-8.70852
தோ	-8.7094
l	-8.70973
▁அமைந்த	-8.71019
▁–	-8.71087
▁ஸ்ரீ	-8.71096
தம்	-8.71117
ினர்	-8.71135
▁அவ	-8.71191
76	-8.71207
▁இங்கிலாந்து	-8.71289
78	-8.71328
▁எனப்படும்	-8.71391
66	-8.71446
▁திருவிழாவாக	-8.71584
▁பதவி	-8.71594
89	-8.71793
▁குறைந்த	-8.71898
▁இருக்கிறது	-8.71905
▁குடும்ப	-8.71946
97	-8.72095
▁செய்யப்பட்ட	-8.72146
65	-8.7215
ஐ	-8.72168
55	-8.72245
re	-8.72255
95	-8.72317
88	-8.72462
ற்ப	-8.72556
▁அழைக்க	-8.72589
86	-8.72693
▁இந்தியாவில்	-8.72698
▁யா	-8.72699
னும்	-8.72719
▁பிரித்தானிய	-8.72761
▁சென்று	-8.72804
வுக்கு	-8.72906
▁பீ	-8.7299
▁எழுத்து	-8.73075
▁நிர்வாக	-8.73134
களான	-8.7317
▁விளையாட்டு	-8.73263
▁தொழில்	-8.73333
ங்களையும்	-8.73406
ப்பட்டார்	-8.73523
▁ஆங்கில	-8.73555
▁சொல்	-8.73659
▁தலைவர்	-8.73792
▁டா	-8.73815
▁ஆண்டுகளில்	-8.7384
▁காட்ட	-8.73863
▁கொள்கை	-8.7391
ஜா	-8.73953
▁பேர்	-8.74062
▁தொ	-8.7422
▁பிறந்த	-8.74248
▁எனவே	-8.74262
கொ	-8.74263
▁நவம்பர்	-8.74306
▁நிறுவன	-8.74309
▁அணியின்	-8.74342
மலை	-8.74348
64	-8.74349
▁வட்ட	-8.74405
▁டெ	-8.74412
▁தொடர்பு	-8.74439
77	-8.7444
▁கோவில்	-8.74447
▁எல்லை	-8.7451
ரம்	-8.74645
த்தல்	-8.74696
▁உயிர்	-8.74823
ப்படுகின்றது	-8.74854
வழி	-8.74926
▁பேச	-8.74991
வன	-8.75068
▁முயற்சி	-8.75158
▁காலம்	-8.75241
85	-8.75396
பட்ட	-8.75443
45	-8.75618
▁விமான	-8.75701
▁ஏற்பட்ட	-8.75719
▁மதுரை	-8.75804
த்துறை	-8.75851
▁சதுர	-8.75887
▁இருந்தார்	-8.75918
எஸ்	-8.76039
▁முழு	-8.76043
▁அறிய	-8.7608
த்தார்	-8.76099
ங்களாக	-8.76124
ாட்சி	-8.76277
▁இணை	-8.76291
▁நடைபெற்ற	-8.7655
ஃப்	-8.77095
82	-8.77121
▁தங்க	-8.77122
ing	-8.77149
G	-8.7718
▁தாக்க	-8.77361
த்தூர்	-8.77377
க்கம்	-8.77485
ப்பகுதி	-8.775
னு	-8.77636
72	-8.7779
▁அதற்கு	-8.77833
92	-8.77844
27	-8.78022
59	-8.78181
87	-8.78273
ுகின்றனர்	-8.78284
▁நடு	-8.78286
69	-8.78328
79	-8.78334
▁நாடக	-8.78377
▁இயற்கை	-8.78445
is	-8.78469
▁நிலையம்	-8.78498
ப்பட்டன	-8.78749
விற்கு	-8.78765
54	-8.7878
▁வீ	-8.78781
K	-8.78794
▁முறையில்	-8.7887
▁பொருளாதார	-8.78889
▁வருகிறது	-8.78956
களைத்	-8.78961
ினால்	-8.79035
ப்படி	-8.79042
▁விதி	-8.79171
▁உரு	-8.79197
▁எனினும்	-8.79245
த்தைப்	-8.79424
▁ஜெ	-8.79432
ும்போது	-8.79449
51	-8.79518
ுள்ளனர்	-8.7954
ிக்	-8.79563
▁நல்ல	-8.79568
▁உருவாக்கப்பட்ட	-8.79609
53	-8.79672
களுக்கான	-8.79682
▁தொழில்நுட்ப	-8.79782
ப்பட்டுள்ளன	-8.79965
▁வைத்து	-8.79997
81	-8.80032
டெ	-8.80123
52	-8.80136
91	-8.80141
சின்	-8.80188
▁எண்ண	-8.80363
▁கிலோ	-8.80392
▁எனவும்	-8.80477
▁H	-8.80523
68	-8.80536
ன்ன	-8.8064
74	-8.80707
▁நிலைய	-8.80858
▁பயன்படுத்தி	-8.81003
▁தூ	-8.81024
▁செப்டம்பர்	-8.81067
x	-8.81087
ch	-8.81169
▁பாதுகாப்பு	-8.81181
▁நகர்	-8.81255
▁அதில்	-8.81366
07	-8.81436
▁பெருமாள்	-8.81508
▁புனித	-8.81555
கர	-8.81565
▁போட்டியில்	-8.81674
71	-8.81694
▁பெற்றது	-8.81699
▁தன்மை	-8.81753
▁ஜி	-8.81754
▁யூ	-8.81769
கள	-8.81875
73	-8.81925
ுகிறார்	-8.82038
▁வழியாக	-8.82048
▁புள்ளி	-8.82088
சூ	-8.82125
▁நடந்த	-8.82127
மொழி	-8.82201
லெ	-8.82526
94	-8.82545
▁இறுதி	-8.82669
ண்டா	-8.82767
▁குறிப்பிடத்தக்க	-8.82895
▁ஆட்ட	-8.82933
▁நடத்த	-8.82958
பதி	-8.83038
பட	-8.83195
▁திட்ட	-8.83209
84	-8.83214
93	-8.83254
வான	-8.83399
▁2008	-8.83412
63	-8.83577
கல்	-8.83589
▁எண்ணிக்கை	-8.83745
06	-8.83807
ைத்	-8.83867
at	-8.83871
▁இணைய	-8.83914
08	-8.83958
▁இந்தப்	-8.8398
▁நிதி	-8.83998
▁நோக்கி	-8.84035
னில்	-8.84039
▁செய்யும்	-8.84048
▁மார்	-8.84054
ol	-8.84115
▁பார்	-8.84141
▁குறிப்பாக	-8.84186
09	-8.84194
▁எழுத	-8.84263
மான்	-8.84421
|	-8.84424
▁திரைப்படம்	-8.84442
▁பை	-8.84512
பொ	-8.84555
▁அடிப்படை	-8.84741
_	-8.84768
னம்	-8.84787
01	-8.84846
▁ரோ	-8.84864
வாய்	-8.84886
▁கொண்டுள்ளார்	-8.84936
▁போட்டிகளிலும்	-8.85002
▁ஆகியோர்	-8.85022
▁பெரும்பாலான	-8.85142
V	-8.8515
▁(19	-8.85206
ிருந்தது	-8.8533
▁30	-8.85423
வான்	-8.85469
▁பழ	-8.85518
▁யு	-8.85588
61	-8.85758
▁பகுதிகளில்	-8.85818
ாகவும்	-8.85821
▁தமிழ்த்	-8.85823
ுகின்றது	-8.85859
▁நெ	-8.85867
▁செல்லும்	-8.85936
▁"(	-8.85958
▁“	-8.85959
▁செய்தி	-8.85968
ri	-8.85983
பின்	-8.85985
▁மட்டும்	-8.8606
el	-8.86113
ாளர்	-8.86116
மெ	-8.86176
▁உடல்	-8.86421
டிய	-8.86508
▁25	-8.86544
▁வகையில்	-8.86615
▁அதிகமாக	-8.86645
நி	-8.86645
▁வடக்கு	-8.86704
▁முக்கியமான	-8.86753
ங்களைக்	-8.86841
ங்களிலும்	-8.87061
62	-8.87113
▁நோக்க	-8.87147
▁D	-8.87167
▁தமிழ	-8.87292
▁ஏற்படும்	-8.8747
05	-8.87476
கால	-8.8764
▁இரண்டாவது	-8.8775
▁உரிமை	-8.87819
▁நாடுகளில்	-8.87859
us	-8.87993
யின	-8.88024
▁தொலைக்காட்சி	-8.88127
▁சூரிய	-8.88226
யைத்	-8.88231
▁தலைமை	-8.88294
▁சிகிச்சை	-8.88336
▁நேர்	-8.88424
▁அடை	-8.88449
ந்தா	-8.88514
க்குப்	-8.88547
வீ	-8.88599
தீ	-8.8862
பீ	-8.88721
▁கண்ண	-8.88735
தற்கு	-8.88994
னுக்கு	-8.89256
▁செலுத்த	-8.89273
▁ல	-8.89282
பர	-8.89496
▁மில்லியன்	-8.89558
கொண்ட	-8.89636
▁தாவர	-8.89734
▁தயாரிக்க	-8.89778
▁நகரம்	-8.90231
▁ஆண்	-8.90251
▁N	-8.90471
▁இடத்தில்	-8.90538
▁மறை	-8.90597
▁போன்றவை	-8.90626
▁பயிற்சி	-8.90643
வார்	-8.90657
ஹா	-8.90756
▁அடுத்த	-8.90774
th	-8.90804
▁வரலாற்று	-8.90827
▁காணப்படுகிறது	-8.90993
▁சின்ன	-8.91045
)"	-8.91161
க்கல்	-8.91194
▁செல்வ	-8.91195
ட்டோ	-8.91428
கார	-8.9157
▁பிறந்தார்	-8.91676
த்தைச்	-8.91728
▁பக்க	-8.91944
பை	-8.92026
க்காரர்	-8.92074
▁ஆகியவற்றை	-8.92075
▁கருவி	-8.92328
▁மூலமாக	-8.9249
▁நூற்றாண்டு	-8.9259
04	-8.9259
▁எனக்	-8.9264
▁ஹா	-8.92723
▁தெ	-8.92836
▁ஏப்ரல்	-8.92883
▁மக	-8.92933
es	-8.93228
▁தேவ	-8.9326
▁L	-8.93521
ிடம்	-8.93522
▁கட	-8.93548
ன்ஸ்	-8.9384
▁G	-8.93866
▁உறுப்பினர்	-8.94146
சம்	-8.94155
லும்	-8.94197
▁கோட்டை	-8.94422
▁2009	-8.94643
▁ஏற்ற	-8.94687
▁பால்	-8.94754
▁வழக்கு	-8.9479
▁நூற்றாண்டில்	-8.94826
▁அல்	-8.94839
ரான	-8.94855
ரால்	-8.94871
▁R	-8.94882
03	-8.94903
▁ஆராய்ச்சி	-8.94963
னியா	-8.94981
யாகவும்	-8.95049
▁வந்து	-8.95137
ற்றி	-8.95261
என்	-8.95278
▁அணு	-8.9534
il	-8.95347
▁முறைப்படி	-8.95702
ாய்	-8.95925
▁பழைய	-8.96098
▁தீவு	-8.96158
▁கட்டிட	-8.96226
▁ஜா	-8.96567
▁பெர்	-8.9665
▁எல்லா	-8.96657
சார்	-8.96663
▁நியூ	-8.96764
ோடு	-8.96827
▁ஆசிரியர்	-8.96869
▁காணப்படுகின்றன	-8.96878
br	-8.96902
▁வாழ்ந்த	-8.96903
▁டை	-8.97049
▁தமிழக	-8.97219
▁தேர்தல்	-8.97229
ல்லா	-8.97249
▁வந்தது	-8.97304
▁வாழ்	-8.97306
ிருந்தார்	-8.97341
▁ஒருவர்	-8.97416
திரு	-8.97449
▁உருவ	-8.97523
▁மக்களின்	-8.97602
]	-8.97722
ro	-8.97832
▁வாழ்க்கை	-8.97856
ழ்	-8.97864
▁சீன	-8.97919
▁ஆண்டின்	-8.98035
▁அமில	-8.98073
▁ட	-8.9813
யல்	-8.98223
▁குடி	-8.98241
▁உட்	-8.98534
ஷி	-8.98624
▁ஏரி	-8.9874
மாகவும்	-8.98796
▁அருகில்	-8.98911
▁தங்கள்	-8.9894
ட்ஸ்	-8.99055
யைச்	-8.9913
ாள்	-8.99262
ாள	-8.99358
பட்டி	-8.99397
கெ	-8.99497
▁விட்டு	-8.99578
▁வை	-8.99688
▁லி	-8.99867
வால்	-9.002
▁T	-9.00258
▁ஆல்	-9.00266
▁சக்தி	-9.00422
ளவு	-9.00598
▁சபை	-9.00662
▁சராசரி	-9.0069
நில	-9.00725
as	-9.00778
▁மேல	-9.00828
▁புத்தக	-9.00862
களுள்	-9.00924
▁அமெரிக்கா	-9.01078
ைய	-9.01083
▁2010	-9.01172
▁மேற்	-9.01208
▁சட்டமன்ற	-9.01209
ப்பட்டி	-9.01305
▁21	-9.01381
▁இடம்பெற்ற	-9.01415
▁முன்ன	-9.01605
▁திகதி	-9.01679
▁குறிக்கும்	-9.01707
▁பதிவு	-9.01741
▁‘	-9.01748
▁நீண்ட	-9.01817
க்குள்	-9.01956
▁வள	-9.01982
ரண	-9.02058
யாளர்	-9.02084
▁செயல்	-9.02097
ul	-9.02111
மணி	-9.02144
▁24	-9.02146
02	-9.02194
▁முடிவு	-9.02239
யியல்	-9.02475
லிய	-9.02518
▁தெற்கு	-9.02528
▁தமது	-9.02531
▁பெயரில்	-9.0254
▁மாநிலத்தில்	-9.02561
ra	-9.02619
கின்றன	-9.02685
▁ஜோ	-9.02796
▁செய்தார்	-9.0281
▁2007	-9.02884
▁முதன்மை	-9.02934
வந்த	-9.02938
▁செல்	-9.03055
▁உறுதி	-9.03068
▁F	-9.03068
னூர்	-9.0309
▁முனை	-9.03535
▁வரலாறு	-9.03538
▁கணினி	-9.03552
▁ரி	-9.03573
▁கணித	-9.03611
வல	-9.03654
ணா	-9.0396
▁மொ	-9.03969
▁உள்ளிட்ட	-9.04046
▁உறுப்பினராக	-9.04061
▁இத்திரைப்படத்த	-9.04097
மர	-9.04138
ல்ல	-9.04148
வராக	-9.04399
பார்	-9.04599
லீ	-9.04665
▁தொலைவில்	-9.04759
ேன்	-9.04885
it	-9.04974
▁குறித்த	-9.05034
▁தாய்	-9.05079
யில	-9.05096
▁ராஜ	-9.05344
▁இப்	-9.05402
கிரி	-9.05455
▁வங்கி	-9.05483
மார்	-9.05562
▁அலை	-9.0562
▁அவருடைய	-9.05643
▁ஒன்றாக	-9.05768
▁கருதப்படுகிறது	-9.05846
▁இவருக்கு	-9.06029
▁தவிர	-9.06243
▁அழி	-9.06323
▁எரி	-9.06326
▁கருத	-9.06408
▁உரை	-9.06565
▁நாள	-9.0661
▁தம்	-9.06805
48	-9.06851
▁கன	-9.06853
யிட	-9.06861
▁வேண்டிய	-9.06867
▁உடன்	-9.07003
000	-9.0711
▁தேதி	-9.07115
வல்	-9.0717
▁நகரில்	-9.07175
ிலுள்ள	-9.07178
▁உடைய	-9.0719
▁இடை	-9.072
▁வரிசை	-9.07243
ம்பி	-9.07285
▁மன்னர்	-9.07333
▁formula	-9.07404
ோட்ட	-9.07471
▁தடை	-9.07484
▁சாலை	-9.0761
படுத்த	-9.07788
▁பார்க்க	-9.07811
▁மேற்பட்ட	-9.07824
▁22	-9.07903
▁பிரா	-9.07933
சன	-9.07947
கூ	-9.07951
லூர்	-9.07983
நீ	-9.08012
▁மகன்	-9.08037
ாவில்	-9.08053
▁சேர்ந்து	-9.08151
▁மனைவி	-9.08187
▁2006	-9.08255
▁சந்தை	-9.08334
▁அவருக்கு	-9.08342
ரன்	-9.0846
▁கால்	-9.08573
▁முழுவதும்	-9.08616
▁எந்தவொரு	-9.08702
▁இடங்களில்	-9.08825
▁புல	-9.08842
ைச்	-9.08924
▁மாரியம்மன்	-9.08963
▁அதாவது	-9.09052
▁அமைப்ப	-9.09226
▁பல்	-9.09365
ங்கோ	-9.09387
▁வருட	-9.09602
ரூ	-9.09664
–	-9.09888
▁மாகாண	-9.09902
▁இராணுவ	-9.0997
▁பருவ	-9.10105
▁யாழ்ப்பாண	-9.10279
▁நாடுகள்	-9.10299
▁பங்குகொண்டார்	-9.10367
மின்	-9.10378
et	-9.10453
▁விழா	-9.10473
க்கொண்ட	-9.10483
▁கரை	-9.10542
▁நடித்த	-9.10544
▁அர	-9.10552
க்கிய	-9.10566
▁வரி	-9.10568
▁சுவாமி	-9.10578
▁போட்டியிலும்	-9.10719
▁இருப்ப	-9.10758
ுக்கும்	-9.10861
▁உலகின்	-9.10878
வுடன்	-9.11084
▁இல	-9.11211
▁பின்ன	-9.11218
▁அதி	-9.11237
▁இவ்வாறு	-9.11285
▁அவ்வ	-9.11327
ித்து	-9.11357
த்தோ	-9.11451
▁ஆற்றல்	-9.11533
▁1,	-9.1172
▁சுற்றி	-9.11759
▁கள	-9.11899
ர்களின்	-9.11958
▁குறித்து	-9.11963
▁இவர்கள்	-9.12157
▁ஆண்டுகள்	-9.12178
▁சோதனை	-9.12206
▁கண்	-9.12264
▁புது	-9.12348
▁மதிப்பு	-9.12518
▁வைக்க	-9.12565
லர்	-9.12593
▁ஐரோப்பிய	-9.12761
▁நாடாளுமன்ற	-9.12781
▁அவரை	-9.12843
▁திருவிழா	-9.12938
▁கீ	-9.13089
▁மார்ச்	-9.13117
▁முதலிய	-9.13174
un	-9.13292
▁நடைமுறை	-9.13403
ௌ	-9.13525
ரங்க	-9.13582
▁E	-9.1362
▁நடவடிக்கை	-9.13852
ரில்	-9.1393
▁போராட்ட	-9.13944
▁சேர்த்து	-9.14062
▁சரி	-9.14211
▁இராம	-9.14301
ித்த	-9.14439
▁குறி	-9.1445
▁நீக்க	-9.14457
▁ஹெ	-9.14695
▁தோற்ற	-9.14718
னெ	-9.14748
▁வசதி	-9.14793
▁இடையே	-9.14856
▁என்ப	-9.15011
மங்கலம்	-9.15242
▁23	-9.15261
▁இந்தக்	-9.15363
ணு	-9.15456
▁2001	-9.15465
▁கிளை	-9.15645
▁பட்டம்	-9.15686
▁இரா	-9.1571
▁அரசின்	-9.15758
▁ஏற்பட	-9.15765
ிகள்	-9.15838
ட்டில்	-9.15838
▁அதனை	-9.15967
சல்	-9.15968
▁குறிக்க	-9.15969
▁ஜான்	-9.15975
▁நாட்ட	-9.15982
கல	-9.15996
▁மாநிலத்தின்	-9.16045
▁மாதிரி	-9.16088
▁அவற்றின்	-9.16135
▁அக்	-9.16148
▁செய்வ	-9.1622
ட்டர்	-9.16266
▁விரும்ப	-9.16348
▁எதிராக	-9.16492
ணம்	-9.16581
பாடு	-9.16681
ஒ	-9.16704
▁திருமணம்	-9.1673
▁அப்போது	-9.16757
st	-9.16833
▁எழுத்தாளர்	-9.16972
▁கடைசியாக	-9.16995
களே	-9.17045
லுக்கு	-9.17088
ed	-9.17127
▁நாக	-9.17207
த்தன்மை	-9.17213
▁திட்டத்தின்	-9.17315
▁the	-9.17348
மர்	-9.17356
றிய	-9.17376
தான	-9.17479
▁திரைப்படமாகும்	-9.1753
ation	-9.17564
▁பிரதேச	-9.17596
▁இல்லாத	-9.17643
▁இருப்பதால்	-9.17705
ுடைய	-9.17708
ள்ளி	-9.17813
▁சொ	-9.1784
ட்டின்	-9.17906
வினை	-9.17957
▁பர	-9.1806
▁=	-9.18065
▁நம்பிக்கை	-9.18123
▁திருப்ப	-9.18199
ப்படை	-9.18201
எம்	-9.18252
டல்	-9.18272
சியா	-9.18277
▁இறப்பு	-9.18304
▁மொழியில்	-9.18373
ir	-9.18428
▁p	-9.18845
▁பிள்ளை	-9.18914
திய	-9.18937
▁சிவன்	-9.18956
▁மாற	-9.19058
0,000	-9.19061
▁விடுதலை	-9.19104
▁கீழ	-9.19181
அழைக்கப்படுகிறது	-9.19339
ராய்	-9.19384
▁முன்னாள்	-9.19414
▁விலை	-9.19438
▁ஆண்டுகளுக்கு	-9.19515
▁மற்றொரு	-9.19658
▁முடி	-9.19678
ுமாறு	-9.19936
▁சுற்று	-9.19978
▁இறை	-9.2
▁ஆரம்ப	-9.20032
▁வயது	-9.20077
ரச	-9.20122
▁போல்	-9.20146
▁சை	-9.20246
▁புகழ்	-9.20411
பிடி	-9.20452
▁சர்	-9.20471
▁லெ	-9.20503
ிலேயே	-9.20594
ுக்	-9.2075
றா	-9.20753
▁வார	-9.20761
▁உள்	-9.20782
டம்	-9.2083
ராஜ	-9.20876
▁ஆவண	-9.20894
▁தொடக்க	-9.20988
▁உலோக	-9.21253
ப்பர்	-9.21465
▁வெள்ளை	-9.21533
களைச்	-9.21569
▁ஒன்ற	-9.21623
ாளி	-9.21814
ந்திர	-9.21823
▁நான்	-9.2189
▁மாறி	-9.21906
▁மீன்	-9.22004
த்துக்	-9.22068
▁சுதந்திர	-9.22069
▁பூங்கா	-9.22163
▁வைத்த	-9.22192
▁குல	-9.22241
ிருக்கிறது	-9.22363
▁ஒத்த	-9.22489
▁வாழும்	-9.22537
ாது	-9.22557
▁இலங்கையின்	-9.22779
▁கொண்டார்	-9.22931
டீ	-9.23119
▁இரத்த	-9.23135
▁வேக	-9.23249
▁தேர்வு	-9.23259
▁தேர்தலில்	-9.23283
▁உள்ளார்	-9.23401
மாகக்	-9.23494
யுள்ள	-9.2352
ப்பின்	-9.23551
பாளையம்	-9.23563
▁மண்டல	-9.23653
க்கப்பட்டது	-9.23716
புர	-9.2385
▁பொருள	-9.23876
யினை	-9.23921
▁நெல்	-9.23938
▁வந்தார்	-9.23938
▁கண்டு	-9.23977
▁பன்னாட்டு	-9.23982
த்தினை	-9.2415
▁2014	-9.24434
▁தொடர்பான	-9.2449
ிருக்க	-9.24528
▁இர	-9.24659
▁[	-9.24662
த்தே	-9.24677
▁நீர	-9.24688
▁இள	-9.24711
டின்	-9.24742
களாகும்	-9.24881
v	-9.25007
▁விற்பனை	-9.25043
▁திசை	-9.25098
▁பார்க்கப்பட்ட	-9.2518
um	-9.25196
ுவதை	-9.252
த்தைத்	-9.25214
83	-9.25347
▁ஏழு	-9.25348
▁இன்று	-9.25362
▁பாரம்பரிய	-9.25504
▁குண	-9.25518
▁அங்க	-9.25551
▁புவி	-9.25551
▁வகையான	-9.25567
▁அவர்களின்	-9.25738
▁இயக்கத்தில்	-9.2597
▁சனவரி	-9.2602
▁விளை	-9.2606
▁கொடுக்க	-9.26079
▁எனப்	-9.26088
ஓ	-9.26179
▁K	-9.26344
▁27	-9.26495
▁பல்ல	-9.26565
ந்தை	-9.2659
சுவாமி	-9.26604
▁நீள	-9.26626
▁வீடு	-9.26656
▁கிரேக்க	-9.26773
▁பாதை	-9.26805
ட்சி	-9.26885
வள	-9.26885
▁ஏற்படுத்த	-9.26896
▁மருந்து	-9.26924
ப்பள்ளி	-9.27017
▁ஓவிய	-9.27071
▁I	-9.27074
▁2012	-9.27137
திரைப்படம்	-9.272
▁26	-9.27292
▁அதனால்	-9.274
▁கர	-9.27559
▁டிசம்பர்	-9.2766
▁மூன்றாம்	-9.2773
னாக	-9.27803
ங்களைப்	-9.27815
▁பதிப்ப	-9.27858
▁நெடுஞ்சாலை	-9.2787
▁வீரர்	-9.27876
U	-9.27967
▁அதிகமான	-9.2808
▁ஆடி	-9.28096
▁பண	-9.28132
தாகக்	-9.28299
ச்சா	-9.28396
▁இரண்ட	-9.2851
▁கான்	-9.28564
வேண்டும்	-9.2858
▁சர்வதேச	-9.28584
▁பாய்	-9.28595
▁சட்டம்	-9.28627
▁ஓட்ட	-9.28836
▁கட்டுரை	-9.28858
▁ஹோ	-9.28862
ங்கை	-9.29031
▁ஒன்றை	-9.29232
▁நவீன	-9.29303
▁வெடி	-9.29382
▁கொள்ளவில்லை	-9.29446
ம்பட்டி	-9.29481
புரி	-9.295
மற்ற	-9.29508
ப்பது	-9.29591
▁கல்	-9.29605
z	-9.29667
▁இதழ்	-9.29669
▁விளையாட்டுவீரர்	-9.2981
தும்	-9.29812
க்குழு	-9.2983
▁மை	-9.30008
▁விபரக்குறிப்பு	-9.30106
ன்று	-9.30127
▁தஞ்சாவூர்	-9.30128
பிர	-9.30157
▁மிகப்பெரிய	-9.30189
▁கிறித்தவ	-9.30215
▁ஓர	-9.30269
▁கொண்டாட	-9.30308
▁1.	-9.30346
▁அணை	-9.30458
▁)	-9.30461
ிப்பு	-9.30629
▁2005	-9.3066
ரல்	-9.3068
ார்கள்	-9.30722
ங்கள	-9.30753
▁தல	-9.30767
ீடு	-9.30805
▁திறன்	-9.30864
▁ஆக்க	-9.31018
▁வானூர்தி	-9.31025
▁மட	-9.31137
பால	-9.3117
▁வெப்பநிலை	-9.31345
▁வேதியியல்	-9.31552
▁சிங்	-9.3175
▁மிகப்	-9.31764
▁வேதி	-9.3194
முள்ள	-9.31983
▁கூறு	-9.32113
▁செயல	-9.32193
▁28	-9.32222
களிலிருந்து	-9.32228
▁தமிழர்	-9.32428
▁கம்ப	-9.32488
தற்காக	-9.32536
▁பொதுவான	-9.3267
▁உறுப்பு	-9.32676
▁அடுத்து	-9.32841
▁டோ	-9.32862
களுக்காக	-9.32875
▁கூட்டு	-9.32894
வெளி	-9.32911
▁விலங்கு	-9.32963
▁அரி	-9.32966
ீர்	-9.32988
ரசு	-9.32999
ின்றன	-9.3301
த்தது	-9.33025
▁அரு	-9.33062
▁நூற்றாண்டின்	-9.33174
வாத	-9.33188
▁அறிமுகப்படுத்த	-9.33196
▁நிகழ்வு	-9.33205
▁இருக்கலாம்	-9.33232
ிணை	-9.33313
▁பகுதிகள்	-9.3335
▁அதிகாரி	-9.33463
கண்ட	-9.33491
▁என்பன	-9.33494
பன்	-9.33514
▁கடற்கரை	-9.33556
▁பஞ்ச	-9.33565
ற்கு	-9.33705
▁முன்னர்	-9.33729
பால்	-9.33741
▁நம்ப	-9.3385
▁மரபு	-9.33915
▁பர்	-9.33916
▁உயர்ந்த	-9.33945
வாதி	-9.34017
ஆர்	-9.34046
▁உண்மை	-9.3413
▁வாய்ந்த	-9.3419
▁சந்திர	-9.34191
▁ஃபி	-9.34204
▁எழுதி	-9.34212
மம்	-9.34218
ுவதாக	-9.34355
▁s	-9.34412
த்தான்	-9.34484
▁வெளியிட்ட	-9.34493
▁அச்ச	-9.34515
▁இவரின்	-9.34744
▁அளித்த	-9.34847
▁அமைக்கப்பட்ட	-9.34944
முனை	-9.35074
▁குறு	-9.35137
▁டே	-9.35184
▁முன்பு	-9.35189
▁அனுப்ப	-9.35223
▁வெளியிட	-9.35226
ஷன்	-9.35234
!	-9.35381
▁பரவலாக	-9.35398
▁தொகுப்பு	-9.3544
▁மிகுந்த	-9.35459
▁தலைவராக	-9.35562
▁100	-9.35624
மைய	-9.35696
விலும்	-9.3573
▁W	-9.35776
▁தரவு	-9.3581
▁பனி	-9.35943
த்திற்கான	-9.35981
▁தனிம	-9.36025
குடி	-9.36114
▁இருக்கின்றன	-9.36312
தெ	-9.36315
▁எழுதப்பட்ட	-9.36354
களிடம்	-9.36378
▁ஆதார	-9.36486
ப்படவில்லை	-9.3657
▁மாவட்டத்தின்	-9.36572
▁கிமீ	-9.36697
யூர்	-9.36805
ந்தர்	-9.36822
விட்டு	-9.36825
▁நிறுத்த	-9.36838
ுக்கான	-9.36887
ஜெ	-9.36911
த்துவ	-9.36915
மதி	-9.36981
▁இருந்தன	-9.37061
க்கே	-9.37086
வற்ற	-9.37124
▁புலி	-9.37161
▁காந்தி	-9.37291
▁அளிக்க	-9.37298
கின்றது	-9.37314
▁குறைவான	-9.37336
ியம்	-9.37439
▁தத்துவ	-9.3745
▁2004	-9.37635
▁நல	-9.37646
▁2013	-9.37652
யெ	-9.37701
▁வாய்	-9.37735
▁மழை	-9.37747
ha	-9.3778
▁எதிரான	-9.37919
▁கொண்டிருக்கும்	-9.3798
கிழ	-9.38078
னல்	-9.38118
▁நடிகர்	-9.38172
ந்தார்	-9.38204
▁நேரத்தில்	-9.3832
ாக்க	-9.38351
க்களை	-9.38407
▁தொடர	-9.38553
▁புத்த	-9.38606
▁சொற்	-9.38676
▁இலை	-9.38691
▁மக்கள்தொகை	-9.38698
▁வர்த்தக	-9.38713
▁கரிம	-9.38746
▁சுர	-9.38772
▁பயன்பாடு	-9.38824
▁உயர	-9.38907
▁பார்வை	-9.38976
▁கட்டுப்படுத்த	-9.38995
▁அதிகார	-9.39145
தில்லை	-9.39166
▁அரை	-9.39224
▁சுந்தர	-9.39311
la	-9.39315
▁2000	-9.39333
ந்	-9.39414
ுவதற்காக	-9.3949
▁இசு	-9.39491
▁வல்ல	-9.39501
சில்	-9.39593
▁முதலாம்	-9.39642
▁ஆதி	-9.39671
நீர்	-9.397
▁உடை	-9.39702
▁இறந்த	-9.39764
▁தமிழில்	-9.39765
▁பரிசு	-9.39912
தார	-9.3995
க்கோட்டை	-9.40021
வற்றை	-9.40048
▁எடுத்து	-9.40136
▁இக்க	-9.40139
▁ஹி	-9.40147
▁ஜே	-9.40167
ன்ற	-9.40227
▁விநாயகர்	-9.40324
வரின்	-9.40371
▁விசை	-9.404
வதி	-9.40406
ia	-9.40532
▁பௌத்த	-9.40532
▁ஆகியவற்ற	-9.40537
▁கிலோமீட்டர்	-9.40567
▁அவற்றை	-9.40603
லால்	-9.40612
கில்	-9.40633
ப்பில்	-9.40658
▁அறிவு	-9.40702
▁தன்னுடைய	-9.4071
W	-9.40745
நாயக	-9.40761
▁நாட்டில்	-9.40905
லாக	-9.40984
நாத	-9.41013
▁பாடல்கள்	-9.41044
▁இயந்திர	-9.41102
▁பாத்திர	-9.41224
ல்லி	-9.41252
ச்செ	-9.4128
▁உட்பட	-9.41322
▁பகுதியாக	-9.41363
▁சோழ	-9.41374
▁பொருட்கள்	-9.41464
▁அறிக்கை	-9.41493
▁விளையாட	-9.415
▁சண்டை	-9.41581
▁வான்	-9.41602
▁அமைக்க	-9.41659
▁கொண்டிருந்த	-9.4173
▁இயேசு	-9.41745
ப்படுவது	-9.41749
ா்	-9.41799
▁சாதாரண	-9.41825
▁அனு	-9.41836
ையில்	-9.4194
▁பறவை	-9.41967
▁கட்டி	-9.41982
▁குள	-9.42045
றும்	-9.42065
▁இத்தகைய	-9.42068
▁சிற்ற	-9.42081
பிறப்பு	-9.42142
ot	-9.42187
▁ரெ	-9.42314
▁ஷ	-9.424
▁அழைக்கப்படும்	-9.42401
ட்டம்	-9.42616
நேர	-9.42653
ட்ரோ	-9.42679
▁அமெரிக்காவில்	-9.4269
ஷா	-9.42699
னீ	-9.42855
▁வருகிறார்	-9.42916
▁எட்டு	-9.42934
▁மாற்றி	-9.42949
▁29	-9.43001
▁கல்வியறிவு	-9.43043
▁பயண	-9.43085
ற்க	-9.43137
நூல்	-9.43185
om	-9.43202
ப்பதற்கு	-9.43219
▁அத்துடன்	-9.43274
▁தொடர்புடைய	-9.43338
▁ஷா	-9.43522
▁பிளா	-9.43566
-19	-9.43586
▁புகழ்பெற்ற	-9.43603
திர்	-9.4363
▁பணியாற்றினார்	-9.43685
▁சேர்ம	-9.43779
▁அறை	-9.43797
▁தை	-9.43823
▁சொந்த	-9.43838
ay	-9.43842
த்திற்கும்	-9.4387
▁பங்க	-9.43881
▁பத்து	-9.44027
▁கல்லூரியில்	-9.4405
ுள்	-9.44087
ப்பொருள்	-9.4413
வாகும்	-9.44163
▁2016	-9.44164
▁பாக	-9.44198
▁வாய்ப்பு	-9.44251
▁சூலை	-9.44283
▁மாணவர்	-9.4429
▁தொழில	-9.4454
▁அதிகம்	-9.44543
முடி	-9.44552
▁இக்	-9.44615
▁இடையில்	-9.44638
li	-9.44689
▁இறுதியில்	-9.44695
▁ஆன்	-9.44741
▁வாகன	-9.44758
ter	-9.44791
▁தொடருந்து	-9.44804
▁தேவையான	-9.45084
▁உதவ	-9.45186
லான	-9.45237
ஸி	-9.45399
▁கண்டுபிடிக்க	-9.45431
▁என்ன	-9.45479
▁கட்டப்பட்ட	-9.45624
ளு	-9.4572
ரான்	-9.4572
▁போக்குவரத்து	-9.45771
▁நாடுகளின்	-9.45789
ிருக்கிறார்	-9.45794
புற	-9.45797
▁கடை	-9.45829
ணர்	-9.4585
▁அல்ல	-9.4586
os	-9.45992
▁பொருத்த	-9.46003
▁வழக்க	-9.46038
▁எடுக்க	-9.46112
▁கருத்த	-9.4629
கொள்ள	-9.46304
நாடு	-9.46318
▁ஆற்ற	-9.46332
▁பல்கலைக்கழகம்	-9.46389
▁ராம	-9.46433
▁கப்பல்	-9.46443
▁வெவ்வேறு	-9.46532
▁சேர	-9.4661
▁கீழே	-9.46628
ப்பான	-9.46638
▁குற்ற	-9.4666
▁கனிம	-9.46679
▁இணைந்த	-9.46774
ாண்டு	-9.46809
▁அழுத்த	-9.46839
▁நடிகை	-9.46847
வீர	-9.46854
▁திரை	-9.46856
வதற்கு	-9.46973
▁வெளிப்படுத்த	-9.47008
▁பிப்ரவரி	-9.47009
லன்	-9.47023
▁அரங்க	-9.47034
▁இதுவே	-9.47051
▁தொலை	-9.4712
▁கோட்ட	-9.47212
ந்திய	-9.47245
▁மட்ட	-9.47255
▁ஈர	-9.47299
▁விடு	-9.47318
நல்லூர்	-9.47358
▁பயன்படுகிறது	-9.47373
க்கொள்ள	-9.47448
▁நேபாள	-9.4765
▁தெய்வ	-9.47723
ப்பெற்ற	-9.47808
▁ஞான	-9.47841
ஃ	-9.47879
பாய்	-9.47908
▁விகித	-9.47933
▁இச்ச	-9.47959
▁இந்தத்	-9.4802
ூட்ட	-9.48057
▁எடை	-9.48123
ad	-9.48152
▁இரட்டை	-9.48198
▁கவிதை	-9.48223
▁விட்ட	-9.48239
க்குடி	-9.4824
▁நிகழ்	-9.48273
க்கார	-9.483
▁அலகு	-9.48309
ent	-9.48389
▁அளவ	-9.48403
ai	-9.4842
▁அரசாங்க	-9.48485
▁பண்டைய	-9.48493
▁தோட்ட	-9.48509
மூல	-9.48542
▁கிருஷ்ண	-9.48566
ேந்திர	-9.48607
ப்பிர	-9.4862
யற்ற	-9.48644
▁தட	-9.48684
▁நூல்கள்	-9.48702
▁வேத	-9.48723
▁தன்னை	-9.48767
டுப்பாட்டக்காரர்	-9.48815
▁ஒன்றிய	-9.4882
தலை	-9.48876
▁திருத்தந்தை	-9.48911
▁முத்து	-9.48947
▁ஆகவும்	-9.48953
▁காட்டு	-9.48997
▁திருநெல்வேலி	-9.49005
▁கேரள	-9.49008
▁c	-9.49056
வட்ட	-9.491
மிய	-9.49132
▁சேர்	-9.4916
▁50	-9.49197
▁ஆல	-9.49241
▁சூன்	-9.49313
ுகின்ற	-9.4944
ளவில்	-9.49524
▁காம	-9.49541
களாகவும்	-9.4959
மைப்பு	-9.49626
கிறார்	-9.49645
▁குறைவாக	-9.49658
மூ	-9.49665
ப்பூ	-9.49751
▁ஊடக	-9.49758
▁செயல்பாடு	-9.49774
▁திருமண	-9.4992
களி	-9.50033
பட்டு	-9.50161
id	-9.5018
ுபவர்	-9.50212
மூர்த்தி	-9.50257
ன்னி	-9.50271
ப்பாக	-9.50325
▁மண்	-9.50422
▁காரணம்	-9.50491
▁பண்பு	-9.50498
▁பொருட்	-9.50549
ங்களுடன்	-9.50559
▁எல்	-9.50567
em	-9.50589
யம்மன்	-9.50628
ந்தது	-9.5063
▁கொள்	-9.50724
விட்ட	-9.50772
▁செய்யப்பட்டது	-9.50804
▁:	-9.50987
▁பூச்சி	-9.51058
▁திரும்ப	-9.51115
▁and	-9.51137
▁தேர்	-9.51165
ாலய	-9.51284
▁உலகப்	-9.51327
▁கோட்பாடு	-9.5134
▁காரண	-9.51341
▁தொகுப்ப	-9.51379
▁ஒருநாள்	-9.51452
▁எதிர்ப்பு	-9.51457
▁கிள	-9.51478
▁கிராமம்	-9.51487
▁தொகுதியில்	-9.51548
க்கிறது	-9.51565
w	-9.51584
▁பக	-9.51615
▁அவன்	-9.51737
மிக்க	-9.5175
▁நிறுவனத்தின்	-9.51765
▁காரணி	-9.51801
க்கொண்டு	-9.5181
ஞ்சு	-9.51876
▁வங்காள	-9.51967
▁பரவ	-9.5208
▁முன்னணி	-9.52094
▁அறியப்பட்ட	-9.52231
▁விவசாய	-9.52237
ுவதற்கான	-9.52324
ுகிறார்கள்	-9.52368
▁0	-9.52426
▁புரட்சி	-9.52449
யிலுள்ள	-9.52521
தொ	-9.5266
ேஷ்	-9.52719
▁வருகின்றன	-9.52731
டிக்	-9.52763
te	-9.5278
ளம்	-9.52789
▁காற்ற	-9.52875
▁V	-9.52899
▁இயங்க	-9.52946
▁கிடைக்க	-9.53006
▁கொடி	-9.53068
ராய	-9.53154
▁உயிர	-9.53194
க்கால	-9.53208
▁1990	-9.53297
▁நடன	-9.53363
ையா	-9.53398
▁பேரரசு	-9.53408
மண	-9.53433
ப்புற	-9.53476
▁நேரம்	-9.53476
ுவதால்	-9.53495
▁கிரி	-9.53601
▁ஆக்கைவில	-9.53645
க்குச்	-9.53652
▁வயதில்	-9.53657
▁முதலாவது	-9.53832
j	-9.53874
▁வெளியான	-9.53879
ராச	-9.53934
பகுதி	-9.53941
▁பென்	-9.53954
▁நிகழ்ந்த	-9.53996
▁கதிர்	-9.54155
ம்பா	-9.54256
ின்றது	-9.54265
▁ரூ	-9.54334
▁கடந்த	-9.54366
தன	-9.54375
▁முடிவ	-9.54378
ஹ்	-9.54397
▁சிறப்பாக	-9.54427
▁ஆஃப்	-9.5447
▁இந்தியத்	-9.54489
▁தேச	-9.54531
▁இதே	-9.54541
▁ஆவது	-9.54565
▁சந்த	-9.54644
ீட்டு	-9.54776
▁செயல்முறை	-9.54819
கரு	-9.54822
▁வருவாய்	-9.54896
▁மூன்றாவது	-9.5493
▁உட்பட்ட	-9.54955
▁காற்று	-9.55013
▁ஆவர்	-9.55088
▁போன்று	-9.55093
▁பாறை	-9.5513
▁நிறுவனங்கள்	-9.5516
▁சன்னதி	-9.55193
டியா	-9.55225
▁அறிவ	-9.55336
ாய	-9.55359
ஃபி	-9.55371
▁பத்திரிகை	-9.5538
▁சாதனை	-9.55456
▁வாயு	-9.55523
▁உருவாக்கிய	-9.55528
▁நடித்தார்	-9.55564
▁சுற்றுலா	-9.55737
▁பின்பு	-9.5576
▁வாங்க	-9.55773
▁தெரிய	-9.55788
தற்கான	-9.5581
▁விரு	-9.55835
▁கிரா	-9.55899
▁கிடைத்த	-9.55929
▁மரண	-9.55968
▁அந்	-9.56007
▁நீல	-9.5624
▁அனுமதி	-9.56248
▁இசுலாமிய	-9.56249
▁செயல்பட	-9.5645
▁விகிதம்	-9.56513
▁துறைமுக	-9.56518
▁கோல்	-9.56552
▁சிறை	-9.56554
▁தாக்குதல்	-9.56563
▁நை	-9.56564
ப்படாத	-9.56582
ப்பகுதியில்	-9.56601
▁தின	-9.5663
▁அடர்த்தி	-9.56635
▁மெய்	-9.56698
▁உயிரின	-9.56775
▁ஆனது	-9.56859
ண்டை	-9.56863
▁குறியீடு	-9.56888
ண்டர்	-9.56924
▁கர்	-9.56955
▁நுட்ப	-9.57071
▁ல்	-9.57073
▁O	-9.57076
ென	-9.57094
▁இன்னும்	-9.57118
▁வெள்ள	-9.57131
▁நதி	-9.57195
▁வேறுபாடு	-9.57211
▁நூல	-9.57273
▁அய்யனார்	-9.57279
▁தகுதி	-9.57341
▁விளைவு	-9.57359
னியம்	-9.57378
▁கார	-9.57385
▁விவரிக்க	-9.57438
▁துவக்க	-9.57443
ேஸ்வரர்	-9.57491
க்குத்	-9.57585
▁பெயரை	-9.57591
கான்	-9.57646
▁முந்தைய	-9.57657
▁ஜனவரி	-9.57763
பிரி	-9.57841
▁அடங்கும்	-9.57849
▁பொறி	-9.57934
▁திட்டம்	-9.5798
ட்டிய	-9.5799
▁இம்ம	-9.58045
▁ஆயுத	-9.58046
▁தந்த	-9.58099
▁சார்	-9.58099
▁தற்போதைய	-9.58153
எல்	-9.58174
▁தில்லி	-9.58184
▁ஒற்றை	-9.58249
பொருள்	-9.58266
▁லே	-9.58297
▁ரே	-9.58328
தற்	-9.5833
▁விழுப்புரம்	-9.58333
பகுப்பு	-9.58347
▁புலவர்	-9.58379
▁கட்சியின்	-9.58419
ரிக்	-9.58458
▁ஆசியா	-9.58477
ஹி	-9.58522
ிற்கான	-9.58536
▁சிலை	-9.58551
▁கூறினார்	-9.58621
▁பிரெஞ்சு	-9.58622
▁உப்பு	-9.58708
ma	-9.5886
and	-9.58903
▁பொழுது	-9.58916
▁படைப்பு	-9.58975
ிருப்ப	-9.58989
டுகள்	-9.59042
▁குறிப்ப	-9.59048
▁முதன்	-9.59155
ப்பூர்	-9.59192
▁தொடங்கி	-9.59217
▁இவரை	-9.59307
▁1980	-9.59327
விட்டது	-9.5937
நாட்டு	-9.59395
▁வட்டம்	-9.59418
▁கிடைக்கும்	-9.59418
க்கப்பட்டு	-9.5943
▁நினைவு	-9.59614
0%	-9.59618
ஸ்டர்	-9.59626
▁கொடுத்த	-9.59649
▁பயணி	-9.59653
▁மிக்க	-9.59706
▁மது	-9.59715
▁பரி	-9.59729
▁விருப்ப	-9.59753
நோ	-9.59762
▁யோ	-9.59823
ூரில்	-9.59833
த்திற்காக	-9.60059
▁கிராமக்	-9.60143
ிறார்	-9.60227
▁மாற்றம்	-9.6028
▁கல்வெட்டு	-9.60347
▁மாற்று	-9.60372
▁வம்ச	-9.60397
▁மேற்கொண்ட	-9.6051
▁உறவு	-9.60516
லூ	-9.60529
லியா	-9.60538
ag	-9.60539
▁காடு	-9.60539
▁ஆசிய	-9.60569
▁பொறுப்ப	-9.60591
▁கத்தோலிக்க	-9.60606
▁மூலக்கூறு	-9.60625
▁போரில்	-9.60634
▁எழு	-9.60675
ொரு	-9.60701
வரி	-9.60739
கட	-9.60777
▁வண்ண	-9.60793
▁ரயில்	-9.6086
▁40	-9.60891
▁பகுதிகளை	-9.60902
▁செய்	-9.60944
னிக்	-9.61077
தமிழ்	-9.61122
மடைந்த	-9.61123
▁கழக	-9.61174
▁வால்	-9.61176
▁நாணய	-9.61194
▁வாழ	-9.61224
▁வெள்ளி	-9.6125
▁காய	-9.61262
ுவர்	-9.61265
▁என்றால்	-9.6127
▁பதிப்பு	-9.61292
▁அச்சு	-9.61331
▁இவருடைய	-9.61376
▁அருகே	-9.61377
▁திரைப்படத்தில்	-9.61388
▁அமைதி	-9.61472
வித	-9.61481
▁கடைசி	-9.61485
▁ஏற்ப	-9.61543
▁உடல	-9.61566
▁2.	-9.61593
▁பாதுகாக்க	-9.61745
▁நிறுவ	-9.61774
ியா	-9.6178
ராஜ்	-9.61783
▁மேம்படுத்த	-9.6183
த்திலேயே	-9.61916
▁மைல்	-9.61922
▁அடையாள	-9.61922
▁விண்மீன்	-9.61923
▁பார	-9.61952
▁ஆகியன	-9.61954
▁யானை	-9.61978
எடுத்துக்காட்டாக	-9.62012
▁இம்	-9.62032
▁31	-9.62056
குளம்	-9.62066
▁ஆகியவற்றின்	-9.62112
▁சுய	-9.62179
▁இராக	-9.62215
ாண்ட	-9.62292
▁நன்	-9.62427
▁பரப்ப	-9.62481
▁ஏறத்தாழ	-9.62485
த்தம்	-9.62516
▁பூமி	-9.6256
ப்பாடு	-9.62658
▁பின்வருமாறு	-9.62709
▁பலரும்	-9.62735
த்தன	-9.62811
▁ஜெய	-9.6285
J	-9.62851
ang	-9.62852
கூட	-9.6286
ate	-9.62897
▁அயனி	-9.62924
▁உள்ளூர்	-9.62935
▁விண்வெளி	-9.63008
▁ஜூன்	-9.63089
▁இருந்தாலும்	-9.63124
▁அமெரிக்காவின்	-9.63134
▁பிரிக்க	-9.6317
மையான	-9.63177
த்தீ	-9.63201
▁தரை	-9.63258
▁கழகம்	-9.63268
▁பன்னாட்டுத்	-9.6337
த்திலுள்ள	-9.63419
வாக்க	-9.63437
200	-9.63444
▁யூத	-9.63466
▁இப்போது	-9.63476
▁2011.	-9.63534
▁தொடங்கியது	-9.636
சங்க	-9.63601
▁நட்சத்திர	-9.63608
▁மும்பை	-9.6373
▁தூண்ட	-9.63735
க்களின்	-9.63742
காண	-9.63785
▁முதல	-9.63807
▁தயாரிப்பு	-9.63818
°	-9.6384
▁b	-9.63906
▁விரி	-9.63906
▁பின்பற்ற	-9.6394
ுக்காக	-9.6395
யிலான	-9.63975
▁உச்ச	-9.63978
▁இளம்	-9.64011
▁பய	-9.64018
யினால்	-9.64077
▁என்பதால்	-9.64107
ஸ்ட	-9.64224
ெடுக்க	-9.64285
▁ஒப்பந்த	-9.64307
க்குரிய	-9.64373
▁கட்டு	-9.64375
▁வென்ற	-9.6438
▁இலங்கையில்	-9.64596
▁ஆப்	-9.64702
▁சைவ	-9.64893
▁சென்	-9.64975
▁கூறிய	-9.65016
▁விதை	-9.65047
ல்லாத	-9.65058
▁அளவை	-9.65078
hi	-9.65083
▁ஒன்றியம்	-9.65108
▁வழங்கப்பட்டது	-9.65141
▁நாட்கள்	-9.65148
▁தேவி	-9.65157
▁திராவிட	-9.65164
▁படம்	-9.65222
▁ஆகத்து	-9.65245
▁இல்லாமல்	-9.65298
▁ஆன	-9.65528
▁சீர	-9.65555
▁கனடா	-9.65572
ிற்கும்	-9.65642
▁இடத்தை	-9.65653
▁கலைஞர்	-9.65681
▁வழங்கி	-9.65695
▁வாக்கு	-9.65733
ஸ்டி	-9.65788
▁ஆழ	-9.6581
ரிடம்	-9.65815
யிலேயே	-9.65823
▁இவ்வகை	-9.65837
▁திருவ	-9.65839
▁ஆட	-9.65846
▁இதய	-9.65885
ீர	-9.65933
▁பன்	-9.65954
▁குதிரை	-9.65961
▁வடி	-9.65964
▁வலி	-9.66022
▁இவ்வி	-9.66208
▁நே	-9.66241
▁2003	-9.66286
▁வான	-9.66381
▁அமையும்	-9.66556
ேற்ற	-9.66622
▁மனிதர்	-9.66682
▁தொழிலாளர்	-9.66724
▁அனுபவ	-9.66749
▁அன்	-9.66798
▁ஏனைய	-9.66832
ஞ்	-9.66834
83"	-9.66884
▁ஃப	-9.66921
வையாக	-9.66933
im	-9.66953
யினர்	-9.66953
▁ய	-9.6696
▁நு	-9.66976
▁செங்க	-9.66989
▁மாலை	-9.6703
▁விளைவாக	-9.67158
▁விளம்பர	-9.67168
ut	-9.67244
▁கழு	-9.67275
▁வெளியிடப்பட்டது	-9.67347
▁சமுதாய	-9.67403
▁J	-9.6741
▁புரோ	-9.67413
ரக	-9.6745
கட்ட	-9.67503
▁தடுக்க	-9.67555
se	-9.67595
▁திரி	-9.67611
▁மேலாண்மை	-9.67637
▁நடைபெறும்	-9.6767
▁இராஜ	-9.67676
▁அமிலம்	-9.67678
▁ஆக்	-9.67687
பெர்	-9.67687
பெற்ற	-9.67692
▁குட	-9.67709
▁இணைக்கப்பட்ட	-9.67748
விலிருந்து	-9.67768
▁in	-9.67942
▁இப்ப	-9.67959
வம்	-9.68041
X	-9.68133
▁பகுதியை	-9.68147
லிங்க	-9.68148
▁என்கிற	-9.6816
▁திருவண்ணாமலை	-9.68187
▁தோன்றிய	-9.68191
▁பயன்	-9.68208
▁முக்கோண	-9.68268
▁நன்கு	-9.68287
▁ஏனெனில்	-9.68345
▁ஆலய	-9.68373
தேவி	-9.68457
48"	-9.68458
▁துவங்க	-9.68461
▁தொடங்கினார்	-9.68502
நாட்ட	-9.6851
▁விளங்க	-9.68524
▁வானொலி	-9.68586
▁வரு	-9.68606
▁பச்சை	-9.68617
▁ஆள	-9.68651
▁குழந்தைகள்	-9.6866
▁அரசர்	-9.68667
▁பொறியியல்	-9.68844
மாற்ற	-9.68861
▁இருவரும்	-9.68889
▁இல்ல	-9.6892
▁m	-9.68958
நகர	-9.69051
▁இழந்த	-9.69114
▁பலர்	-9.69116
▁பதிலாக	-9.69138
வையும்	-9.69229
▁இவற்றின்	-9.69264
கீ	-9.69318
ெய்	-9.69319
▁வகுப்பு	-9.69362
▁பேருந்து	-9.69416
23"	-9.69425
▁மித	-9.69496
▁நைட்	-9.69609
na	-9.69629
ண்ணி	-9.69669
▁செலவ	-9.69785
ட்சு	-9.69943
யிர	-9.70029
▁உலகில்	-9.70044
வைக்	-9.70118
▁பேரரச	-9.70189
▁நீதிமன்ற	-9.70267
▁படைகள்	-9.70268
யான்	-9.70307
▁கல்ல	-9.70322
யாக்க	-9.70372
▁சக்கர	-9.70445
ஈ	-9.70471
▁நட	-9.70526
▁வில்	-9.7065
▁ஜூலை	-9.7069
▁விஜய	-9.70704
▁மல	-9.70715
ஸின்	-9.70734
+	-9.70759
க்கரை	-9.70773
யாகக்	-9.70866
▁சுழற்சி	-9.70886
▁இந்	-9.70893
▁அமைத்த	-9.7098
▁சேர்க்க	-9.71059
▁நீளம்	-9.71061
ியம்மன்	-9.71074
▁அமைந்துள்ளன	-9.71112
▁வீட்டு	-9.71125
▁அழக	-9.71129
▁பயிர்	-9.71138
▁தெலுங்கு	-9.71146
▁உற	-9.71174
▁வில்லியம்	-9.71177
▁காஞ்சிபுரம்	-9.71234
வருக்கு	-9.71246
▁இருப்பது	-9.71247
ப்பே	-9.71342
▁லூ	-9.71362
தல	-9.71378
களாலும்	-9.71395
▁பிரபல	-9.71429
▁எடுத்துக்	-9.71469
ாசிரியர்	-9.71501
▁கூறி	-9.71509
விடும்	-9.71525
▁வைக்கப்பட்ட	-9.71567
▁இவற்றை	-9.7157
▁+	-9.71571
களோடு	-9.71577
கொள்	-9.71626
▁ஆய	-9.7165
▁நேரடியாக	-9.7166
முடைய	-9.71711
பாட	-9.71778
க்கலை	-9.71797
▁பார்த்த	-9.71838
▁வளர்ந்த	-9.71852
▁பிரபலமான	-9.71903
ங்கே	-9.71913
ாகப்	-9.71929
▁லோ	-9.71967
ல்ட்	-9.71972
▁வன	-9.71973
▁அடைந்த	-9.71976
▁2002	-9.72154
டும்	-9.72171
▁கொல்ல	-9.72173
▁கொண்டுள்ளன	-9.72213
த்தினால்	-9.72219
செய்	-9.7222
▁கணக்கெடுப்பின்	-9.72222
<	-9.72265
▁பின்வரும்	-9.72287
▁மின்ன	-9.72379
▁பிரதான	-9.72388
▁கோவில	-9.72473
வரு	-9.7249
▁நெடு	-9.72519
தோடு	-9.72528
▁காந்த	-9.72532
த்தக்க	-9.72543
▁கோண	-9.72596
▁பொருட்களை	-9.72627
▁வார்த்தை	-9.72644
த்தொ	-9.72663
▁அர்	-9.72786
▁பாதிக்கப்பட்ட	-9.72789
▁வடிவம்	-9.72817
▁காணலாம்	-9.72834
▁வளை	-9.72897
▁திசம்பர்	-9.72986
▁முறையாக	-9.73067
ig	-9.73078
tion	-9.73095
வாறு	-9.7315
▁மக்	-9.73152
வடி	-9.73178
▁அவர்களது	-9.73194
ட்ரா	-9.73235
▁பயன்படும்	-9.73285
▁அடைய	-9.73303
லாந்து	-9.7334
ine	-9.73344
▁பிரச்சினை	-9.73401
போர்	-9.73427
ுவதன்	-9.73504
ப்பணி	-9.73512
நே	-9.73513
▁அவசிய	-9.73524
▁பிரம்ம	-9.73573
▁சாத்திய	-9.73575
▁எண்ணெய்	-9.73664
பம்	-9.73677
ும	-9.73749
all	-9.73763
▁ஒப்பு	-9.73774
▁மலையாள	-9.73782
ுவதில்	-9.73824
ப்பட்டுள்ள	-9.73825
▁முறைமை	-9.73835
ிசை	-9.73893
ன்றி	-9.73937
ங்க்	-9.73941
▁சேலம்	-9.73977
▁நாம்	-9.73982
▁ஈழ	-9.74032
▁சீனா	-9.74034
▁அசை	-9.74109
▁நடத்தி	-9.74209
-1	-9.74222
ாகக்	-9.74271
▁சிறப்ப	-9.74279
▁முது	-9.74282
▁துறையில்	-9.74333
▁இரவு	-9.74341
▁பாராட்ட	-9.74359
குறி	-9.74373
▁அடக்க	-9.74464
ath	-9.74491
▁இதழ	-9.7458
▁f	-9.74593
▁பிரதி	-9.74614
▁செய்தது	-9.74619
▁அம்ச	-9.74656
மீன்	-9.74658
▁கடவுள்	-9.74682
▁லீ	-9.74702
ந்தோ	-9.74718
துறை	-9.74735
ண்மை	-9.74752
▁தனிப்பட்ட	-9.74837
▁நிறைவேற்ற	-9.74867
▁வேறுபட்ட	-9.74905
▁குளிர்	-9.74933
▁வெளியிடப்பட்ட	-9.75054
▁அங்கே	-9.7511
▁பெற்றவர்	-9.7523
▁கொலை	-9.75255
▁ஐரோப்பா	-9.75269
▁வழங்கும்	-9.75282
▁இங்குள்ள	-9.75314
▁விவர	-9.75372
▁ஆதரவ	-9.75406
▁மேற்கொள்ள	-9.75406
▁நகராட்சி	-9.75426
▁கற்	-9.75461
▁ஏற்பட்டது	-9.75627
▁சர	-9.75628
▁சார்பு	-9.75679
▁இணைப்பு	-9.7568
▁சோவியத்	-9.75684
▁திரவ	-9.75723
ow	-9.758
ங்குடி	-9.75849
ருக்கும்	-9.7585
▁படுத்த	-9.75853
ிருக்கின்றன	-9.75899
வர்களுக்கு	-9.759
▁மூலக்கூற்று	-9.75921
▁எடுத்த	-9.75939
▁கலாச்சார	-9.75963
ுவத	-9.75987
▁நடை	-9.76074
▁அண்ட	-9.76141
▁முருகன்	-9.76193
▁புரத	-9.76224
▁ஊர	-9.7629
▁இந்தி	-9.763
▁நிகழ்த்த	-9.76312
▁வகைப்படுத்த	-9.76334
▁திருச்சபை	-9.76335
▁பத	-9.76338
ப்பொ	-9.76404
சர	-9.76473
▁மஞ்சள்	-9.7648
▁மண்ண	-9.765
▁பெருமை	-9.76667
வடிவ	-9.76729
ap	-9.76744
▁வெளியே	-9.76774
▁பெருக்க	-9.76801
▁பாதி	-9.7684
▁மின்சார	-9.76842
▁முன்னேற்ற	-9.76844
ne	-9.76867
▁சாதி	-9.76876
▁நாராயண	-9.76881
▁நடித்துள்ளார்	-9.76904
வதை	-9.76925
op	-9.76936
▁ஜெர்மனி	-9.76947
▁கட்டமைப்பு	-9.76963
▁செயற்கை	-9.76989
▁2,	-9.76996
▁இருந்தால்	-9.77106
▁எலும்பு	-9.77143
கலை	-9.77179
ெடுத்த	-9.77191
▁தீவிர	-9.77219
▁வலை	-9.77267
▁1970	-9.77279
ராம	-9.77323
▁எழுதியுள்ளார்	-9.77373
▁குறைக்க	-9.77398
செல்	-9.77504
▁சௌ	-9.7752
▁நிறை	-9.77535
▁வழிமுறை	-9.77542
▁திறமை	-9.77601
▁போன்றவற்றை	-9.77662
▁சிங்க	-9.77663
▁எழுந்த	-9.77665
▁அடிப்படையாகக்	-9.77707
ிற்காக	-9.77722
▁உள்நாட்டு	-9.77736
▁ஜீ	-9.7774
▁ஈடுபட்ட	-9.77781
▁சமயம்	-9.77795
▁சிலர்	-9.77835
க்களில்	-9.77869
▁மலேசியா	-9.77897
ிட்ட	-9.77907
▁1960	-9.77939
▁இலக்கண	-9.7796
க்கூட	-9.78019
▁கைப்பற்ற	-9.78036
▁படத்தில்	-9.78067
▁மக்களுக்கு	-9.78127
▁பாடசாலை	-9.78434
▁நிறைந்த	-9.78518
▁பயன	-9.7852
▁துணி	-9.78579
ிருக்கலாம்	-9.78587
▁வார்	-9.7862
▁பொன்ன	-9.78636
▁முக்கியத்துவம்	-9.78663
ரொ	-9.78749
▁திற	-9.78757
வார	-9.78758
ஆங்கிலம்	-9.78982
▁நீதி	-9.79079
▁உள்ளடக்க	-9.79095
▁உணவ	-9.79099
ார	-9.79118
▁அமைந்தது	-9.79128
▁தோன்ற	-9.79181
க்கிர	-9.79213
▁புராண	-9.79223
ியுள்ளார்	-9.79226
▁என்றாலும்	-9.79227
ாா்	-9.79283
▁தக	-9.79289
▁போக	-9.79337
▁பிடித்த	-9.79369
ொன்ற	-9.79396
▁காதல்	-9.79429
▁மதிப்ப	-9.79448
▁தெரிவித்த	-9.7952
▁ஆகியோர	-9.79567
நாதர்	-9.79588
▁முடியாது	-9.79637
▁ஹார்	-9.7971
▁பாதுகாப்ப	-9.79727
ak	-9.79733
▁அறு	-9.79749
▁அவர்களுக்கு	-9.79849
▁போலவே	-9.79858
▁வாழ்வ	-9.79874
கையில்	-9.799
▁உறை	-9.79911
▁2017	-9.79932
▁பாடிய	-9.79939
▁ஆல்ப	-9.79967
▁இராச	-9.79985
யுடைய	-9.80003
▁கண்டி	-9.80015
▁பரிமாற்ற	-9.80068
me	-9.80079
▁ஒலிம்பிக்	-9.80114
▁வைர	-9.80119
▁கோடி	-9.8017
▁ஆகஸ்ட்	-9.8019
▁முட்டை	-9.802
ச்சேரி	-9.80208
▁மையமாக	-9.80235
▁அரசியல்வாதி	-9.80272
▁டொ	-9.80347
▁கேள்வி	-9.80358
▁இடைவெளி	-9.80421
▁தற்கால	-9.8044
▁சாதன	-9.80447
▁உள்ளடக்கிய	-9.80452
▁உண்ண	-9.80464
▁பெண்ண	-9.8047
▁வேட	-9.80499
மல்	-9.80501
ாளர்கள்	-9.80514
வில	-9.80517
▁சென்றார்	-9.80528
▁நடித்துள்ளனர்	-9.80566
▁சிக்கல்	-9.80587
▁இயக்கம்	-9.80629
▁குருதி	-9.8068
▁ஆர்வ	-9.80715
▁கதாபாத்திர	-9.80758
வளை	-9.8076
க்கின்	-9.80826
▁கணக்க	-9.80897
▁வளைய	-9.80922
▁பரப்பளவு	-9.80956
▁வல	-9.81016
▁U	-9.81055
ab	-9.81065
▁கார்பன்	-9.8115
பேட்டை	-9.81189
▁இப்பகுதி	-9.81211
▁மலர்	-9.81281
வூ	-9.81434
யோடு	-9.81441
ac	-9.81445
▁இலக்க	-9.81455
▁இரும்பு	-9.81481
▁அம்ம	-9.81619
▁குறிப்பு	-9.81636
ிடமிருந்து	-9.81639
▁என்பவரால்	-9.81659
ப்படுத்தப்பட்ட	-9.81709
sh	-9.81709
▁மரபணு	-9.8171
▁அனைத்தும்	-9.8174
ப்பான்	-9.81768
▁சிற்ப	-9.818
▁கண்டறிந்த	-9.8185
சில	-9.82025
க்கில்	-9.82031
ினாலும்	-9.82054
ராம்	-9.82066
விட்டார்	-9.82098
▁நோயாளி	-9.82107
▁முனைவர்	-9.82111
ர்ஸ்	-9.82155
ளித்த	-9.8218
▁எடுத்துக்காட்டு	-9.82195
▁சேர்ந்தவர்	-9.82213
சொ	-9.82414
▁ஆகியவற்றில்	-9.82422
▁பயணம்	-9.82437
▁ஏற்க	-9.82448
▁கடவுள	-9.8245
▁பசு	-9.82518
பியா	-9.82615
▁நடத்திய	-9.8263
▁கூறப்படுகிறது	-9.82646
▁கடலூர்	-9.82699
ாய்வு	-9.82722
வைச்	-9.82741
களா	-9.82772
சாரி	-9.82773
▁சூழ்நிலை	-9.8279
இந்த	-9.82821
▁கலவை	-9.82828
ாதி	-9.82953
கின்	-9.83008
ஞ்சா	-9.83051
▁கடல	-9.83131
▁நிர்	-9.83236
▁கிட்டத்தட்ட	-9.83245
▁நிலையை	-9.83291
▁தொழிற்சாலை	-9.8334
▁ஆற்றின்	-9.83352
ங்களால்	-9.83383
▁அமைப்பை	-9.83423
▁மூத்த	-9.83432
▁பாடல	-9.83442
▁இருந்தனர்	-9.83481
▁பாணி	-9.83582
▁தனியார்	-9.83603
▁திறந்த	-9.83637
▁வேளாண்மை	-9.83665
II	-9.8367
களுக்குப்	-9.83696
▁திரைப்படங்களில்	-9.83722
▁நேச	-9.83771
▁60	-9.83799
தூ	-9.838
ti	-9.8382
▁விளங்குகிறது	-9.8383
லோக	-9.83846
▁இழை	-9.8385
▁எழுதினார்	-9.83861
▁உணர்	-9.83883
▁கடன்	-9.83917
க்கல	-9.83923
▁அரண்மனை	-9.8398
ஒரு	-9.84006
க்கர்	-9.8402
சார	-9.84057
▁உத்தர	-9.84105
▁குறிக்கிறது	-9.84221
க்கண	-9.84343
▁திறன	-9.84382
▁தவ	-9.84387
வச	-9.84424
ப்படலாம்	-9.84464
▁போற்ற	-9.84473
▁வடிவில்	-9.8453
▁முடிய	-9.84581
▁நிலுவையில	-9.84583
▁உருவாக்கி	-9.84585
ஸா	-9.8461
▁பெறும்	-9.84653
▁வெளியேற்ற	-9.84697
ெழு	-9.84707
▁பக்த	-9.84803
▁சந்தித்த	-9.84818
ங்கல்	-9.84838
▁கோப்பை	-9.84846
▁()	-9.84976
▁படைத்த	-9.84994
த்தனர்	-9.85046
▁அனுமதிக்க	-9.85111
▁அடுக்கு	-9.85132
▁நகைச்சுவை	-9.85233
▁உலகம்	-9.85306
▁பாரி	-9.8531
▁நுழை	-9.85312
க்கப்படும்	-9.85332
▁பெரிதும்	-9.8538
▁பரப்பு	-9.85382
▁தக்க	-9.85505
co	-9.85507
▁மலேசிய	-9.85628
கின்ற	-9.85642
டைந்த	-9.85711
▁கற்று	-9.85722
திலிருந்து	-9.85761
▁திருத்த	-9.85807
▁புதுக்கோட்டை	-9.8586
க்கூ	-9.8588
▁அறிந்த	-9.8612
▁கடத்த	-9.86153
▁ஜூ	-9.86159
▁ஈடுபட	-9.86229
▁தீர்த்த	-9.86293
▁செயல்படுத்த	-9.86447
▁ஒளிபரப்ப	-9.86509
▁நொ	-9.86533
▁பள்ளியில்	-9.86538
ion	-9.8659
▁உறுப்பினர்கள்	-9.86609
▁அழைக்கப்பட்ட	-9.86656
▁புனை	-9.86666
கின்றனர்	-9.8667
▁அடையாளம்	-9.8668
▁நுண்	-9.86724
▁உரிய	-9.8686
▁சிறுகதை	-9.86896
▁சங்கம்	-9.86939
▁மென்பொருள்	-9.86982
▁தன்ன	-9.86999
ப்பெரு	-9.87001
▁பகு	-9.87026
ist	-9.8703
நெ	-9.87047
நாயக்க	-9.87122
▁இருப்பதாக	-9.87145
ினுள்	-9.87175
▁வரலாற்றில்	-9.87179
னுடன்	-9.87279
▁புதின	-9.87292
னூ	-9.87324
▁சரியான	-9.87339
▁ராஜா	-9.87372
▁நார்	-9.87407
ம்பல	-9.87448
ிலிருந்த	-9.87468
▁அதிகரிக்க	-9.87482
▁புரிந்து	-9.87585
▁உதாரணமாக	-9.87594
▁1999	-9.87598
▁முடியாத	-9.87601
▁கொள்ளும்	-9.87612
வேக	-9.87679
▁வாழ்ந்து	-9.87701
னுடைய	-9.87775
த்திரை	-9.8779
▁நடைபெற்றது	-9.87791
க்குறி	-9.87869
▁உருவான	-9.87882
▁ஆய்வ	-9.87941
▁தரும்	-9.87984
▁வெளியேற	-9.88041
பிய	-9.88067
▁பெப்ரவரி	-9.88075
▁அமைச்ச	-9.88084
ங்கிய	-9.8815
▁காவல்	-9.88169
ாளராக	-9.88179
▁சிவப்பு	-9.88271
▁கவன	-9.88294
▁அறிந்து	-9.88394
▁மாநிலம்	-9.88428
▁பாவ	-9.88478
▁இவ்	-9.885
▁அறிகுறி	-9.88508
▁கொண்டதாக	-9.88534
▁நியமிக்கப்பட்ட	-9.88562
▁வடிவமைப்பு	-9.886
கிறான்	-9.88604
▁கொண்டுள்ள	-9.88634
▁பேரரசின்	-9.8866
ஃப	-9.88708
▁கண்டறிய	-9.88742
போல	-9.88792
▁அறிஞர்	-9.88803
▁சிங்கள	-9.88851
▁வரையறை	-9.88993
ப்பட்டனர்	-9.89064
▁கலி	-9.89143
யற்	-9.89148
vi	-9.892
ிற	-9.89282
▁மையம்	-9.89295
▁பொருந்த	-9.8933
▁தொடங்கிய	-9.89355
▁இந்நகர	-9.89378
துடன்	-9.89395
ப்படுத்தி	-9.89455
▁மாணவர்கள்	-9.8947
▁நிருவாகியா	-9.89524
▁குவி	-9.89563
ல்கள்	-9.89598
▁சிவகங்கை	-9.89624
▁செயலாளர்	-9.89666
▁சார்ப	-9.89717
▁வளாக	-9.89756
ம்பர	-9.89843
▁குடியேற்ற	-9.89855
▁சூழல்	-9.89991
▁குடியரசு	-9.89999
▁தேட	-9.90062
ுவார்	-9.90085
மேற்க	-9.9011
up	-9.90124
▁முஸ்லிம்	-9.90162
▁வரலாற்ற	-9.90222
ண்டோ	-9.90237
சான்	-9.90259
▁இயற்பியல்	-9.90265
▁எவ்வாறு	-9.90266
▁கிராமத்தில்	-9.90327
▁அப்ப	-9.9043
▁மாதத்தில்	-9.90436
▁அல	-9.90495
▁கன்னி	-9.90496
▁பிறந்தவர்	-9.90496
மய	-9.90497
ியின்	-9.90505
▁போன்றவற்ற	-9.9057
▁தொழிற்	-9.90746
▁வகைகள்	-9.90782
▁சித்த	-9.90908
▁இத்தாலிய	-9.90935
▁கண்ணாடி	-9.9105
க்கீ	-9.91142
▁தூத்துக்குடி	-9.91148
▁வருகின்றனர்	-9.91204
▁தயாரித்த	-9.91207
▁இயல்பு	-9.9123
▁செலவு	-9.91236
▁கட்டட	-9.91297
▁வேர்	-9.91311
ிருந்தனர்	-9.91338
சேர்	-9.91339
சூர்	-9.91376
▁உபயோக	-9.91405
ீஸ்வரர்	-9.91447
▁கட்டுரைகள்	-9.91472
▁கேட்ட	-9.91474
கால்	-9.91495
▁நகரின்	-9.91593
▁வளர்	-9.91618
▁கிரிக்கட்	-9.91626
▁கணக்கிட	-9.91703
▁அலி	-9.91736
An	-9.91801
நகர்	-9.91806
க்கொ	-9.91814
ப்பெயர்	-9.91828
[	-9.91869
▁போன	-9.91887
-20	-9.9192
man	-9.92034
மென்	-9.92078
▁உர	-9.92114
▁நேரங்களில்	-9.92161
த்திரி	-9.92196
▁அரிய	-9.92242
ெல்லாம்	-9.92276
▁சம்பந்த	-9.923
▁அலுவலக	-9.92331
▁1996	-9.92381
▁சகோதரர்	-9.92432
க்கூடும்	-9.92444
▁அட்டவணை	-9.92445
பென்	-9.92446
▁தொகையில்	-9.92497
இன்	-9.92531
▁ஆடு	-9.92541
▁ஜெர்மானிய	-9.92545
▁நபர்	-9.92566
▁பிரே	-9.9258
த்தல	-9.9264
▁வண்டி	-9.9265
▁நாட்டை	-9.92661
▁நேரடி	-9.9267
▁பந்து	-9.92684
▁நிறுவப்பட்டது	-9.92705
இது	-9.9271
ின்படி	-9.92758
▁ராஜ்	-9.92774
▁வெளியானது	-9.928
▁தெரிவிக்க	-9.92834
▁ஒன்பது	-9.92898
▁a	-9.92908
▁இடது	-9.92952
▁பிரதேசம்	-9.93039
▁அமைய	-9.93043
ell	-9.93108
▁முழுமையாக	-9.9311
▁விளையாட்ட	-9.93146
▁நாட்	-9.93148
▁அணுக்	-9.93153
ஸ்டா	-9.93165
▁வழக்கமாக	-9.93187
மேன்	-9.9327
பரி	-9.93383
ly	-9.93437
ிறார்கள்	-9.93505
▁ஆசிரிய	-9.93556
▁பிணை	-9.93729
ce	-9.9386
▁முதன்மையான	-9.93865
சம	-9.93869
தேச	-9.93914
▁பிரிக்கப்பட்ட	-9.93922
ழா	-9.93938
▁உயரத்தில்	-9.94055
வாச	-9.94072
வெல்	-9.94081
யேற்ற	-9.94148
▁உருவாகும்	-9.94187
வுகள்	-9.94196
▁பாடல்களை	-9.9422
போல்	-9.94246
▁தொடர்ந்த	-9.94253
செய்த	-9.94346
▁கையாள	-9.94376
▁பொறுத்து	-9.94387
▁பாலி	-9.94417
▁கவு	-9.94437
▁கூட்டணி	-9.94442
லிருந்து	-9.9451
யாளராக	-9.94548
▁தொடரில்	-9.94557
▁சிறிது	-9.94591
▁முறையை	-9.94647
▁பெண்களின்	-9.94653
மாக்க	-9.94673
▁நிறைவு	-9.94679
சிங்க	-9.94724
வட	-9.94727
ித்தார்	-9.94731
▁ஆனார்	-9.94734
▁மூன்ற	-9.94766
▁போரின்	-9.94785
▁அடங்கிய	-9.94885
▁கூடுதலாக	-9.94937
com	-9.94973
▁சுத்த	-9.94985
ப்பொருட்கள	-9.95035
▁அடிக்கடி	-9.95091
▁நூலில்	-9.95127
ஷ்ட	-9.95131
ுரு	-9.95135
▁கூறுகிறது	-9.9515
▁அகல	-9.95174
ச்சல்	-9.95195
விலுள்ள	-9.95207
▁தயாரிப்ப	-9.95278
ப்படுகிறார்	-9.95278
▁இம்மா	-9.95339
▁ஆரம்பித்த	-9.95353
சென்	-9.95353
▁அஞ்சல்	-9.95416
தையும்	-9.95562
▁பாண்டிய	-9.95571
டங்க	-9.95585
▁கோட்பாட்ட	-9.95586
▁கருப்பு	-9.95606
மாய்	-9.95644
▁தனக்கு	-9.9569
த்திரம்	-9.95712
ஜீ	-9.95736
வியா	-9.95834
▁ஆய்வுகள்	-9.95835
▁நாளில்	-9.95844
▁(1	-9.9586
▁மேலே	-9.95868
▁பழக்க	-9.95868
ரிமை	-9.95898
ருக்க	-9.95952
காளியம்மன்	-9.96046
▁பேச்சு	-9.96084
▁மாறாக	-9.96101
▁முருக	-9.96123
▁அளவிலான	-9.9615
▁இந்நூல	-9.96166
▁எண்ணி	-9.96184
பெரு	-9.9621
யீ	-9.9629
▁பட்டு	-9.96294
▁அடிமை	-9.96313
▁இத்த	-9.9632
▁யோக	-9.96382
av	-9.96464
வாரி	-9.96471
▁காசி	-9.9649
கோண	-9.96517
▁அமைப்பின்	-9.96556
ப்படுகின்ற	-9.96571
ிடையே	-9.96575
மொ	-9.96709
▁வெளியிட்டார்	-9.96771
▁சேத	-9.96777
▁அட்டை	-9.9678
ம்மன்	-9.96828
யாகப்	-9.96854
க்காடு	-9.96944
▁மிகச்	-9.96954
ect	-9.96967
▁மரியா	-9.96971
▁கழி	-9.97008
▁சான்று	-9.9701
▁இத்	-9.97016
▁சற்று	-9.97019
▁காலை	-9.97055
▁இணைத்து	-9.97131
▁தர்ம	-9.97156
நாதன்	-9.9719
▁சிந்தனை	-9.97228
ho	-9.97271
▁வரையறுக்க	-9.97339
▁ஓய்வு	-9.9735
▁காட்டிலும்	-9.97407
▁1998	-9.97423
▁செய்யப்படும்	-9.97427
லிங்	-9.9743
▁சுற்ற	-9.97434
▁செய்யப்பட்டு	-9.97439
ங்களுக்கும்	-9.97474
ரெட்	-9.97475
▁அவற்றில்	-9.97494
▁இளைய	-9.97502
▁சென்னையில்	-9.97553
ிருந்து	-9.97612
▁விளக்கு	-9.97645
Al	-9.97676
▁மாணவ	-9.97697
ட்டான்	-9.97722
ருடன்	-9.97729
▁பரிந்துரை	-9.97731
லியன்	-9.97753
▁ஆசிரியராக	-9.97772
▁பண்ப	-9.9779
▁பெற்றோர்	-9.97806
od	-9.97827
ுப்	-9.97849
▁வலது	-9.97895
▁பழங்குடி	-9.97925
▁பரிச	-9.97948
ுகிறான்	-9.98008
▁மக்களை	-9.98054
▁தோல்வி	-9.98067
▁ஈரோடு	-9.98093
▁வழங்கிய	-9.9812
ஸ்கோ	-9.98142
▁காலங்களில்	-9.98152
ேரி	-9.98165
▁தொல்	-9.98178
▁மார்க்	-9.98183
▁குண்டு	-9.98204
வதாக	-9.98214
தனை	-9.98328
▁அவரின்	-9.9833
யாளர்கள்	-9.98355
▁சல்	-9.98361
னான்	-9.98377
▁கரி	-9.98393
▁பாத	-9.9843
மது	-9.98472
277	-9.98495
ஸில்	-9.98514
▁நாட	-9.98515
▁சோடியம்	-9.98517
விளை	-9.98614
வரான	-9.98638
கிற	-9.98649
ருவி	-9.98676
▁1989	-9.98691
ச்சை	-9.98704
▁அழைத்து	-9.98736
▁தலைமையில்	-9.9875
▁தண்ட	-9.98764
▁கலந்த	-9.98768
இந்திய	-9.98798
▁சிவாகம	-9.98871
▁தப்பி	-9.9891
▁விமர்சன	-9.98924
▁இங்கே	-9.98935
▁வணங்க	-9.98942
த்தோடு	-9.98986
ப்பாட்ட	-9.98986
செய்ய	-9.99185
▁சுப்பிரமணிய	-9.99195
குரு	-9.99212
பொருள	-9.99263
▁தொடு	-9.99272
மில்	-9.99276
▁மரப	-9.99288
▁அழைப்ப	-9.99324
▁அமைப்புகள்	-9.99361
▁பின்னணி	-9.99372
▁செய்கிறது	-9.99387
வானது	-9.99419
▁எதிர	-9.99454
த்திட்ட	-9.99457
ுகிற	-9.99511
வர்களின்	-9.99516
றிவு	-9.99565
ற்றை	-9.9957
▁குழாய்	-9.99593
▁ஆனாலும்	-9.99659
▁படிக	-9.99735
▁கூடுதல்	-9.99774
▁ரூபாய்	-9.99797
▁கட்டுமான	-9.9984
▁உணர்வு	-9.99866
▁எடுக்கப்பட்ட	-10.0002
காலத்தில்	-10.0004
▁நண்பர்	-10.0006
▁நகரத்தில்	-10.0008
த்ரா	-10.0013
▁வழங்கப்பட்ட	-10.0016
க்கட்ட	-10.0021
னைப்	-10.0022
▁எதிரி	-10.0022
▁பயன்படுத்தும்	-10.0027
▁உயரம்	-10.0028
▁நுண்ண	-10.0032
▁அறிமுக	-10.0033
ப்பன்	-10.0035
ிக்கும்	-10.0036
▁அற	-10.0039
▁என்பவர	-10.004
▁இறைவன	-10.0041
▁காணப்பட்ட	-10.0042
▁ஆனந்த	-10.0042
▁உண்மையான	-10.0044
▁வழிபாடு	-10.0044
▁மீதான	-10.0046
▁வருகை	-10.0049
▁டீ	-10.0051
▁மூளை	-10.0058
யிடம்	-10.006
ுடனும்	-10.0061
ப்படு	-10.0063
▁பண்பாட்டு	-10.0071
▁1991	-10.0073
▁குழும	-10.0076
தின்	-10.0078
di	-10.0079
▁நூல்களை	-10.0083
▁கைது	-10.0085
▁இன்றும்	-10.009
கிரா	-10.009
னன்	-10.0093
கூர்	-10.0094
மினி	-10.0098
▁முன்னோடி	-10.0098
▁பயனர்	-10.01
ுவதில்லை	-10.0107
▁வட்டார	-10.0107
மையை	-10.0108
▁மகள்	-10.0111
மன	-10.0111
▁வெகு	-10.0111
ப்பெற	-10.0111
▁ஹை	-10.0113
சிங்	-10.0115
▁நம்	-10.0115
▁செயல்பாட்ட	-10.012
▁இலக்கு	-10.0142
▁அனைவரும்	-10.0143
களு	-10.0144
▁1950	-10.0145
ஃபா	-10.0146
▁வருமான	-10.0148
ந்த்	-10.0153
▁பரந்த	-10.0156
ப்பெருமாள்	-10.0163
ம்மா	-10.0164
த்தினர்	-10.0167
க்கள	-10.0168
ுகின்றார்	-10.0175
▁உயிரி	-10.0177
▁சக	-10.0179
▁உதவும்	-10.018
▁கட்டிடக்கலை	-10.0182
க்கின்றன	-10.0186
5%	-10.0192
▁எப்படி	-10.0198
ென்று	-10.0199
▁சுருக்க	-10.0205
▁வந்தனர்	-10.0207
ரத்தின	-10.021
▁இவன்	-10.0211
▁ஏற்றுக்கொள்ள	-10.0212
▁கோப	-10.0213
க்கட	-10.0214
▁பாஸ்	-10.0218
▁அண்ணா	-10.0218
▁கன்னட	-10.0223
ஞ	-10.0223
கொண்டு	-10.0225
ுக்குப்	-10.0227
லக	-10.0228
த்தலை	-10.0229
▁நூலை	-10.0231
▁அப்பா	-10.0232
▁கண்டுபிடித்த	-10.0235
▁அறியப்படுகிறது	-10.0237
▁காங்கிரஸ்	-10.0241
▁கால்பந்து	-10.0253
▁பரவிய	-10.0254
▁இவற்ற	-10.0259
▁மரம்	-10.0262
▁வாய்ப்பாடு	-10.0265
குமார்	-10.0268
களினால்	-10.0271
▁புரி	-10.0274
க்கால்	-10.0276
▁உருவாக்கும்	-10.0277
ொன்று	-10.0283
லியோ	-10.0286
▁நிலையான	-10.0298
ொளி	-10.0299
▁கேட்க	-10.03
திலும்	-10.0301
டில்	-10.0303
▁அறிவித்த	-10.0315
▁போட்டியிட்டு	-10.0317
வாழ்	-10.0317
▁ஆதரவு	-10.0322
கோவில்	-10.0324
தேவ	-10.0329
மல்ல	-10.0333
▁ஆர	-10.0333
▁எழுப்ப	-10.034
னிடம்	-10.0342
தள	-10.0344
▁இந்தியப்	-10.0344
▁யார்	-10.0344
நாள்	-10.0347
▁கோள	-10.0349
▁வடிவமைப்ப	-10.0349
▁உச்சி	-10.0358
▁சூழ	-10.0359
▁இராச்சிய	-10.0364
▁உணர	-10.0364
▁இத்திரைப்படம்	-10.0365
▁முற்	-10.0365
▁பயன்பாட்ட	-10.0366
ாமை	-10.0371
▁அமை	-10.0384
▁அவள்	-10.0384
தாலும்	-10.0387
▁அவர்களை	-10.0388
களிடையே	-10.039
▁தாம்	-10.0391
ங்களைத்	-10.0392
▁தொலைவிலும்	-10.0393
▁புகை	-10.0399
▁நீரில்	-10.0402
▁ஆணைய	-10.0402
▁நிகழ்வ	-10.0405
▁ஒன்றான	-10.0408
▁இத்தல	-10.0409
▁டிரா	-10.0409
▁வழியில்	-10.0412
பத	-10.0414
குல	-10.0414
▁ஹே	-10.0417
▁ஆரம்பத்தில்	-10.0417
பார	-10.042
▁இஸ்	-10.0431
▁எளிய	-10.0433
▁வளர்க்க	-10.0443
வூர்	-10.0443
▁பற்றியும்	-10.0447
▁இந்தச்	-10.0448
Cl	-10.0452
▁பிடிக்க	-10.0453
▁வானியல்	-10.0458
▁3.	-10.0464
▁ஆவி	-10.0468
▁அழகிய	-10.0469
▁பங்கேற்ற	-10.0473
மக	-10.0473
▁ஆஸ்திரேலியா	-10.0479
▁தாழ்	-10.048
▁நிமிட	-10.0482
தார்	-10.0482
▁கூறுகிறார்	-10.0484
லியம்	-10.0492
▁இச்	-10.0497
▁குடும்பம்	-10.0501
தைக்	-10.0501
▁பாக்	-10.0501
த்தள	-10.0506
▁தோல்	-10.0507
கிய	-10.0508
▁பெருங்கடல	-10.0511
▁வயத	-10.0513
▁ஏர்	-10.052
ராஜா	-10.0526
சிவ	-10.0531
▁இக்கால	-10.0531
ுனர	-10.0533
▁நூலக	-10.0533
▁இறக்க	-10.0535
ளே	-10.0536
▁கிளா	-10.0536
▁சீர்	-10.0536
▁மாகாணத்தில்	-10.0542
யக	-10.0547
▁கன்னியாகுமரி	-10.0551
்க	-10.0561
▁கிரு	-10.0563
த்தர	-10.0565
▁மொழிகளில்	-10.0566
▁ஐய	-10.0567
▁விவாத	-10.0573
ுமான	-10.0579
பாட்டு	-10.058
பக்க	-10.0582
▁அட்	-10.0582
▁முறைகள்	-10.0583
▁இடம்பெற	-10.0585
▁என்பதாகும்	-10.0592
▁வரைபட	-10.0596
▁ரு	-10.0597
▁1984	-10.0598
▁மரு	-10.0601
▁ஆங்கிலம்	-10.0602
பல்	-10.0604
▁சித்திரை	-10.0609
▁தண்டனை	-10.0611
டாக	-10.0611
▁ஆப்பிரிக்கா	-10.0613
▁பாராளுமன்ற	-10.0614
▁மன்ன	-10.0616
ip	-10.0618
▁நரம்பு	-10.0625
னைக்	-10.0628
▁வீதி	-10.0629
▁அன்ன	-10.0633
▁குழுக்கள	-10.064
ிருந்தன	-10.065
▁செய்தனர்	-10.0651
▁ஒடுக்க	-10.0658
ுடனான	-10.0659
மறை	-10.0659
▁டாலர்	-10.0659
வர்களாக	-10.0662
▁அவற்ற	-10.0663
வைப்	-10.0664
▁போதும்	-10.067
▁இதுவரை	-10.067
▁1994	-10.0673
▁ஆங்கிலேய	-10.0674
ாறு	-10.0683
வைத்	-10.0683
▁மேடை	-10.0688
ட்ரி	-10.069
▁அந்தப்	-10.0691
▁கடுமையான	-10.0695
▁2018	-10.0695
▁கட்டுப்பாடு	-10.0696
▁வேலூர்	-10.0702
▁தொடங்க	-10.0704
▁அன்னை	-10.0706
▁காய்	-10.0707
லிங்கம்	-10.0712
▁செய்யப்படுகிறது	-10.0712
▁தலைநகர	-10.0713
▁மாசி	-10.0717
▁இன்ன	-10.0718
▁80	-10.0721
ாபாத்	-10.0722
ங்களான	-10.0722
▁கொண்டிருந்தது	-10.0728
▁உப	-10.0728
▁அகற்ற	-10.0729
ாங்க	-10.0735
▁அவள	-10.0738
▁செடி	-10.0742
▁தூர	-10.0757
ட்டன்	-10.0758
பில்	-10.0762
▁குவா	-10.0765
▁இன்றைய	-10.0771
▁பிரதேசச்	-10.0776
▁தொடர்ப	-10.0776
▁முழுமையான	-10.0779
▁மூட	-10.0784
The	-10.0791
படுத்தி	-10.0799
லான்	-10.0802
ேஸ்வர	-10.0806
ide	-10.0808
▁மன்னன்	-10.0808
▁கொடுத்து	-10.0809
▁அணிக்கு	-10.0809
▁விடுதலைப்	-10.0816
▁குறுகிய	-10.0819
▁மற	-10.082
▁நடித்திருந்தனர்	-10.0825
க்குக்	-10.0834
விர	-10.0835
▁கோவை	-10.0835
▁கட்டாய	-10.084
▁ஆடை	-10.0841
கண	-10.0841
▁நடிக்க	-10.0842
▁மருந்த	-10.0844
▁உருவாகிறது	-10.0848
▁வாய்ப்ப	-10.0849
லட்சுமி	-10.0852
படுகிறது	-10.0853
▁அமைத்து	-10.0857
▁இவன	-10.0858
▁கோர	-10.0865
▁செர்	-10.0867
▁அளவுக்கு	-10.087
த்தொகை	-10.0872
▁அசி	-10.0881
III	-10.0882
▁ஒதுக்க	-10.0884
▁n	-10.0895
வேளை	-10.0897
ரியம்	-10.0901
▁உருவானது	-10.0902
▁பார்த்து	-10.0902
▁கர்நாடக	-10.0902
▁கட்டப்பட்டது	-10.0904
சல	-10.0905
▁அதிகரித்த	-10.0905
▁நடத்தை	-10.0906
▁கிடைத்தது	-10.0908
▁வலிமை	-10.0911
ep	-10.0912
▁கடந்து	-10.0915
▁பட்டியல	-10.0919
▁பெரும்பான்மை	-10.092
▁சிறப்பான	-10.0924
▁சேர்ந்தார்	-10.0925
கிறாள்	-10.0927
த்தினர	-10.0928
ங்களுள்	-10.0929
▁இன்னொரு	-10.093
he	-10.0933
▁ஆவார்கள்	-10.0934
▁சம்	-10.0935
▁கடின	-10.0942
▁மிகக்	-10.0944
▁1995	-10.0945
கொடு	-10.0946
▁அறுவை	-10.0957
குப்பம்	-10.0959
▁தளபதி	-10.0966
▁இரை	-10.0971
▁நிறுவப்பட்ட	-10.0971
விழா	-10.0972
▁விலகி	-10.0973
▁கிமு	-10.0979
▁கோபுரம்	-10.0984
▁ஆஸ்	-10.0985
▁செயற்	-10.0987
tic	-10.0992
▁ரொ	-10.0995
▁இயக்குனர்	-10.0995
▁சமயத்தில்	-10.0996
▁குரல்	-10.0997
▁தீர்மான	-10.1001
வளி	-10.1002
மானி	-10.1004
த்தூ	-10.1008
▁அமைச்சர்	-10.101
▁பிணைப்பு	-10.1013
▁நபர்கள்	-10.1016
▁35	-10.1019
பிள்	-10.102
▁அள	-10.1027
▁காலப்	-10.1027
ாளரும்	-10.1029
▁தோற்றம்	-10.1029
தனால்	-10.1031
பல	-10.1042
ோம்	-10.1044
▁படிக்க	-10.1046
▁அம்பா	-10.1055
▁தீர்ப்ப	-10.1057
▁இஸ்லாமிய	-10.1061
▁கேட்டு	-10.1064
▁புர	-10.1065
ஸ்த	-10.1065
▁1992	-10.107
▁தசை	-10.108
▁பட்டியலில்	-10.108
▁w	-10.108
ud	-10.1084
▁போர	-10.1085
▁நாகப்பட்டினம்	-10.1085
▁ஜார்ஜ்	-10.1085
▁பொறுப்பு	-10.1089
▁ரீதியாக	-10.109
▁மார்ச்சு	-10.1094
▁அமைச்சராக	-10.1099
புல	-10.1102
▁ஆலை	-10.1111
ஸ்தான்	-10.1111
ரியோ	-10.1114
யிர்	-10.1115
▁மாவட்டங்களில்	-10.1118
▁இருபது	-10.1122
ும்படி	-10.1124
ant	-10.1126
▁முறையே	-10.1126
▁ஒட்டி	-10.1127
ினான்	-10.1129
de	-10.1131
ியாக	-10.1132
▁ஏற்றுக்	-10.1134
▁இருக்கிறார்	-10.1136
னையும்	-10.1145
பர்ட்	-10.115
▁இப்படி	-10.1151
ive	-10.1152
க்கரு	-10.1155
▁இயல	-10.1161
▁சேர்க்கப்பட்ட	-10.1168
▁சமண	-10.117
▁செய்வது	-10.1171
▁மக்களவை	-10.1175
▁ஆயினும்	-10.1176
ராகவும்	-10.1177
▁பொன்	-10.1179
▁மருத்துவர்	-10.118
த்தியா	-10.118
கத்தின்	-10.1185
▁கிரீ	-10.1185
▁பாசு	-10.1189
▁பேராசிரியர்	-10.119
ve	-10.119
▁பாதிப்பு	-10.1191
வரம்	-10.1191
▁தீர்வு	-10.1202
▁இனப்பெருக்க	-10.1207
மேல்	-10.1207
▁குளோரைடு	-10.1207
▁நவ	-10.1212
▁தண்ணீர்	-10.1213
▁பிராந்திய	-10.1215
▁நந்தி	-10.1216
▁32	-10.1219
▁பொருளாக	-10.1219
▁தாக்குதல	-10.1219
per	-10.1221
▁உண்டாக்க	-10.1222
ண்டே	-10.1228
500	-10.123
▁எட்	-10.1235
▁°	-10.1236
▁எதிர்த்து	-10.1238
ment	-10.1241
▁தெரு	-10.1249
யாளர	-10.125
▁வளரும்	-10.125
▁பழமையான	-10.1251
ெண்	-10.1255
ec	-10.1258
▁இறந்து	-10.1261
▁ஒன்றில்	-10.1265
த்தவர்	-10.1267
▁சுரங்க	-10.1268
▁நாமக்கல்	-10.1268
காலம்	-10.1269
ரீதியான	-10.1269
▁200	-10.1273
மியா	-10.1279
▁குன்ற	-10.128
▁எதுவும்	-10.1281
▁இயக்கிய	-10.1285
▁கோயம்புத்தூர்	-10.1287
▁அலக	-10.1292
▁ஆங்கிலத்தில்	-10.1293
▁கோள்	-10.1296
▁கிர	-10.1297
▁1997	-10.1303
▁கரைசல	-10.1303
மட்ட	-10.1313
▁வாழ்கின்றனர்	-10.1318
யொ	-10.1323
களாகப்	-10.1326
ட்ரிக்	-10.1326
▁அண்ட்	-10.1329
ியுள்ளது	-10.1333
ப்பொருள	-10.1335
வாசி	-10.1335
▁பரு	-10.1337
▁விழ	-10.1337
▁எளிதாக	-10.1337
▁கிருஷ்ணகிரி	-10.1338
▁சேர்மமாகும்	-10.1342
▁பிள	-10.1342
▁கருப்ப	-10.1347
▁1947	-10.1348
▁கட்டமைப்ப	-10.1354
▁நீதிபதி	-10.1356
▁ஆக்சைடு	-10.1357
டூ	-10.1361
▁வருடம்	-10.1362
▁இச்சேர்மம்	-10.1374
▁வழக்கம்	-10.1377
▁பணம்	-10.1378
▁கந்த	-10.138
▁வகுப்ப	-10.1385
▁திண்டுக்கல்	-10.1385
▁சார	-10.1387
▁தொடக்கத்தில்	-10.1388
▁விரிவாக்க	-10.139
▁குறுக்க	-10.1401
▁தெளிவாக	-10.1404
▁தோன்றி	-10.1409
▁வரையிலான	-10.1409
ஜன்	-10.141
க்கட்டு	-10.141
ச்சர்	-10.1412
▁வழிபட	-10.1414
போன்ற	-10.1414
▁அழிக்க	-10.1415
▁சகோதரி	-10.1419
ம்பூர்	-10.1423
▁இயங்கும்	-10.1428
▁பாதிக்க	-10.143
▁மருத்துவமனை	-10.1431
▁கடற்	-10.1432
ொலி	-10.1436
▁அரபு	-10.1439
▁பிரான்சு	-10.1441
▁நீர்ம	-10.1443
▁குடும்பத்தில்	-10.1443
▁சதவீத	-10.1447
▁குகை	-10.1452
▁வீழ்ச்சி	-10.1454
▁கோர்	-10.1455
பேர	-10.1457
▁தோன்றும்	-10.1458
▁பேரா	-10.1459
▁மத்தியில்	-10.146
▁எக்ஸ்	-10.1462
▁கவிஞர்	-10.1465
▁உயிரியல்	-10.1467
▁உருசிய	-10.147
▁குறைபாடு	-10.147
▁மான்	-10.1476
▁பஞ்சாப்	-10.1477
▁ஐதரசன்	-10.1479
நு	-10.1481
▁மாசு	-10.1487
ியலில்	-10.1489
▁உண்மையில்	-10.1492
▁உருவாக்கினார்	-10.1497
▁நெறி	-10.1498
▁விருதை	-10.1499
▁தர்மபுரி	-10.1499
▁குமார	-10.1506
▁பெயரிடப்பட்ட	-10.1506
த்தான	-10.151
▁தலைப்பு	-10.1511
▁முதலான	-10.1512
டையும்	-10.1516
▁அனுப்பி	-10.1525
▁ஒப்ப	-10.1526
▁கடற்படை	-10.153
ட்டுகள்	-10.153
▁ஆயிரம்	-10.1531
▁ஒழுங்க	-10.1532
Ar	-10.1533
▁அலுவலர்	-10.1533
பள்ளி	-10.1537
ஞான	-10.1539
▁குரோ	-10.1546
▁சன்னதியும்	-10.155
▁கட்டளை	-10.1555
மிட	-10.1555
▁கன்	-10.1557
▁நாட்களில்	-10.1559
▁டேவிட்	-10.1561
▁பண்பாடு	-10.1567
▁ஆதிக்க	-10.1569
▁குளோ	-10.1571
வாடி	-10.1575
▁மாநகர	-10.1579
▁கோடு	-10.1579
▁காணப்பட	-10.1582
▁ரீ	-10.1586
த்தர்	-10.1589
▁ஆற்று	-10.1589
ran	-10.1596
▁வாரிய	-10.1605
டெல்	-10.1607
பந்தாட்ட	-10.1609
▁அழுத்தம்	-10.1611
▁என்றழைக்க	-10.162
அல்லது	-10.162
▁நகரத்தின்	-10.1621
ஹெ	-10.1622
▁சுவர்	-10.1622
பொருட்	-10.1623
▁புற்றுநோய்	-10.1625
▁வடிவமைக்கப்பட்ட	-10.1629
ுவார்கள்	-10.1632
▁1993	-10.1632
▁தமிழ்ப்	-10.1633
ிலான	-10.1634
ிருச்சிராப்பள்ளி	-10.1638
▁நின்று	-10.164
நிற	-10.1643
▁பல்கலைக்	-10.165
▁ஒன்றியத்தில்	-10.1651
▁பொருளை	-10.1655
▁அணுக	-10.1656
▁தேடி	-10.166
▁சித்திர	-10.1662
1%	-10.1664
▁இயங்கி	-10.1666
ச்சொல்	-10.1674
▁நியம	-10.1676
▁சூட்ட	-10.1678
▁கொழும்பு	-10.1683
த்தீவு	-10.1683
▁தலைமுறை	-10.1686
▁வித	-10.1686
▁நடத்தப்பட்ட	-10.1698
▁திரும	-10.17
ராஜன்	-10.1707
▁தீவுகள்	-10.171
ஜர்	-10.1712
மாலை	-10.1721
ளின்	-10.1725
லைப்	-10.1728
▁அணுக்கரு	-10.1731
▁வண்ணம்	-10.1748
▁சராசரியாக	-10.1753
▁செயல்படுகிறது	-10.1753
▁என்பத	-10.1754
▁இதர	-10.1763
▁நெறிமுறை	-10.1766
▁சன்னதிகள்	-10.1766
▁உள்ளே	-10.1767
▁குழி	-10.1768
▁விளங்கியது	-10.177
த்துறையில்	-10.1772
தென்	-10.1782
▁வளர	-10.1787
▁பிழை	-10.1789
ண்ணா	-10.1793
ால	-10.1796
▁முடிந்த	-10.1796
▁நியூயார்க்	-10.18
ம்பை	-10.1805
▁வழங்கப்படும்	-10.1808
▁மாகாணத்தின்	-10.181
த்திரு	-10.1812
▁வெண்	-10.1816
▁அப்படி	-10.1817
▁வலியுறுத்த	-10.1818
ம்பாளையம்	-10.1821
▁சுகாதார	-10.183
▁கம்பி	-10.1839
ப்படுத்தும்	-10.1842
ிதழ்	-10.1843
▁ஒட்ட	-10.1846
▁ஓட	-10.1846
ge	-10.1847
க்கன்	-10.1848
▁ஆட்	-10.1849
▁கைப்பற்றி	-10.1855
▁திரும்பி	-10.1863
ப்பதற்காக	-10.1864
▁நிகழும்	-10.187
▁லட்ச	-10.187
▁வங்காளதேச	-10.1877
டார்	-10.1878
▁தென்னிந்திய	-10.188
கரம்	-10.1881
யூட்ட	-10.1884
▁அருள்	-10.1889
▁அந்தக்	-10.189
சக்தி	-10.1891
▁நிறுவனங்கள	-10.1893
▁மறைந்த	-10.1896
▁தனித்தனி	-10.1896
விஸ்	-10.19
han	-10.1903
▁வீரர்கள்	-10.1906
வய	-10.1928
▁பணியாற்றி	-10.1929
றிஞர	-10.193
▁பாட்ட	-10.1932
▁இம்முறை	-10.194
▁தாயார்	-10.1942
Th	-10.1946
▁திருச்சி	-10.1947
▁இந்துக்	-10.1948
▁நடைபெற	-10.1949
▁தொடர்ச்சியாக	-10.1952
ex	-10.1956
ill	-10.1959
▁சுவை	-10.196
▁தேவர்	-10.1962
▁இயக்குநர்	-10.1964
லங்கா	-10.1965
▁வது	-10.1971
▁&	-10.1974
▁பதக்க	-10.1975
கோள்	-10.1978
▁1977	-10.1978
▁செயற்பாடு	-10.1982
சனம்	-10.1991
▁சிறுவர்	-10.1992
கிருஷ்ணன்	-10.1997
▁விஷ	-10.2
ரையும்	-10.2011
▁ஃபெ	-10.2015
▁உத்தி	-10.2027
▁நான்காவது	-10.2027
▁தொல்லியல்	-10.2027
Ch	-10.2027
ந்தன்	-10.203
▁தாங்க	-10.2036
▁ஆந்திர	-10.2039
▁அரசன்	-10.2043
▁நுகர்வ	-10.2049
பெற	-10.2049
▁கண்டறியப்பட்ட	-10.205
con	-10.2051
▁பிரிவில்	-10.2052
▁கொண்டுவர	-10.2056
-2	-10.2059
▁பில்லியன்	-10.2061
▁ஜேம்ஸ்	-10.2061
▁கொண்டவை	-10.2063
▁இனி	-10.2063
▁என்பர்	-10.2067
▁கவி	-10.2068
▁புதிதாக	-10.2068
▁தியாக	-10.2068
▁உள	-10.2068
▁மாகாணம்	-10.2071
▁தெரிவு	-10.2077
▁இனங்கள்	-10.2083
▁தவிர்க்க	-10.2086
▁துளை	-10.2086
ரியன்	-10.2089
எஃப்	-10.2092
</	-10.2093
▁சார்பாக	-10.2093
▁மகளிர்	-10.2094
▁சூழல	-10.2095
யர்கள்	-10.2099
▁உணர்ந்த	-10.2101
iv	-10.2102
மையால்	-10.2103
ers	-10.2103
ளிக்க	-10.2107
▁வேண்டி	-10.2109
▁நீரை	-10.211
▁வட்டத்தில்	-10.2113
▁பாரசீக	-10.2114
▁சந்திக்க	-10.2117
▁உட்பட்டது	-10.2118
▁(18	-10.2118
▁பெரும	-10.2123
▁பாலின	-10.2126
ுவதும்	-10.2129
கோட்	-10.213
▁சான்	-10.2137
ப்பரப்ப	-10.214
sp	-10.2142
▁ஆணை	-10.2149
▁சோழர்	-10.2149
▁சார்பில்	-10.2153
▁உலகளாவிய	-10.2154
▁கொண்டவர்	-10.2156
▁மொழிகள்	-10.2157
▁1987	-10.2157
ry	-10.216
▁சிங்கப்பூர்	-10.2161
▁துப்பாக்கி	-10.2161
▁நடந்து	-10.2161
▁நடிப்ப	-10.2161
▁வெளியீடு	-10.2163
வராவார்	-10.2171
ங்கர்	-10.2174
▁கவனம்	-10.2177
▁தலைமையக	-10.2178
▁செய்கின்றன	-10.2186
▁மங்கோலிய	-10.2188
ழிவு	-10.2193
▁பெட்டி	-10.2196
வாதம்	-10.2199
▁விபர	-10.2204
கிருஷ்ண	-10.2206
▁மண்டலம்	-10.2218
▁ஆர்வம்	-10.2219
▁மங்க	-10.222
▁இலட்ச	-10.2223
▁ஏற்பாடு	-10.2225
▁ஆலயம்	-10.2229
▁தொன்ம	-10.223
▁குடியரசுத்	-10.2234
▁சீர்திருத்த	-10.2242
▁வளர்ந்து	-10.2246
▁அமைப்பில்	-10.2248
▁இளைஞர்	-10.2248
▁கிபி	-10.2252
▁இயற்றிய	-10.2254
▁படிப்பு	-10.226
ங்களாகும்	-10.2268
▁இரண்டும்	-10.2271
▁பங்குனி	-10.2274
ிற்	-10.2275
டென்	-10.2276
▁முயன்ற	-10.228
▁விதமாக	-10.2281
நாயகி	-10.2282
▁பெற்றுள்ளது	-10.2284
▁கற்ப	-10.2287
▁பீட	-10.2293
▁வடக்கில்	-10.2293
▁உதாரண	-10.2296
▁திருப்பூர்	-10.2298
▁3,	-10.2299
▁கொழுப்பு	-10.2305
▁வரிசையில்	-10.2306
▁உபசன்னதி	-10.2306
வரிசை	-10.2308
▁நினைவாக	-10.2311
முற்ற	-10.2313
ெழுத்து	-10.2317
▁பரம	-10.2317
ப்பிள்ளை	-10.2317
பெயர்	-10.2319
▁காங்கிரசு	-10.2325
ஊ	-10.2327
▁டாக்டர்	-10.2331
▁இருப்பதை	-10.2333
▁சிம்	-10.2333
▁1988	-10.2334
▁நிறைய	-10.2334
▁”	-10.2338
▁1971	-10.2339
பொழுது	-10.2345
▁சங்கர	-10.2349
▁போட்டிகள்	-10.2357
▁ஒப்பந்தம்	-10.2366
▁இடைப்பட்ட	-10.2366
கரி	-10.2367
▁மந்திர	-10.2375
▁மக்களால்	-10.2384
100	-10.2387
▁ஏற்படுகிறது	-10.2387
களுக்கிடையே	-10.2388
▁Ch	-10.2396
▁உடலில்	-10.2401
▁பறவைகள்	-10.2403
பேசி	-10.2403
வையாகும்	-10.2405
ாயிற்று	-10.2405
▁அழகு	-10.2406
முன்	-10.241
▁பேசும்	-10.2414
▁காட்டி	-10.2415
▁தன	-10.2417
▁மண்டப	-10.2417
▁நெய்	-10.2421
யளிக்க	-10.2421
▁பிரதிநிதி	-10.2421
முடியும்	-10.2424
▁வழங்கப்படுகிறது	-10.2427
இரு	-10.2434
பாட்டை	-10.2437
▁அறிவியல	-10.2442
▁வித்தியாச	-10.2447
சாலை	-10.2447
▁சாலையில்	-10.245
▁பகுதியாகும்	-10.2453
▁திருவள்ளூர்	-10.2454
ழுத்த	-10.2454
ப்பாதை	-10.2457
▁காப்பாற்ற	-10.2462
▁சன்	-10.2464
▁1986	-10.2465
சியம்	-10.2467
ஜன	-10.2482
▁500	-10.2486
▁மேலாக	-10.2488
▁தமிழகத்தில்	-10.2488
ென்ற	-10.2488
▁பயன்படுத்திய	-10.249
ிதழ	-10.2498
▁வெளியிட்டது	-10.2502
வண	-10.2505
▁இந்நூல்	-10.2506
▁நிலைக்கு	-10.2511
▁உயர்த்த	-10.2515
▁உரோமை	-10.2518
▁எச்	-10.2518
▁பில்	-10.2529
▁எளிதில்	-10.2537
தாய்	-10.2538
▁இறைவன்	-10.2539
▁மீட்ட	-10.2539
▁நொதி	-10.254
▁சொல்லி	-10.2541
▁சான்ற	-10.2544
▁தேவாலய	-10.2547
▁கட்டுப்பாட்டு	-10.2549
▁வருகின்றது	-10.2557
▁கோபுர	-10.2562
▁மருத்துவம்	-10.2562
▁உதவுகிறது	-10.2565
▁அதன	-10.2572
▁பணியாற்றிய	-10.2578
▁குற்றம்	-10.2579
▁எனப்படுகிறது	-10.2581
▁St	-10.2582
▁பரிசோதனை	-10.2586
▁de	-10.2592
▁தூய	-10.2593
டியம்	-10.2598
ப்படுவதில்லை	-10.2601
▁புல்	-10.2601
▁கங்கை	-10.2602
▁வன்முறை	-10.2602
பேர்	-10.2603
▁ஆய்	-10.2604
▁இணைக்க	-10.2604
▁குடியிருப்பு	-10.2605
ical	-10.2607
▁ஸ்டீ	-10.2616
க்கோள	-10.2616
ah	-10.2618
▁துகள்	-10.262
ாலேயே	-10.2628
நைட்ர	-10.2629
▁செயல்பட்ட	-10.2631
250	-10.2632
▁தென்னாப்பிரிக்க	-10.2639
▁போராட	-10.2641
▁அம்மா	-10.2645
▁இயலும்	-10.2647
▁விற்க	-10.2649
▁விஷ்ணு	-10.2649
▁தொடங்கப்பட்டது	-10.265
▁கற்ற	-10.265
▁காரணங்கள	-10.2651
ாகவே	-10.2654
▁உயரமான	-10.267
▁ஆப்பிரிக்க	-10.2671
▁சிலி	-10.2677
▁வேறுபட	-10.2678
ப்பாடல்	-10.2684
▁வேகமாக	-10.2685
▁கூறும்	-10.2685
▁பிரிட்டிஷ்	-10.2706
▁இந்ந	-10.2709
uc	-10.2716
த்தன்	-10.2724
▁அமைந்திருந்த	-10.2724
▁பிளே	-10.2726
▁இவ்வூர்	-10.2726
கோட்டை	-10.2732
▁குறிப்புகள்	-10.2734
ப்பாட	-10.2736
▁அனைத்துலக	-10.2737
lan	-10.2737
ட்டே	-10.2737
▁ஓடு	-10.2739
▁கழிவு	-10.2749
களிடமிருந்து	-10.2753
to	-10.2754
▁வீட்டில்	-10.2754
▁தொல்காப்பிய	-10.2756
▁மக்களும்	-10.2761
▁கொள்வத	-10.2762
lo	-10.2767
வள்	-10.2768
▁ஃபா	-10.2775
கரை	-10.2776
▁l	-10.2776
600	-10.2777
▁மக்கள	-10.2779
ub	-10.2779
▁புரிந்த	-10.2786
▁அவ்வாறு	-10.2786
இந்தியா	-10.2789
▁இலக்கியம்	-10.2791
டெர்	-10.2794
▁to	-10.2796
▁லீக்	-10.2807
▁பேரரசர்	-10.2809
▁கிழக்கில்	-10.2811
▁மென்	-10.2822
▁சுட	-10.2825
▁மீள	-10.2827
னிலை	-10.2828
▁பவு	-10.2832
▁என்பதற்கு	-10.2833
▁புவியியல்	-10.2838
த்துக்கும்	-10.2843
தீன்	-10.2848
▁திட்டமிட்ட	-10.2854
▁பற்	-10.2855
▁அபி	-10.2859
▁படத்தின்	-10.2867
▁ஆண்டி	-10.2867
▁புதை	-10.2867
▁ஒன்றியத்தின்	-10.2868
▁உழ	-10.287
▁முக்கியமாக	-10.2871
சுந்தர	-10.2879
▁பணியாளர்	-10.288
சேகர	-10.2882
▁உடன	-10.2888
ஸ்தான	-10.289
ின்ற	-10.2892
▁எசு	-10.2893
▁நாவல	-10.2895
ity	-10.2895
CO	-10.2898
பெருமாள்	-10.2899
▁என்பவை	-10.2903
▁இராகம்	-10.2903
ara	-10.2905
▁விரும்பி	-10.2906
▁வளிமண்டல	-10.2907
▁கொள்ளலாம்	-10.291
▁சமவெளி	-10.2912
▁தயாரிக்கப்பட்ட	-10.2914
ஸை	-10.2916
▁விளங்கிய	-10.2922
▁செயலி	-10.2924
▁காவிரி	-10.293
▁அளிப்ப	-10.2934
▁புகழ	-10.2936
▁தள்ள	-10.2937
▁கரூர்	-10.2941
▁அவனது	-10.2943
▁கௌரவ	-10.2948
▁சங்கிலி	-10.2951
▁பெயர்கள்	-10.2951
▁இதுவும்	-10.2965
▁வரையில்	-10.2966
▁வாங்கி	-10.2968
▁குழப்ப	-10.2973
பிற	-10.2975
▁X	-10.2975
▁செல்வாக்கு	-10.2979
க்கூறு	-10.2981
வெண்	-10.2983
யிட்ட	-10.2985
▁சாய்	-10.2987
▁இனம்	-10.2988
▁பரிந்துரைக்க	-10.299
ங்களுக்கான	-10.2994
▁இசையமைத்த	-10.2994
▁நடக்கும்	-10.2995
ின்றார்	-10.2996
▁இறுதியாக	-10.2997
▁காலகட்டத்தில்	-10.3
▁இப்பகுதியில்	-10.3003
க்கூட்ட	-10.3011
▁1985	-10.3013
ik	-10.3013
▁தாங்கி	-10.3015
திறன்	-10.3015
ov	-10.3019
பெண்	-10.302
▁45	-10.3021
▁தங்களது	-10.3023
மடை	-10.3023
ம்பாடி	-10.3025
▁1978	-10.3028
த்தொடர	-10.3029
பிரதேச	-10.3032
▁1979	-10.3041
ேசுவரர்	-10.3041
▁கட்டண	-10.3042
▁சிக்கலான	-10.3043
▁முதற்	-10.3043
▁எர்	-10.3045
▁விசாரணை	-10.3053
▁செயல்படும்	-10.3054
▁1967	-10.3058
▁ஒழுங்கு	-10.3058
mo	-10.306
▁நன்மை	-10.3061
▁கிறிஸ்தவ	-10.3067
▁எலி	-10.3069
ew	-10.3072
▁நிறுவிய	-10.3072
வனை	-10.308
ian	-10.3081
களுக்க	-10.3082
▁முடிவில்	-10.3087
▁கலிபோர்னியா	-10.3089
▁கொடுக்கப்பட்ட	-10.3089
▁சிவபெருமான	-10.3093
▁எரிமலை	-10.3095
ழல்	-10.3095
▁செம்ப	-10.3096
க்கிறார்	-10.3104
▁கடித	-10.3105
▁அஞ்ச	-10.311
ஃபோ	-10.3112
ஹோ	-10.3117
▁குமார்	-10.3123
▁துறைகளில்	-10.3124
▁விளக்கம்	-10.3126
▁பிரபு	-10.3128
▁கருவிகள்	-10.3134
▁மதிப்பீடு	-10.3135
ium	-10.3135
ஆக	-10.3136
▁பயின்றார்	-10.3141
▁இலங்கைத்	-10.3142
▁தொடக்கம்	-10.3145
va	-10.3145
காம	-10.3158
முத்து	-10.3158
▁1983	-10.3159
▁கருதி	-10.3161
▁சொத்து	-10.3165
▁ஸ்டா	-10.3168
▁தூய்மை	-10.3173
▁அளவிட	-10.3173
▁மன்னர	-10.3176
▁பகுதியின்	-10.3179
▁வீதம்	-10.3181
▁அருள	-10.3181
▁தொற்று	-10.3183
▁செய்யப்பட்டார்	-10.3183
▁வியாபார	-10.3186
▁நிலப்பகுதி	-10.3187
▁தெற்கில்	-10.3187
மாண	-10.319
ியக்க	-10.319
▁ஒப்பிட	-10.3203
▁வீச	-10.3206
▁கிடைக்கிறது	-10.3212
ப்பெயர	-10.3214
ேற்றம்	-10.3219
▁அறிவித்தது	-10.322
▁வன்	-10.3221
▁வைப்ப	-10.3222
▁நிறம்	-10.3229
ாக்சைடு	-10.3245
▁மாற்றங்கள்	-10.3247
க்கொண்டார்	-10.3248
▁சொற்கள்	-10.3248
▁காளி	-10.325
▁நம்பி	-10.3255
▁பக்தி	-10.3258
▁அருக	-10.3259
மனை	-10.3263
ாகிய	-10.3263
பெரும்	-10.3266
▁செவ்வ	-10.3266
▁விரைவாக	-10.3266
▁ஆற்றலை	-10.3268
▁இருந்தவர்	-10.3275
▁பண்ட	-10.3279
த்துக்கான	-10.3292
ber	-10.3298
▁சத்திய	-10.33
▁சிந்து	-10.3302
▁விலக்க	-10.3306
oc	-10.3307
▁1948	-10.3311
▁சர்க்கரை	-10.3315
▁குழுவின்	-10.3324
ாபுரம்	-10.3331
▁ஆராய	-10.3334
▁உரோம	-10.3336
முதல்	-10.3336
▁ஆகியோரின்	-10.3341
▁மிகை	-10.3342
▁வெளிவந்தது	-10.3342
▁விவிலிய	-10.3343
▁முன்னதாக	-10.3354
har	-10.3356
▁பூச	-10.3362
ங்களிலிருந்து	-10.3364
த்திறன்	-10.3365
▁ஏற்கனவே	-10.3366
▁1000	-10.337
▁மாறுபட்ட	-10.3372
▁பகுப்பாய்வு	-10.3376
▁கூட்டமைப்பு	-10.3377
▁காலநிலை	-10.3379
▁சபா	-10.3388
▁1930	-10.3389
நோக்கி	-10.3391
▁நினைத்த	-10.3394
▁நிறுவனத்தில்	-10.3396
▁கடமை	-10.3402
யாற்ற	-10.3402
▁திருவாரூர்	-10.3404
பிரகாச	-10.3404
ard	-10.3408
▁அமர்ந்த	-10.3409
▁தம்பி	-10.3409
▁தடுப்ப	-10.3412
த்திற்குப்	-10.3413
▁அலுவலகம்	-10.3413
ess	-10.3414
போதும்	-10.3414
▁குறிப்பிடுகிறது	-10.3418
வதால்	-10.3418
நீர	-10.3422
▁பத்ம	-10.3424
▁கோழி	-10.3428
▁வகித்த	-10.3431
▁அழைத்த	-10.3431
▁சதவீதம்	-10.3432
ug	-10.3433
▁கிரே	-10.3434
▁வெளிப்புற	-10.3435
சனின்	-10.3439
▁வழிபட்ட	-10.3441
▁காணப்படுகின்றது	-10.3447
▁முதலமைச்சர	-10.345
▁மணிக்கு	-10.345
▁கொண்டனர்	-10.3457
நாத்	-10.3462
▁சுட்ட	-10.3464
▁பிரித்து	-10.3465
▁மாநிலமான	-10.347
மீது	-10.347
ci	-10.3471
▁வடக்கே	-10.3487
யீட்ட	-10.3492
ப்பாடி	-10.3492
கிராம	-10.3501
▁கல்வியை	-10.3503
▁சடங்கு	-10.3506
▁மீற்றர்	-10.3511
▁இணைக்கும்	-10.3511
▁1972	-10.3514
▁கற்க	-10.3514
மயமாக்க	-10.3519
புதூர்	-10.3522
ca	-10.3525
▁சரியாக	-10.353
▁நாற்	-10.353
9%	-10.3534
▁காண்ப	-10.3535
▁செல்கிறது	-10.3535
குள	-10.3535
ஸ்கி	-10.3537
▁மேற்கில்	-10.3538
▁1940	-10.3538
▁செயல்பட்டு	-10.3542
▁இறந்தார்	-10.3542
ராமன்	-10.3543
மட	-10.3551
ுருவ	-10.3551
▁வழங்குகிறது	-10.3555
▁நிறத்தில்	-10.3556
▁தலைநகர்	-10.3556
▁நோபல்	-10.3568
▁உடு	-10.3569
▁பாகிஸ்தான்	-10.3569
▁துறவி	-10.3573
▁ஆண்டுகளாக	-10.3584
▁நாடுகளுக்கு	-10.3587
பிரான்	-10.3588
▁குஜராத்	-10.3589
களிலேயே	-10.3592
க்கோடு	-10.3592
tr	-10.3594
மல	-10.3594
▁கணக்கு	-10.3596
த்தொகுதி	-10.36
ka	-10.3601
ver	-10.3602
▁பாதிப்ப	-10.3602
தமிழ	-10.3602
▁விண்ண	-10.3606
▁போட	-10.3611
▁புரட்டாசி	-10.3611
▁தொலைபேசி	-10.3612
▁கொடை	-10.3614
▁வாழ்க்கையை	-10.3619
▁திரட்ட	-10.3622
▁கடலில்	-10.3625
வல்ல	-10.3627
ாயிரம்	-10.3641
▁உருவாக	-10.3642
▁பண்ணை	-10.3643
▁கிங்	-10.3649
▁அருங்காட்சியக	-10.3652
ப்பிட	-10.3652
▁தானிய	-10.3653
சிறு	-10.3653
▁வளிம	-10.3655
▁குறைந்து	-10.3655
▁எப்போதும்	-10.366
▁நிலைமை	-10.3662
▁கற்பனை	-10.3665
▁இம்மாவட்டத்தின்	-10.3666
▁கருதப்படும்	-10.3672
▁சாகி	-10.3676
▁திண்ம	-10.3678
▁தாவரங்கள்	-10.3679
▁கோரிக்கை	-10.3682
▁தெளி	-10.3682
▁மாட	-10.3688
▁ஆலோசனை	-10.3689
▁என்றே	-10.3692
▁அரிசி	-10.3695
art	-10.3695
▁நீரா	-10.37
▁பணியாற்ற	-10.3707
▁வில்ல	-10.3709
▁அளவிற்கு	-10.371
படும்	-10.371
ப்படுகின்றனர்	-10.3712
நாக	-10.3714
செல்ல	-10.3724
▁300	-10.3726
▁எதிர்கால	-10.3726
▁ஒருவராக	-10.3728
▁ஏற்றுமதி	-10.3737
சபை	-10.3743
பட்டினம்	-10.3745
பிரா	-10.3745
▁தீர்மானிக்க	-10.3747
வுட்	-10.3748
ff	-10.3749
பற	-10.375
▁எழுத்தறிவு	-10.3753
மண்டல	-10.3754
▁இடமாக	-10.3756
if	-10.3758
▁பாடி	-10.3765
ea	-10.3766
▁எழுத்த	-10.3767
▁கொல்லப்பட்ட	-10.3767
கீழ்	-10.3767
▁தெரிகிறது	-10.3768
இல	-10.3769
▁வெட்ட	-10.3769
▁1982	-10.3772
▁விலங்குகள்	-10.378
▁நூறு	-10.3781
▁முடிந்தது	-10.3795
▁ஏற்று	-10.3798
▁1969	-10.3811
வினால்	-10.3811
▁வெளிநாட்டு	-10.3816
ரிசி	-10.3821
ங்குளம்	-10.3823
▁அப்துல்	-10.3824
▁போதுமான	-10.3825
ம்பர்	-10.3826
▁நச்சு	-10.3828
▁கதிர	-10.3829
டைகிறது	-10.3837
பிறகு	-10.3838
வதில்லை	-10.3842
▁அரசி	-10.3842
▁குடியரச	-10.3843
▁பீட்டர்	-10.3845
▁கோப்பு	-10.3846
▁இலவச	-10.3849
க்கூடியது	-10.3852
▁பணியில்	-10.3852
தமிழ்நாடு	-10.3853
▁செய்தல்	-10.3853
▁கௌ	-10.3853
▁இதன	-10.3855
▁1962	-10.3856
▁தனியாக	-10.3862
அள்ளி	-10.3862
▁ஒவ்வொன்ற	-10.3863
▁நிலம்	-10.3868
▁நடித்து	-10.387
▁கல்யாண	-10.3871
▁பாரதிய	-10.3871
▁பட்டை	-10.3872
▁அழைக்கப்பட்டது	-10.3873
ary	-10.3874
▁முன்னேற	-10.3876
▁தாள	-10.3878
▁ஆய்வக	-10.3881
▁எடுத்துச்	-10.3881
▁ரோம	-10.3883
▁கருவறை	-10.3887
▁ஆங்கிலேயர்	-10.3894
▁தகவல்களை	-10.3895
▁கருநாடக	-10.3896
ie	-10.39
மூர்	-10.3905
▁லட்சுமி	-10.3905
இர	-10.3908
▁சகோதர	-10.3911
▁தூண்	-10.3911
▁ஏற	-10.3913
ப்பேட்டை	-10.3915
▁கொண்டிருப்ப	-10.3915
ஜோ	-10.3916
நெல்	-10.3922
னேட்டு	-10.3924
▁ஏராளமான	-10.3927
ஜே	-10.3928
ஃபே	-10.3929
▁தரம்	-10.3929
▁பிரதேசத்தின்	-10.393
மாற	-10.3931
▁லிங்க	-10.3934
நோய்	-10.3936
▁எசுப்பானிய	-10.3937
▁போக்க	-10.3937
▁மாறுபட	-10.3939
▁செய்யப்பட	-10.3941
▁நீடித்த	-10.3941
▁படு	-10.3942
வதற்கான	-10.3943
ச்சாலை	-10.3943
▁பஞ்சாபி	-10.3944
▁விருதுநகர்	-10.3946
▁1981	-10.3946
▁முனிவர்	-10.3947
வேண்டிய	-10.3951
▁மேற்கொள்ளப்பட்ட	-10.396
▁நாடாக	-10.3962
▁உரிமைகள்	-10.3963
▁வென்றார்	-10.3965
Br	-10.3967
ப்பார்	-10.3967
▁அர்த்த	-10.3968
▁சாரா	-10.3969
▁தொண்ட	-10.3976
ிருந்தாலும்	-10.3976
ீஸ்	-10.3986
yl	-10.3987
▁பெய்	-10.399
▁என்பதே	-10.3993
ni	-10.3996
▁தெற்கே	-10.3998
▁அய்ய	-10.4001
ந்தே	-10.4002
▁பகுதிகளிலும்	-10.4003
▁பள்ள	-10.4005
▁இராச்சியம்	-10.401
நிலையில்	-10.4013
▁ராணி	-10.4014
▁கிளி	-10.4017
▁ஓட்டங்கள்	-10.4018
▁தலைமையிட	-10.4019
▁அவனை	-10.4019
▁ராம்	-10.4023
▁காமிகாகம	-10.4024
▁வருவ	-10.4026
▁வரலாற்றை	-10.4028
ய்யா	-10.4028
▁நிகழ்வுகள்	-10.4029
▁வேதியியல	-10.403
சட்டமன்றத்	-10.403
கினி	-10.4031
▁மின்னணு	-10.4034
தொழில	-10.4034
▁எனலாம்	-10.4035
ஸ்டன்	-10.4037
▁அருங்காட்சியகம்	-10.4038
▁வசித்து	-10.4038
▁பிரச்சனை	-10.404
▁அக்காலத்தில்	-10.4045
▁மேரி	-10.4045
▁அதிகரிப்ப	-10.4047
▁பெயரால்	-10.405
▁பட்டா	-10.4053
▁பருத்தி	-10.4054
ியலாளர்	-10.4055
▁பாரதி	-10.4055
வாசல்	-10.4057
▁தண்ணீர	-10.4065
▁உலர்	-10.4066
பெல்	-10.4068
▁பிடித்து	-10.4072
ரவு	-10.4073
▁நூல்களில்	-10.4076
▁சமன்பாடு	-10.408
▁ஆந்திரப்	-10.4087
நினைவ	-10.4096
▁சோம	-10.4096
▁தமிழகத்தின்	-10.4096
▁மாறியது	-10.4097
▁விஜய்	-10.4097
▁இவ்விரு	-10.4103
▁பிட்	-10.4103
▁கோலா	-10.4105
▁பொருட்டு	-10.4105
▁தன்னாட்சி	-10.4108
▁உளவியல்	-10.4111
▁பிடாரி	-10.4114
▁அரசாங்கம்	-10.4116
என்றழைக்கப்படும்	-10.4119
யடைந்த	-10.4122
▁உதய	-10.4122
▁அறிமுகமானார்	-10.4129
▁1974	-10.4132
▁முற்றிலும்	-10.4138
▁எதிர்ப்ப	-10.4139
▁என்பதைக்	-10.4143
▁முதன்முதலில்	-10.4146
▁ஜனதா	-10.4146
▁1975	-10.4146
▁வழக்கில்	-10.4147
ங்களைச்	-10.4147
▁கோபால	-10.4149
▁சுல்தான்	-10.4154
▁ஹரி	-10.4155
▁1976	-10.4168
▁எதிர்மின்	-10.4172
▁லு	-10.4175
▁செய்வதற்கு	-10.4177
▁ஆண்களின்	-10.4194
வராகவும்	-10.4197
▁உடன்படிக்கை	-10.4203
▁படுகொலை	-10.4203
▁ஆண்டுதோறும்	-10.4203
▁தொடர்வண்டி	-10.4203
▁இடைநிலை	-10.4204
▁பணிபுரிந்த	-10.4208
▁அரசியல்வாதியும்	-10.4208
▁வெங்கட	-10.4213
வெப்ப	-10.4213
▁டிரை	-10.4227
▁பழங்கால	-10.4228
▁படிப்ப	-10.4235
▁பேண	-10.4236
▁செய்திகள்	-10.4239
▁தேனி	-10.4239
▁முதலாக	-10.4243
▁பெறப்பட்ட	-10.4245
ருள	-10.4246
▁சீக்கிய	-10.4247
▁நெருங்கிய	-10.4247
▁புகைப்பட	-10.4249
▁பழனி	-10.4249
▁தலைநகராக	-10.4249
▁இத்தாலி	-10.4256
▁பெற்றுள்ளார்	-10.4259
▁எழுத்தாளர	-10.4259
▁கொண்டே	-10.4262
▁சுற்றுச்சூழல்	-10.4269
▁செந்	-10.427
▁பிரதம	-10.427
▁காதலி	-10.4277
▁ஊக்க	-10.4278
▁1952	-10.4281
▁விழுந்த	-10.4282
க்கதை	-10.4284
▁சமநிலை	-10.4285
▁கூர்	-10.4285
▁தீர்க்க	-10.4292
▁வென்று	-10.4293
po	-10.4295
னியர்	-10.4296
த்தாக்க	-10.4297
▁குறைந்தது	-10.4301
வருகிறது	-10.4305
▁அமைக்கப்பட்டது	-10.4311
▁குளம்	-10.4312
▁கொண்டிருக்கிறது	-10.4315
ம்மாள்	-10.4318
▁அருவி	-10.432
▁காலி	-10.4322
நாள	-10.4323
▁கிரக	-10.4323
ாளராகவும்	-10.4324
▁அறிவிக்கப்பட்ட	-10.4324
▁1957	-10.4325
▁வழங்கியது	-10.4327
▁பாக்கித்தான்	-10.4338
▁சியா	-10.434
▁பிரதமர்	-10.4343
▁டெக்	-10.4346
▁இயேசுவின்	-10.435
▁வெட்டி	-10.4352
னுக்கும்	-10.4354
ையூர்	-10.4355
▁இயல்	-10.4356
லொ	-10.4357
io	-10.436
▁இயற்ற	-10.4361
▁வளர்த்த	-10.4365
▁ஆக்சிசனேற்ற	-10.4366
▁நாகரிக	-10.4367
டுப்பு	-10.4368
பழ	-10.4373
▁பெல்	-10.4375
ப்பற்றி	-10.4376
▁அணுகுமுறை	-10.4378
▁கைப்பற்றிய	-10.4379
க்குளம்	-10.438
▁சதுரங்க	-10.4381
▁செயலாக்க	-10.4381
▁இருப்பு	-10.4382
▁கண்டுபிடிப்பு	-10.4386
est	-10.4387
▁திகழ்ந்த	-10.4388
▁சங்ககால	-10.4388
திற	-10.4388
▁In	-10.4391
▁நடந்தது	-10.4392
▁1956	-10.4392
▁கலப்பு	-10.4395
▁தொட	-10.4395
▁பதில்	-10.4399
▁அமைந்திருக்கும்	-10.4407
▁மனோ	-10.4409
▁நடக்கின்றன	-10.4414
ுகிறாள்	-10.4415
▁1965	-10.4417
வியலில்	-10.4418
▁தலைவி	-10.4418
▁ஃ	-10.4423
ev	-10.4425
▁சவு	-10.4426
க்டர்	-10.4426
▁சிதம்பரம்	-10.4428
▁குடிமக்கள	-10.4431
▁தகவல்கள்	-10.4432
▁விடுதி	-10.4433
▁பரப்பளவில்	-10.4435
▁அறக்கட்டளை	-10.4437
▁இந்நிறுவன	-10.4437
பிள்ளை	-10.4438
▁சன்னதிகளும்	-10.4445
க்கெட்	-10.4445
▁இந்நிலை	-10.4449
ee	-10.445
▁மாற்றப்பட்டது	-10.4451
▁The	-10.4453
▁உயிரணுக்கள	-10.4459
▁இடையிலான	-10.4465
▁மாநாடு	-10.4472
▁வகுத்த	-10.4476
தொகு	-10.4476
▁மன்னன	-10.4478
▁நிரல்	-10.4483
விற்கும்	-10.4483
யாய்	-10.4484
ப்புள்ளி	-10.4484
▁நிரந்தர	-10.4487
▁கழகத்தின்	-10.4488
▁ஆரம்பிக்கப்பட்ட	-10.4491
▁உட்படுத்த	-10.4492
▁மாறு	-10.4493
CH	-10.45
▁கட்டிய	-10.45
▁அறியப்படும்	-10.4503
▁ஜெய்	-10.4508
ana	-10.451
மாற்றம்	-10.4512
▁உறுதிப்படுத்த	-10.4512
▁மூவ	-10.4516
யியல	-10.4521
ுவதற்கும்	-10.4527
▁நற்செய்தி	-10.453
▁நம்பப்படுகிறது	-10.4534
வற்றில்	-10.4535
▁தொகுதிகளில்	-10.4536
▁பங்களிப்பு	-10.4536
▁கோல	-10.4537
▁நிரப்ப	-10.4541
▁பட்டத்தை	-10.4543
மிழ	-10.4544
▁விலக	-10.4549
▁நோக்கம்	-10.4551
▁மீனாட்சி	-10.4556
நிதி	-10.4557
▁பிரித்த	-10.4557
▁1973	-10.4558
att	-10.4559
▁உறிஞ்ச	-10.456
▁பலி	-10.4562
▁மடங்கு	-10.4567
▁ஒட்டு	-10.4574
▁விளையாட்டுக்	-10.4576
▁காலத்திற்கு	-10.4577
▁படிப்பை	-10.4581
ுகையில்	-10.4581
▁நான்காம்	-10.4582
ெடுத்து	-10.4583
▁மனிதன்	-10.4585
▁பணிகள்	-10.4587
age	-10.4591
வாழ்வு	-10.4593
▁சூரியன்	-10.4598
▁ஒத்து	-10.4599
▁வினா	-10.4599
▁ஏக்கர்	-10.4611
ப்பாளையம்	-10.4611
▁விடய	-10.4611
▁நாவல்	-10.4613
▁முடிகிறது	-10.4623
▁கால்நடை	-10.4624
விட்டால்	-10.4626
▁தலைவராகவும்	-10.4628
▁அன்ப	-10.4629
our	-10.4631
ப்பாட்டு	-10.4632
▁பொய்	-10.4632
▁பந்த	-10.4633
▁மாநகராட்சி	-10.4635
▁அடுக்க	-10.4638
ளூர்	-10.4644
▁வழக்கமான	-10.4647
▁அடைந்து	-10.4649
▁அறிவிக்க	-10.4653
▁ஆட்சியின்	-10.4656
▁கொல்கத்தா	-10.4658
▁காத்த	-10.4659
▁ஒழி	-10.466
▁கந்தக	-10.4662
▁திரைப்படத்தின்	-10.4662
ச்சல	-10.4664
புளோரைடு	-10.4668
▁தேவைப்படும்	-10.4671
▁பார்வையாளர்	-10.4675
▁செம்ம	-10.4675
▁எட்ட	-10.4676
▁பெருமளவில்	-10.4677
▁முடிவுக்கு	-10.468
▁பத்திர	-10.4681
▁தடுப்பு	-10.4685
பியன்	-10.4687
த்தேர்	-10.4688
▁ஐரோப்பாவில்	-10.4688
▁ஏற்படுத்தி	-10.4688
ப்பாளர்	-10.4688
▁பொருளின்	-10.4691
▁திட	-10.4692
▁போதிலும்	-10.4692
ஜூ	-10.4696
▁1964	-10.4697
செயல	-10.47
▁வரவேற்ப	-10.4702
கியூ	-10.4713
▁அறிவித்தார்	-10.4718
▁அமர	-10.4731
போர்டு	-10.4732
▁வைணவ	-10.4735
▁வீடியோ	-10.4736
▁போய்	-10.4737
▁வெப்பநிலையில்	-10.4738
▁உடற்	-10.4738
▁கட்டுப்பாட்ட	-10.4743
▁இடங்கள்	-10.4744
▁மொழியாக	-10.4745
பத்து	-10.4749
▁என்றார்	-10.475
▁அடங்க	-10.475
▁படங்களில்	-10.4753
▁அலெக்சா	-10.4754
தொரு	-10.4754
▁நகரங்களில்	-10.4758
▁இணைப்ப	-10.4769
▁பெரி	-10.4771
ிலிருந்தே	-10.4776
▁பிரெ	-10.4781
நத்தம்	-10.4783
ram	-10.4783
wa	-10.479
▁நின்ற	-10.479
▁தழுவி	-10.4795
▁இத்திட்ட	-10.4796
▁அலுமினிய	-10.4797
▁மகிழ்ச்சி	-10.4797
▁காணப்பட்டது	-10.4801
▁பயன்பாட்டு	-10.4805
▁முற்றுகை	-10.4806
▁மற்றவர்	-10.4807
▁எனில்	-10.4812
ொழி	-10.4813
▁நூலாக	-10.4814
▁உடனடியாக	-10.4815
800	-10.4819
▁தாரா	-10.4819
▁பயிரிட	-10.482
ேசுவர	-10.4825
▁150	-10.4829
▁மொழியை	-10.4829
▁வரையான	-10.4829
▁திறனை	-10.483
▁ராணுவ	-10.4833
▁பட்டி	-10.4833
▁தஞ்சை	-10.4833
▁தலைநகரான	-10.4839
▁விநியோக	-10.4841
pe	-10.4848
Co	-10.4849
▁வழியே	-10.4851
▁நூ	-10.4852
▁மண்டபம்	-10.4853
கதை	-10.4859
ுலக	-10.4859
▁நடுவில்	-10.4874
யிட்டு	-10.4874
▁கேரளா	-10.4876
▁நிறுத்தி	-10.4878
▁பயணிகள்	-10.4891
ரம்ப	-10.4893
▁மௌ	-10.4895
▁முன்பாக	-10.4896
▁துவங்கி	-10.4896
ுறுப்பு	-10.4897
▁உபசன்னதிகள	-10.4899
▁ஆற்றல	-10.4899
▁டார்	-10.49
▁சூத்திர	-10.49
ாகி	-10.4905
▁தலைமையிலான	-10.4906
ஞர்	-10.491
ப்பாக்கம்	-10.4911
▁நன்றாக	-10.4912
▁வள்ளி	-10.4915
படை	-10.4917
▁தலைப்பில்	-10.492
▁பாலைவன	-10.4921
300	-10.4922
▁நூலின்	-10.4923
▁பயன்படுகின்றன	-10.4925
▁அருகிலுள்ள	-10.4931
இலங்கை	-10.4932
▁காவல்துறை	-10.4932
மனித	-10.4932
▁இழப்பு	-10.4934
▁நாய்	-10.4941
த்தொடர்	-10.4941
▁நாயக்கர்	-10.4942
▁புகு	-10.4943
மில்லை	-10.4946
க்குறை	-10.4946
2%	-10.4947
▁தன்மையை	-10.4949
▁சொன்ன	-10.496
▁ராபர்ட்	-10.496
டொ	-10.4963
▁தகவல	-10.4963
▁கொழு	-10.4964
▁அழற்சி	-10.4973
og	-10.4974
▁பொறுப்பேற்ற	-10.4976
▁பரா	-10.4977
க்குறிச்சி	-10.4978
▁திருமால	-10.498
வென்	-10.4982
ில்லாமல்	-10.4985
uth	-10.4985
ae	-10.4986
ிக	-10.4987
ிருப்பது	-10.4989
▁ஆற	-10.4989
▁உயிரணு	-10.4989
▁சட்டத்தின்	-10.4992
▁நகருக்கு	-10.4994
ாளரான	-10.4994
ob	-10.4994
ுபவை	-10.4999
சார்ந்த	-10.4999
▁செருமனி	-10.5001
▁கிராம்	-10.5003
▁தலைநகரம்	-10.5007
▁டச்சு	-10.5011
டிங்	-10.5015
▁குமர	-10.5015
ith	-10.5015
▁ஏற்	-10.5018
▁அண்மையில்	-10.5018
▁செரு	-10.5018
▁எல்லாம்	-10.5019
பெரிய	-10.5021
▁குழுவில்	-10.5024
▁காதல	-10.5025
மாகவே	-10.5026
▁மக்கட்தொகை	-10.5027
மின்றி	-10.503
patti	-10.5033
▁அகில	-10.5035
▁Re	-10.5035
க்கழக	-10.5035
ுமிட	-10.5035
▁கழகத்தில்	-10.5039
நெறி	-10.5041
▁எச்ச	-10.5044
போர்ட்	-10.5046
▁கதைகள்	-10.5046
▁நிருவாக	-10.5046
▁தொண்டை	-10.5052
▁இசையில்	-10.5058
▁அடிப்படையாக	-10.5061
▁ஆகவே	-10.5061
▁இறப்ப	-10.5062
▁உதவியுடன்	-10.5062
▁மரங்கள்	-10.5066
விலங்க	-10.5066
▁முத்திரை	-10.5068
வதற்காக	-10.5068
▁அதிகாரம்	-10.5074
▁என்பதுடன்	-10.5074
▁சரண	-10.5076
ப்பழ	-10.5081
pl	-10.5083
▁சர்ச்சை	-10.5083
▁ஓடி	-10.5084
▁மின்னோட்ட	-10.5084
▁முடிவுகள்	-10.509
▁ஊழியர்	-10.509
▁தெரிவித்தார்	-10.5092
▁புதுச்சேரி	-10.5093
▁விருதுகள்	-10.5094
▁சூழலில்	-10.5097
▁வந்தன	-10.5097
ீசுவரர்	-10.5099
▁ஏற்படுத்தும்	-10.5103
▁ஊடாக	-10.5105
ass	-10.5106
▁மேற்கத்திய	-10.5108
சிற்றிதழ்	-10.5109
▁இந்திரா	-10.5113
▁வேண்ட	-10.5115
▁திரைப்படங்கள்	-10.5115
▁ஆட்சியில்	-10.5119
▁இலிருந்து	-10.5124
▁கட்டத்தில்	-10.5124
▁அறிமுகம்	-10.5125
▁ஒருங்கிணைந்த	-10.5126
வண்ண	-10.5128
▁பிறப்ப	-10.5129
▁குடியேற	-10.5136
▁பாண்டியன்	-10.5139
ப்படுவதால்	-10.5142
▁டூ	-10.5143
▁ஒருமுறை	-10.5149
▁சமயங்களில்	-10.5154
▁தற்காலிக	-10.5163
ஸ்ரீ	-10.5166
மாதிரி	-10.517
▁படகு	-10.517
▁கூடு	-10.5171
▁அணியில்	-10.5176
சமய	-10.5178
▁ஜு	-10.5181
நாராயண	-10.5186
▁சேவைகள்	-10.5194
▁1945	-10.5194
▁முடியவில்லை	-10.5195
▁நூற்றாண்ட	-10.5196
உலக	-10.5198
▁எலக்ட்ரான்	-10.52
▁சிக்கல	-10.5203
முடியாத	-10.5206
ue	-10.5209
▁தானே	-10.5215
▁தொடர்பாக	-10.5216
▁1963	-10.5219
▁பெருந்த	-10.522
▁வேல	-10.5222
▁நடுநிலை	-10.5226
▁குழுக்கள்	-10.523
▁பேராசிரியராக	-10.5231
வீச்சு	-10.5232
▁இரயில்	-10.5234
காந்த	-10.5236
▁உறுப்பினரும்	-10.5237
▁துன்ப	-10.5237
▁திரைக்கதை	-10.5245
▁முதுகலை	-10.5246
▁என்பவரின்	-10.5246
▁நபர	-10.5247
her	-10.5255
▁எஞ்சிய	-10.5256
ஸ்திர	-10.5262
மீட்டர்	-10.5262
▁பக்கம்	-10.5263
▁பொருளியல்	-10.5264
▁கொடுப்ப	-10.5264
=274	-10.5266
son	-10.5272
▁விவசாயி	-10.5273
▁சம்பவ	-10.5274
வாள	-10.5274
▁கம்பெனி	-10.529
▁கிழக்க	-10.5291
▁அவர்களால்	-10.5297
▁தவற	-10.53
ru	-10.53
="274	-10.53
பீட	-10.5303
▁நடுவண்	-10.5304
▁என்பதன்	-10.5305
=275	-10.5309
▁1968	-10.5312
▁நடவடிக்கைகள்	-10.5312
▁CH	-10.5312
ாற்றல்	-10.5314
mp	-10.5315
ப்பாறை	-10.5318
▁மடி	-10.5319
▁கொண்டிருக்க	-10.5323
▁வலு	-10.5324
▁இந்நகரம்	-10.5326
▁திட்டமிட	-10.5327
▁வடகிழக்கு	-10.5332
▁கடும்	-10.5335
▁முதன்முதலாக	-10.5336
▁பகுதியான	-10.5338
▁மேற்பரப்ப	-10.5339
▁கழித்து	-10.5341
▁பிற்காலத்தில்	-10.5343
=273	-10.5346
▁மரபுவழி	-10.5351
எச்	-10.5353
▁துல்லிய	-10.5354
▁கண்காணிப்ப	-10.5355
▁விரைவில்	-10.5355
▁கையெழுத்த	-10.5356
▁நகரை	-10.5357
▁1927	-10.5358
="275	-10.5361
▁அனைவர	-10.5362
▁வங்க	-10.5363
த்துவம்	-10.5363
▁இலாப	-10.5368
▁தமிழ்ச்	-10.537
விலேயே	-10.5373
ுதலை	-10.5374
▁கருதுகின்றனர்	-10.538
ரூப	-10.538
▁பயன்பட்ட	-10.5381
▁நிறுவினார்	-10.5386
ric	-10.5395
▁மாடு	-10.5396
▁தேற்ற	-10.5397
▁கல்லறை	-10.5399
8%	-10.5403
ப்படுத்திய	-10.5408
ுநர்	-10.5409
▁பாம்பு	-10.541
▁கிழக்கிந்திய	-10.5411
▁இவற்றுள்	-10.5416
▁வைத்திருந்த	-10.5421
▁அதிகபட்ச	-10.5422
▁வடிவமைத்த	-10.5424
="273	-10.5425
கொள்கிறது	-10.5429
▁மதிப்பிட	-10.5429
ke	-10.5431
-18	-10.5434
லீன்	-10.5437
▁நரசிம்ம	-10.5438
▁தொகுதியின்	-10.5444
▁முறையான	-10.5445
வல்லி	-10.545
ுபவர்கள்	-10.5455
4%	-10.5461
▁அலங்கார	-10.5467
▁நிலவிய	-10.5467
▁மஞ்ச	-10.5482
▁வரையறுக்கப்பட்ட	-10.5484
▁தொடங்கப்பட்ட	-10.5484
▁முதலீடு	-10.5487
3%	-10.5488
▁ஆப	-10.5489
▁கொண்டிருந்தார்	-10.549
▁நூற்	-10.5491
▁பொதுச்	-10.5493
▁குழுவினர	-10.5494
▁தமிழர்கள்	-10.5502
▁கோவா	-10.5503
குறிப்பிடுகிறார்	-10.5507
=276	-10.5512
▁அங்கீகரிக்க	-10.5513
▁தெரிந்த	-10.5515
▁வேட்பாளராக	-10.5518
▁கரையில்	-10.5518
▁மருத	-10.5519
ast	-10.5521
▁சோழன்	-10.5523
▁தயாரிப்பாளர்	-10.5527
▁இவ்வா	-10.5532
நான்	-10.5533
▁பெரம்பலூர்	-10.5542
ish	-10.5542
▁இருக்கின்றது	-10.5543
&	-10.5544
▁பிராமண	-10.5546
▁இம்மொழி	-10.5547
▁கூடும்	-10.5547
குளோரோ	-10.5548
ுணர்வு	-10.555
பொழி	-10.5556
பூண்டி	-10.5556
▁தொடர்ச்சி	-10.5562
="276	-10.5563
▁பொட்டாசியம்	-10.557
▁இந்திர	-10.557
▁கதிரியக்க	-10.557
▁அரேபிய	-10.5575
▁நீதிமன்றம்	-10.5577
▁பெற்றிருந்த	-10.5581
▁கணிக்க	-10.5584
▁விழுக்காடு	-10.5589
ச்செயல	-10.5592
க்கல்வி	-10.5594
க்காகவும்	-10.5594
▁என்பவரை	-10.5596
▁மீள்	-10.56
▁பிரதிநிதித்துவ	-10.5606
களுடனும்	-10.5607
▁1920	-10.5607
eg	-10.561
▁இருந்தபோது	-10.5612
▁செலுத்தி	-10.5613
ite	-10.5614
▁அறிஞர்கள்	-10.5616
▁ஈடுபட்டு	-10.5617
▁பேரூராட்சி	-10.5622
▁பாகை	-10.5627
▁எதிர்பார்க்க	-10.5627
▁தண்டு	-10.5633
▁கால்வாய்	-10.5633
▁அக்கால	-10.5635
▁இயற்பியல	-10.5637
▁அரியலூர்	-10.5638
▁தங்கி	-10.5641
▁கணக்கில்	-10.5643
ெடுப்ப	-10.5649
▁இலத்தீன்	-10.5655
▁உரையாட	-10.5661
▁சதவிகித	-10.5665
குமார	-10.5665
▁சுட்டு	-10.5671
=278	-10.5673
▁உரிம	-10.5674
▁சிவாஜி	-10.5674
▁அன்பு	-10.5675
▁கொன்ற	-10.5675
▁விளைவிக்க	-10.568
▁பசுமை	-10.5683
=279	-10.5684
▁உணர்ச்சி	-10.5684
▁ஒலிபரப்ப	-10.5684
tu	-10.5686
▁கவிதைகள்	-10.5687
ட்டீ	-10.5692
▁சிவபெருமான்	-10.5699
▁மகனாக	-10.57
▁மெல்ல	-10.5701
▁இவ்வாறான	-10.5703
▁வசதிகள்	-10.5704
poem	-10.5704
▁வாடிக்கையாளர்	-10.5714
▁மூழ்க	-10.5714
▁ஏழை	-10.5715
▁கிரிக்க	-10.5717
▁ஷெ	-10.5717
▁பெற்றுள்ளன	-10.5719
="278	-10.5725
ரோஸ்	-10.5725
ிட்டு	-10.5725
▁மாளிகை	-10.5732
▁துண்டு	-10.5733
▁முழுமை	-10.5734
="279	-10.5737
வயல்	-10.5738
▁உடல்நல	-10.5743
res	-10.5744
▁1954	-10.5745
▁400	-10.5748
▁காலமானார்	-10.5751
▁கடினமான	-10.5755
▁இப்பள்ளி	-10.5755
ராயன்	-10.5761
▁பணியை	-10.5762
வாளர்	-10.5762
▁திறக்க	-10.5766
ence	-10.5769
▁சேர்க்கை	-10.577
▁பராமரிப்ப	-10.577
மென	-10.5771
▁வலைத்தள	-10.5771
ern	-10.5773
▁வர்க்க	-10.5774
▁மென்பொருள	-10.578
▁முகவரி	-10.578
▁வளர்ப்பு	-10.5781
▁பேரவை	-10.5783
▁வழங்கினார்	-10.5786
▁கிழக்கே	-10.5787
▁திறந்து	-10.5788
▁உத்தரப்	-10.5789
முறையில்	-10.5793
ுள்ளதாக	-10.5793
▁முன்பே	-10.5796
iz	-10.5798
▁துருவ	-10.5806
வர்மன்	-10.5808
பகுதியில்	-10.5808
▁தாண்டி	-10.5813
றே	-10.5814
▁ராவ்	-10.5815
க்கருவி	-10.582
க்ஸி	-10.582
▁பெருமளவு	-10.582
ங்கூர்	-10.5822
▁தட்டு	-10.5822
▁தரும	-10.5824
▁தனிநபர்	-10.5828
கொள்கிறார்	-10.5845
▁சித்தரிக்க	-10.5852
▁உத்திர	-10.5855
▁உடையது	-10.5859
அமெரிக்க	-10.5862
▁லூயி	-10.5868
ெங்கும்	-10.5871
கவுண்ட	-10.5875
▁மார்கழி	-10.5877
=272	-10.5877
▁அமர்	-10.5878
ங்களே	-10.5878
=280	-10.588
▁இராச்சியத்தின்	-10.5883
▁கார்பன	-10.5884
எண்	-10.5888
▁சேர்மங்கள்	-10.589
▁படித்து	-10.589
▁காட்டுகிறது	-10.5893
▁சீனாவின்	-10.5895
▁புராணம்	-10.5895
▁குடும்பத்தைச்	-10.5896
int	-10.5896
▁தனித்த	-10.5898
▁தொட்டி	-10.5901
த்தலைவர்	-10.5902
▁1961	-10.5908
▁பிரிந்து	-10.5908
▁தொகுப்புக்	-10.5915
▁அசோக	-10.5917
▁என்பதில்	-10.5919
▁தாக்கி	-10.5921
▁மாவட்டத்திலுள்ள	-10.5921
▁வசந்த	-10.5927
நிகழ்	-10.5931
▁பழுப்பு	-10.5936
▁பரத	-10.5938
ace	-10.5952
▁சிறையில்	-10.5965
▁மனிதர்கள்	-10.5971
="280	-10.5972
_1	-10.5973
▁முடித்த	-10.5976
="272	-10.5977
ஆவது	-10.5979
▁அமைகிறது	-10.5989
வேலி	-10.5991
▁தென்கிழக்கு	-10.5991
▁கடுமையாக	-10.5994
▁கதாப்பாத்திர	-10.6004
▁தவறு	-10.6011
▁ஆணையம்	-10.6011
லானது	-10.6013
ற்காடு	-10.6019
▁பாலியல்	-10.602
ந்தூர்	-10.6023
▁இவரே	-10.6025
▁வீழ்த்த	-10.6025
▁சுவாச	-10.603
▁தவிர்த்து	-10.6031
▁முகம்மது	-10.6034
▁படிப்படியாக	-10.6034
▁அமைவ	-10.6043
▁ஒர்	-10.6048
▁for	-10.605
▁வேல்	-10.6052
▁காட்டும்	-10.6057
▁விழி	-10.6057
▁தாமிர	-10.6072
▁ஆளுநர்	-10.6073
▁வடமொழி	-10.6079
ுயிர்	-10.608
▁விரிவான	-10.6081
▁உணர்த்த	-10.6081
இதழ்	-10.6081
ron	-10.6087
மிழ்	-10.6088
▁பங்கேற்க	-10.6094
▁என்பவற்ற	-10.6095
▁அங்கிருந்து	-10.6095
மல்லி	-10.6097
http	-10.6098
பாண்டிய	-10.6101
▁பாடகர்	-10.6102
▁தோற்றுவிக்க	-10.6103
▁காஞ்சி	-10.6104
த்திற்க	-10.611
▁விக்கி	-10.6116
ம்பாக்கம்	-10.613
▁ஆயிர	-10.614
▁1966	-10.614
▁வேட்டையாட	-10.6144
ib	-10.6149
▁பிளவு	-10.615
நாட்டின்	-10.6161
▁சிங்கப்பூர	-10.6167
▁கொன்று	-10.6168
▁வீத	-10.6175
▁தேவார	-10.6176
▁நாட்காட்டி	-10.6179
▁சேமிக்க	-10.618
▁பயன்பாட்டில்	-10.6183
ஃபீ	-10.6185
▁இசைக்குழு	-10.6192
www	-10.6204
▁வகையைச்	-10.6205
▁கோவிந்த	-10.6206
▁ஃபோ	-10.6209
▁கப்பல	-10.6214
700	-10.6217
▁ஆள்	-10.6221
lu	-10.6226
பாட்டில்	-10.6231
▁நடைமுறையில்	-10.6231
▁கிளர்ச்சி	-10.6234
no	-10.6234
▁படித்த	-10.6238
ref	-10.6238
ach	-10.624
AT	-10.6246
▁வானியல	-10.6247
▁முகமது	-10.6248
▁அரசியலமைப்பு	-10.6251
▁இளங்கலை	-10.6254
▁தேர்தல	-10.6256
▁வாழை	-10.6257
▁சிதற	-10.6258
▁கோயிலின்	-10.6264
▁போட்டியிட்ட	-10.6273
▁எதிர்மறை	-10.6278
▁வசன	-10.6279
▁காரணத்தால்	-10.628
▁படிம	-10.6282
=349	-10.6284
▁ஈட்ட	-10.6296
▁புவியின்	-10.6297
ial	-10.6304
விடுகிறது	-10.6305
▁அபாய	-10.6305
▁நுழைந்த	-10.6308
▁இதற்கான	-10.6312
தூர	-10.6318
▁முகலாய	-10.6319
▁ஹீ	-10.6319
▁விளிம்ப	-10.6321
▁தேர்ந்தெடுத்த	-10.6325
▁சுற்றியுள்ள	-10.6332
▁படையினர	-10.6337
▁படைப்ப	-10.6345
▁பாக்டீரியா	-10.6346
▁அமைச்சரவை	-10.6346
▁குளிர்கால	-10.6346
▁பயன்பட	-10.6349
▁ஒட்டுமொத்த	-10.6356
ens	-10.6358
▁மகாபாரத	-10.6364
▁போருக்கு	-10.6366
▁கிடையாது	-10.6366
▁மாறும்	-10.6369
="349	-10.637
குறிச்சி	-10.6376
▁பிலிப்	-10.6386
=271	-10.639
▁உட்புற	-10.6395
சூல	-10.6401
act	-10.6401
▁அணிக்காக	-10.6408
▁1959	-10.6411
▁குறிக்கோள	-10.6412
▁சட்டப்படி	-10.6414
▁பொருள்படும்	-10.6421
குறியீட்ட	-10.6426
▁உடலின்	-10.6434
ga	-10.6439
▁சூப்பர்	-10.6446
▁உணவாக	-10.6447
ச்சார்	-10.6448
▁மின்னழுத்த	-10.6449
மேலும்	-10.6451
▁Ma	-10.6452
நல	-10.6453
▁மேம்பாட்டு	-10.6455
வாள்	-10.6461
▁கோடை	-10.6467
நிறுத்த	-10.6468
ton	-10.6468
ப்புல	-10.6471
▁இறங்க	-10.6474
▁1958	-10.6477
வனாக	-10.6482
▁ஆரம்பமான	-10.6484
125	-10.649
▁விரைவு	-10.6491
▁போதி	-10.6495
ொன்றை	-10.6503
▁பொருட்களின்	-10.6503
▁கற்பித்த	-10.6504
▁எழுத்துக்கள்	-10.6505
▁முன்னேற்றக்	-10.6506
▁சந்திப்பு	-10.6508
▁நிறுவனத்தை	-10.6509
தானி	-10.6513
="271	-10.6516
▁நெதர்லாந்த	-10.6521
▁வைத்தார்	-10.6522
▁நீளமான	-10.6522
▁பொலி	-10.6526
▁குற	-10.6527
▁திருக்குறள	-10.6531
ight	-10.6531
▁மன்னார்	-10.6532
லாய்	-10.6533
▁சம்பா	-10.6533
▁கருத்தை	-10.6534
▁அடிப்படையிலான	-10.6535
▁பிற்பகுதியில்	-10.654
▁தொடர்ச்சியான	-10.654
▁சாம்பல்	-10.6542
5,000	-10.6542
▁இவ்வினை	-10.6543
வாகவும்	-10.6544
▁உள்ளடக்கியது	-10.6546
▁தீவிரவாத	-10.6547
▁என்பதையும்	-10.6547
ிருப்பதாக	-10.6549
▁அச்சிட	-10.655
▁தோன்றியது	-10.6551
▁அகாதமி	-10.6552
▁நிற்க	-10.6552
▁தயாரிப்பில்	-10.6553
iya	-10.6554
பாடாக	-10.6561
▁ஆரணி	-10.6562
▁நெருக்கடி	-10.6562
பாண்டி	-10.6563
▁பிரம்மா	-10.6565
ஞா	-10.6566
▁நீட்டி	-10.6566
▁டிவி	-10.6567
▁ராமநாதபுரம்	-10.6573
▁வெற்றிகரமாக	-10.6573
ந்துறை	-10.6578
▁சில்ல	-10.6579
▁1946	-10.6583
▁ஏறக்குறைய	-10.6583
யீடு	-10.6584
▁ஆரிய	-10.6587
▁திட்டத்தை	-10.6592
ழற்சி	-10.6599
▁கும்ப	-10.6601
▁1949	-10.6601
▁சிறி	-10.6606
▁வெட்டு	-10.6608
போதே	-10.661
▁சுரப்பி	-10.6611
ராயர்	-10.6613
▁பள்ளத்தாக்கு	-10.6615
▁முன்னரே	-10.6615
mi	-10.6617
▁பெரும்பான்மையான	-10.6621
▁தலைவன்	-10.6622
▁பத்திரிக்கை	-10.6625
டவுன்	-10.6631
அரச	-10.6631
▁ஏற்றுக்கொண்ட	-10.6635
▁நூலகம்	-10.6637
▁போலி	-10.6637
▁நாட்டுப்புற	-10.6641
▁சுழல்	-10.6649
வேலு	-10.6649
▁உறுப்பினராகவும்	-10.6649
▁தொடரின்	-10.6656
▁மேற்கோள்	-10.6659
▁ஹெர்	-10.6665
▁பனை	-10.6672
=336	-10.6673
sc	-10.6673
▁பதினெட்டாம்	-10.6678
ங்களி	-10.6683
▁மாறிய	-10.6684
▁தெரியவில்லை	-10.6686
▁வாயிலாக	-10.6689
▁நமது	-10.669
▁திரிபு	-10.6693
▁பெறுகிறது	-10.6693
வியலாளர	-10.6703
லுடன்	-10.6703
▁குறைவு	-10.6708
▁செதுக்க	-10.6709
▁தற்கொலை	-10.6709
▁அறிவிப்ப	-10.671
▁மாநிலங்களில்	-10.671
▁ஆபிரிக்க	-10.6712
▁தூக்கி	-10.6712
▁பாகிஸ்தான	-10.6714
▁கடவுளின்	-10.6715
▁இதழில்	-10.6718
amb	-10.6729
▁அப்போதைய	-10.6731
▁வெண்பா	-10.6734
▁கரும்பு	-10.6734
வாசக	-10.6734
▁ஈர்க்க	-10.6735
▁அரசால்	-10.6736
▁ஓரளவு	-10.6736
▁மோதி	-10.6745
▁தருகிறது	-10.6745
▁திட்டங்கள்	-10.6746
▁இயலாத	-10.6752
ராஷ்டிர	-10.6752
▁கருத்துக்களை	-10.6756
▁நாட்களுக்கு	-10.6759
▁வேளாண்	-10.6761
▁அதிகரிக்கும்	-10.6766
▁1951	-10.6766
▁மெல்லிய	-10.6767
▁கூட்டமைப்ப	-10.6768
▁எடுப்ப	-10.677
▁தூரம்	-10.6771
▁கூடாது	-10.6772
▁ஆரோக்கிய	-10.6773
▁பசிபிக்	-10.6773
▁சிலுவை	-10.6778
="336	-10.6781
▁சுருக்கமாக	-10.6783
ானந்த	-10.6785
▁ரவி	-10.6785
செய்யப்பட்ட	-10.6787
▁இப்படம்	-10.6789
In	-10.6791
▁தவறான	-10.6791
▁பணிபுரிந்தார்	-10.68
▁அடித்தள	-10.6801
▁கற்றார்	-10.6804
விசை	-10.6804
▁தூரத்தில்	-10.6805
▁நுரையீரல்	-10.681
▁திசையில்	-10.6811
▁உமிழ்	-10.6813
ிறான்	-10.6814
▁ஒற்றுமை	-10.6816
▁காண்க	-10.6818
புரோ	-10.6822
=337	-10.6834
▁அவற்றுள்	-10.6834
▁ஐந்தாவது	-10.6837
▁சேர்த்த	-10.6847
▁பராமரிக்க	-10.6848
▁மோசமான	-10.6848
பெயர	-10.6854
▁உருவாகி	-10.6854
ங்களுக்காக	-10.6855
▁மொழிபெயர்ப்பு	-10.6855
▁கார்த்திகை	-10.6859
uk	-10.686
▁துவக்கத்தில்	-10.6864
ory	-10.6867
▁தீவில்	-10.6869
▁நிறுவி	-10.6869
▁தற்பொழுது	-10.6869
வசிக்கின்றார்கள்	-10.687
▁மாதங்கள்	-10.687
▁இந்தோனேசியா	-10.687
களோ	-10.6871
▁செயற்பாட்ட	-10.6874
▁புரூ	-10.6877
▁மேற்கொண்டார்	-10.6878
▁நிலையங்கள்	-10.6879
▁பகிர்ந்து	-10.688
▁ஹொங்கொங்	-10.688
▁அன்றைய	-10.688
▁ஐந்தாம்	-10.688
▁ஈர்ப்பு	-10.6881
▁ஊடுருவ	-10.6881
▁பவுல்	-10.6884
▁தேர	-10.6888
▁அளவீடு	-10.6894
▁வாழ்க்கையில்	-10.6896
▁விளையாடி	-10.6911
▁வென்றது	-10.6912
▁இம்மாவட்டம்	-10.6913
▁நீராவி	-10.6915
Ka	-10.6916
be	-10.6917
▁எண்ணிக்கையில்	-10.6917
▁காலப்பகுதியில்	-10.6918
▁மில்லியன	-10.6923
▁1955	-10.693
▁வடமேற்கு	-10.6934
="337	-10.6937
▁விபத்து	-10.6937
▁வசிக்கின்றனர்	-10.6947
=335	-10.6954
▁புத்தர்	-10.6955
▁திரும்பிய	-10.6956
▁வயதுக்குட்பட்ட	-10.6957
பாணி	-10.696
கீழ	-10.6961
▁நிகழ	-10.6963
▁ஆஸ்திரேலிய	-10.6963
▁வயல	-10.6974
=340	-10.6984
சிறந்த	-10.6986
▁கொடுத்தார்	-10.699
▁உள்ளடங்க	-10.699
▁பிள்ளையார்	-10.6997
▁வறுமை	-10.7
▁விழாவில்	-10.7009
▁கூடுதலான	-10.701
▁ஈடுபாடு	-10.701
▁பின்னாளில்	-10.701
▁சிக்கி	-10.7012
▁கொண்டுவந்த	-10.7012
கதிர்	-10.7017
▁அதிபர்	-10.702
▁பட்ச	-10.7021
க்கொள்ளும்	-10.7025
▁மெதுவாக	-10.7041
▁குடும்பத்தினர	-10.7041
▁மையத்தில்	-10.7044
▁சிறீ	-10.7048
புத்திர	-10.705
▁ஆய்வாளர்	-10.7056
பயண	-10.7057
க்கூடியதாக	-10.7058
="340	-10.7064
▁அதிர்வெண்	-10.7065
▁மைக்கேல்	-10.7065
மாரியம்மன்	-10.7066
ுவதாகும்	-10.7067
▁அவர்களுடைய	-10.7073
=348	-10.7073
pp	-10.7076
▁அதிகாரப்பூர்வ	-10.7077
▁அவளை	-10.7078
ுவோர்	-10.7078
▁மெகா	-10.7081
AE	-10.7083
▁குண்ட	-10.7086
▁ஆட்சியாளர்	-10.7086
▁59.5%	-10.7087
▁ஆன்மீக	-10.709
க்காய்	-10.7093
▁இங்கிலாந்தில்	-10.7097
▁பூஜை	-10.7098
பியர்	-10.7099
▁கூறுகின்றனர்	-10.7104
▁1944	-10.7105
களுடைய	-10.7107
▁கொரியா	-10.711
▁ஹூ	-10.7112
ism	-10.7117
▁அளிக்கும்	-10.7122
▁பெயரிட்ட	-10.7122
▁இழப்ப	-10.7124
ுவதே	-10.7128
▁விளைவுகளை	-10.713
▁வள்ள	-10.7131
▁தென்மேற்கு	-10.7131
சந்திர	-10.7132
▁வர்ண	-10.7145
▁சீடர்	-10.7151
▁விசய	-10.7153
IS	-10.7156
="348	-10.7158
▁நட்பு	-10.716
▁நிலையத்தில்	-10.7166
▁அதிகரித்து	-10.7167
=339	-10.7171
ெண்ண	-10.7173
▁மட்டக்களப்பு	-10.7175
▁வழிபாட்டு	-10.7189
▁முடிக்க	-10.719
நாம	-10.7197
▁ஐதரோ	-10.7198
▁தற்காலத்தில்	-10.7199
ுறவு	-10.72
▁சுழல	-10.72
▁மாந்த	-10.7205
▁மூச்சு	-10.7206
னாய்	-10.7207
▁சத்ய	-10.7209
▁விண்டோஸ்	-10.7209
▁காகித	-10.7212
aw	-10.7218
▁நிலநடுக்க	-10.722
▁அழிந்து	-10.722
கிருத	-10.7226
▁ஜப்பானிய	-10.7231
▁ஆதரிக்க	-10.7231
வாணி	-10.7232
▁எல்லைகளாக	-10.7232
▁பயன்படுத்தலாம்	-10.7242
▁உடலை	-10.7243
▁ஜனநாயக	-10.7243
▁மண்டலத்தில்	-10.7244
▁புறா	-10.7249
▁1939	-10.7249
ிடமும்	-10.7249
▁தோற்கடித்த	-10.7253
▁ஆளுமை	-10.7254
றிதல்	-10.7268
▁ரெட்டி	-10.7272
▁கோயிலில்	-10.7276
▁நிலக்கரி	-10.7276
ச்சூழல	-10.7276
கூறு	-10.7279
▁நடப்ப	-10.7282
="339	-10.7286
▁வேளையில்	-10.7288
Pa	-10.7291
▁உருவாக்குகிறது	-10.7295
விட்டன	-10.7299
யப்பன்	-10.73
nowiki	-10.73
▁அறியப்படுகிறார்	-10.7302
▁அழைப்பர்	-10.7302
நாட்டில்	-10.7303
▁அளிக்கப்பட்ட	-10.7307
▁நாடுகளிலும்	-10.7313
sa	-10.7313
வார்ட்	-10.7314
▁படித்தார்	-10.7319
▁எரிபொருள்	-10.732
▁அவசர	-10.7325
▁துரு	-10.7326
▁இருந்ததால்	-10.7332
Mar	-10.7337
▁பெரும்பகுதி	-10.7342
▁இந்நோய	-10.7343
▁அனைத்தையும்	-10.7343
▁தொலைவு	-10.735
▁கூறலாம்	-10.7353
வரதராஜப்பெருமாள்	-10.7354
▁கற்பிக்க	-10.7358
மன்ற	-10.7359
ப்பதற்கான	-10.736
▁பருவத்தில்	-10.736
▁சேகரிப்ப	-10.7363
▁கவலை	-10.7367
▁வெல்ல	-10.7368
கோபால	-10.737
▁சூழப்பட்டுள்ளது	-10.7371
▁மெய்யியல்	-10.7376
=369	-10.7377
ral	-10.7378
▁தியான	-10.7382
▁பார்வதி	-10.7383
குழாய்	-10.7384
▁இயற்றப்பட்ட	-10.7386
ong	-10.7387
▁போர்த்துக்கேய	-10.7388
▁ஆறாம்	-10.7389
▁சரக்கு	-10.739
▁ஓவியங்கள்	-10.7393
யென	-10.7397
▁பெண்களுக்கு	-10.7399
எகிப்த	-10.7401
லுக்கான	-10.7401
ுபவர	-10.7403
கட்சி	-10.7404
▁தோழி	-10.7406
▁பார்ப்ப	-10.7409
க்கல்லூரி	-10.7409
▁தொகுத்து	-10.7412
ீஸ்வர	-10.7416
▁கடிகார	-10.7423
▁பழமை	-10.7423
▁படிப்பறிவு	-10.7423
▁மாற்றாக	-10.7426
▁இயலாது	-10.7427
▁விளையாடினார்	-10.743
▁ஆபத்து	-10.743
▁கொடுக்கும்	-10.7435
▁படல	-10.7437
▁விளங்கினார்	-10.7437
▁தரநிலை	-10.7437
▁இரக	-10.7447
▁உருவாகிய	-10.7448
▁தனித்து	-10.7457
லாந்தின்	-10.7458
▁முடித்து	-10.7459
▁மூலவர்	-10.746
ீட	-10.746
▁சந்தேக	-10.7462
=341	-10.7466
▁அளவி	-10.7467
▁ஒன்றின்	-10.7468
▁விண்கல	-10.7469
▁மின்கல	-10.7469
▁ஊட்ட	-10.7471
▁ஹென்றி	-10.7471
மூன்று	-10.7471
aj	-10.7471
▁என்கிறார்	-10.7474
▁பகுதிகளுக்கு	-10.7474
="369	-10.7476
▁பொறுத்த	-10.7481
▁செயற்பட	-10.7483
▁பிரதேசத்தில்	-10.7488
▁செல்கின்றன	-10.749
▁கலைஞர	-10.749
▁பெண்களும்	-10.749
▁இடங்களை	-10.7494
▁செட்டி	-10.7498
▁இவ்விட	-10.75
▁பற்று	-10.7505
நிறுவன	-10.7508
▁இதற்காக	-10.751
▁அருந்த	-10.7514
▁ஃப்ர	-10.7518
ark	-10.7524
▁ஏதேனும்	-10.7525
▁தாமரை	-10.7526
▁கமல	-10.7526
கரமான	-10.7542
▁பாடலை	-10.7544
▁ஆக்சிசன்	-10.7545
▁வந்துள்ளது	-10.7547
▁இருப்பிட	-10.7548
▁ஒளிப்பட	-10.7548
▁ஆராய்ந்த	-10.755
▁தொழில்முறை	-10.7553
கூற	-10.7564
▁விதமான	-10.7565
▁இயக்கினார்	-10.7567
▁தாக்கத்தை	-10.7567
▁இன்றி	-10.7568
▁புற்று	-10.7571
▁விஸ்வநாத	-10.7571
பாளைய	-10.7576
▁ஆக்சி	-10.7582
▁மைசூர்	-10.7585
பின்னர்	-10.7586
▁போன்றவற்றில்	-10.7586
கணித	-10.7593
▁பன்றி	-10.7598
▁சூழ்ந்த	-10.76
▁வரையிலும்	-10.7602
▁பக்கத்தில்	-10.7602
ack	-10.7612
▁டெல்லி	-10.7613
▁மூலமும்	-10.7615
▁இப்பெயர்	-10.7615
▁வலிமையான	-10.7617
▁சேமிப்பு	-10.7617
▁ஒருங்கிணைப்ப	-10.7618
▁மலாயா	-10.7618
▁பின்பற்றி	-10.762
▁எழுச்சி	-10.7621
▁1953	-10.7622
ண்டெ	-10.7632
▁உணவை	-10.7641
▁உருசியா	-10.7642
▁சொந்தமான	-10.7649
="341	-10.7655
▁தயாரித்து	-10.7662
▁இடத்திற்கு	-10.7663
▁நீரின்	-10.7663
▁கருப்பை	-10.7672
▁நாளை	-10.7675
ank	-10.7675
▁தொகுதியாகும்	-10.7675
▁கருதப்பட்ட	-10.7676
▁மறுத்து	-10.7686
mon	-10.7687
▁வழித்தட	-10.7688
war	-10.7694
▁மயிலாடுதுறை	-10.7699
▁கரையோர	-10.7699
ாக்சி	-10.77
▁வேட்டை	-10.7702
▁வெளியேறி	-10.7709
▁செய்யலாம்	-10.7713
▁வலய	-10.7721
▁விரிவுரை	-10.7723
வழக்க	-10.7724
▁உகந்த	-10.7725
900	-10.7727
▁நீங்க	-10.773
▁முதன்மையாக	-10.7732
ாயுத	-10.7743
நெட்	-10.7749
▁மஹா	-10.775
▁பண்புகளை	-10.775
▁பந்தய	-10.775
பாட்டின்	-10.7754
முரண்	-10.7757
▁ஆசை	-10.7759
▁பொருத்தமான	-10.7761
=338	-10.7763
▁அடையும்	-10.7766
gen	-10.7768
நாய்	-10.7769
▁உற்சவ	-10.7769
▁சண்முக	-10.7769
▁ஜோன்	-10.7782
▁அடைந்தது	-10.7783
▁எந்திர	-10.7783
▁ஒழுக்க	-10.7786
▁மேற்கே	-10.7787
▁தாயக	-10.7795
▁அமைகின்றன	-10.7802
▁செயற்கைக்கோள்	-10.7805
▁காப்புரிமை	-10.7805
▁தொடங்கும்	-10.781
விளக்க	-10.7812
akk	-10.7816
▁மாதங்களில்	-10.7819
▁பொதுமக்கள	-10.782
7%	-10.7822
▁வலுவான	-10.7826
▁சங்கத்தின்	-10.7834
▁மலேசியாவில்	-10.7835
▁ஆய்வாளர்கள்	-10.7838
சேவை	-10.7842
▁அவதார	-10.7847
மளிக்க	-10.785
▁பொதுமக்கள்	-10.7853
one	-10.7855
▁எடுத்தார்	-10.7856
▁உருவாகின்றன	-10.7859
▁நிக்கோ	-10.7871
▁1936	-10.7875
▁விளையாடிய	-10.7876
="338	-10.7877
▁வசிக்கும்	-10.7885
▁இரசாயன	-10.7888
மெய்	-10.7891
▁பொதி	-10.7891
▁செய்துகொண்ட	-10.7893
▁முதலீட்ட	-10.79
▁இமயமலை	-10.79
▁வயிற்று	-10.79
str	-10.7901
▁நடுத்தர	-10.7904
▁இருக்கை	-10.7904
சமுத்திரம்	-10.7906
▁மேற்பார்வை	-10.7912
▁குறியீட்டு	-10.7913
ிருப்பதால்	-10.7917
களாவர்	-10.7917
▁மூலதன	-10.7919
▁கீழ்க்காணும்	-10.7924
▁விஞ்ஞான	-10.7925
▁தெரிந்து	-10.7926
▁திருச்சபையின்	-10.7927
▁ஆகியோருக்கு	-10.7929
cl	-10.7935
னீசிய	-10.7936
▁இக்கோயில	-10.7939
ப்படுவத	-10.7945
▁1937	-10.7946
▁உழைப்ப	-10.7947
▁கும்பகோணம்	-10.7948
▁அர்ப்பண	-10.7949
ாததால்	-10.7954
▁முறையாகும்	-10.7957
▁சமமான	-10.7958
▁அறுவடை	-10.796
ப்படுவதை	-10.7967
▁இடைக்கால	-10.7969
▁பணிகளை	-10.7974
▁தொடர்பில்	-10.7985
ிருந்தால்	-10.8
▁ஆட்சியை	-10.8
▁நிழல	-10.8001
▁வழிவகுத்த	-10.8008
▁பயனுள்ள	-10.8013
▁மேம்பட்ட	-10.8015
▁மிகுதியாக	-10.8021
udi	-10.8022
▁ஜோசப்	-10.8022
யடுத்து	-10.8027
▁1942	-10.8031
▁மைதான	-10.8035
▁நடிப்பு	-10.8039
▁முடித்தார்	-10.8045
▁நடத்தினார்	-10.8046
கொள்கின்றனர்	-10.8052
▁புரு	-10.8054
▁ஓட்டங்களை	-10.8056
▁பூமியின்	-10.8056
ட்டூர்	-10.8059
ப்படுவதாக	-10.806
▁இளமை	-10.8061
▁ஸ்டோ	-10.8068
த்திறன	-10.8069
▁ஆய்வில்	-10.8071
▁1941	-10.8075
▁வளர்ப்ப	-10.8083
▁வாசிப்ப	-10.8083
▁நடவடிக்கைகளை	-10.8088
▁போட்டியிட	-10.809
▁மதிப்பை	-10.8091
▁தடவை	-10.8091
▁அலுவல்	-10.8092
▁மராத்திய	-10.8093
க்கூடாது	-10.8095
▁ஆஞ்சநேயர்	-10.81
ுவதாகவும்	-10.8101
▁வளைகுடா	-10.8105
▁வெண்கல	-10.811
ஃபெ	-10.8111
▁50%	-10.8113
▁ஆகஸ்டு	-10.8117
ருள்	-10.8119
▁செய்கிறார்	-10.812
▁இவ்வூரின்	-10.8122
adi	-10.8131
▁பங்காற்ற	-10.8133
▁வைத்திருக்க	-10.8136
▁வருவது	-10.8137
▁இயங்குகிறது	-10.8139
▁அங்கீகார	-10.8141
▁பாதுகாத்த	-10.8142
▁சமமாக	-10.8145
▁பங்களிப்ப	-10.8146
▁யாழ்	-10.8152
▁சாகுபடி	-10.8154
▁பகிர்	-10.8155
▁தரவரிசை	-10.816
▁நியூசிலாந்து	-10.8166
தேசிய	-10.8166
ies	-10.8167
▁பாண்டியர்	-10.8168
▁நரம்ப	-10.8172
▁எருசலேம	-10.8178
▁மக்களிடையே	-10.818
▁பகுதிகளாக	-10.8184
▁இனத்தவர	-10.8194
▁எடுத்துக்கொள்ள	-10.8195
▁கற்றல்	-10.8196
▁பேரின	-10.8197
தொடர்	-10.8203
▁இதனுடைய	-10.8204
▁நிறுவனமாக	-10.8207
▁வானிலை	-10.8211
▁சீனாவில்	-10.8215
▁பாலூட்டி	-10.8215
ுமாவார்	-10.8217
▁மாற்றங்களை	-10.8223
▁இராமநாதபுரம்	-10.8227
▁பத்தாண்டு	-10.8227
நூற	-10.8233
▁அகர	-10.8233
▁லண்டன்	-10.824
ear	-10.8248
▁ஆத்திரேலிய	-10.8252
IV	-10.8252
▁கணபதி	-10.8253
▁தொழில்துறை	-10.8257
cy	-10.8261
▁கிடைக்கின்றன	-10.8262
▁வன்னி	-10.8265
▁நிபுணர்	-10.8266
▁கூட்டுறவு	-10.8267
tri	-10.8273
பருவ	-10.8275
▁சீனிவாச	-10.8277
▁சமச்சீர	-10.8277
▁இங்கிலாந்தின்	-10.8278
▁விதிமுறை	-10.828
▁தலங்களில்	-10.8287
▁உயர்நிலைப்	-10.8289
▁மாணிக்க	-10.829
பூரில்	-10.8294
▁இழக்க	-10.8297
▁படையெடுப்பு	-10.8299
▁செயல்திறன்	-10.8304
▁தமிழீழ	-10.8314
▁ஜெர்மன்	-10.8314
▁அச்சுறுத்த	-10.8315
ty	-10.8315
▁இக்கல்லூரி	-10.8316
▁வகையாகும்	-10.8316
இசுரேல	-10.8324
ox	-10.8325
▁கோவிலில்	-10.8325
அறிவிக்கப்பட்டது	-10.8327
▁எனப்படுவது	-10.8329
▁முற்பட்ட	-10.833
▁தகுந்த	-10.8332
▁போரிட்ட	-10.8336
கடல்	-10.8337
▁பெறப்படும்	-10.8339
▁பட்டியலிடப்பட்ட	-10.8341
▁பெற்றோர	-10.8341
min	-10.8343
சதுர	-10.835
▁ஆரம்பிக்க	-10.8354
▁விருத்தி	-10.8355
▁ஜப்பான்	-10.8358
▁எகிப்து	-10.8361
▁காட்டிய	-10.8368
▁படையெடுத்த	-10.8378
க்காட்சி	-10.8383
குழந்தை	-10.8384
▁சண்டிக	-10.8395
▁இறைச்சி	-10.84
▁இயல்பான	-10.8401
▁அமைவிடம்	-10.8403
▁தங்கிய	-10.841
▁வலையமைப்பு	-10.8411
▁மேற்பரப்பு	-10.8412
▁உடனே	-10.8413
▁சிறுநீரக	-10.8427
ore	-10.8437
▁விமர்சகர்	-10.8439
▁சமஸ்கிருத	-10.8439
▁இப்படத்தில்	-10.8439
▁சரணாலய	-10.844
▁குரூ	-10.8441
tor	-10.8441
▁செறிவு	-10.8445
▁இடையேயான	-10.8448
▁தோராயமாக	-10.8452
▁காலகட்ட	-10.8458
▁அரிதாக	-10.8459
▁1938	-10.8462
லாந்தில்	-10.8465
▁பிரிட்டன	-10.8472
ப்பொருளாக	-10.8473
▁புனே	-10.8477
▁பறக்கும்	-10.848
▁தவறாக	-10.848
யிலே	-10.8485
க்குட்பட்ட	-10.8498
▁இரயில்வே	-10.8501
▁தழுவ	-10.8501
▁இடங்களிலும்	-10.8502
▁பிரபலமாக	-10.8504
யுடனும்	-10.8505
▁நடக்க	-10.8506
▁மோதல்	-10.8507
▁காப்பக	-10.8512
▁மரியாதை	-10.8515
▁பயின்று	-10.8516
▁காஷ்மீர்	-10.8517
▁அம்மை	-10.852
▁நகரமாகும்	-10.8525
குளோர	-10.8526
▁ஏவுகணை	-10.8527
▁சேர்மங்கள	-10.8529
▁கால்சியம்	-10.853
ome	-10.853
▁மோகன்	-10.8532
விட்டனர்	-10.8533
▁சூறாவளி	-10.854
▁முன்னிலையில்	-10.854
▁ஸ்டார்	-10.8541
bl	-10.8542
▁வருடங்களுக்கு	-10.8549
▁அளக்க	-10.8553
▁பெறுகின்றன	-10.8565
▁பாடியுள்ளார்	-10.8566
▁அளித்தார்	-10.8567
▁வழு	-10.8568
ous	-10.8574
▁வரம்பு	-10.8576
▁இச்சேர்ம	-10.8576
▁தொலைநோக்கி	-10.858
▁1943	-10.8586
▁திகழ	-10.8586
▁அதற்கான	-10.8591
▁தோல்வியடைந்த	-10.8592
▁பொம்மை	-10.8594
▁குழல	-10.8595
=270	-10.8603
▁மீன்பிடி	-10.8609
▁பரவி	-10.8617
பொரு	-10.8619
ஜ்ஜ	-10.8621
ture	-10.8621
▁குழந்தைகளுக்கு	-10.8622
▁இயற்கையாக	-10.8624
▁இயங்குதள	-10.8629
▁உட்கொள்ள	-10.8635
▁உயிரினங்கள்	-10.8636
▁வலுவ	-10.8639
மங்கல	-10.864
▁கணேசன்	-10.8642
▁கூறியுள்ளார்	-10.8643
▁கொள்ளை	-10.8644
▁கவனிக்க	-10.8646
▁தம்மை	-10.8649
▁இடங்களுக்கு	-10.8657
="270	-10.866
▁போதிய	-10.8663
சுப்ரமணிய	-10.8668
▁பைரவர்	-10.8668
▁நீலகிரி	-10.8672
ிரண்டு	-10.8678
ப்பிரிவ	-10.8678
▁எவ்வளவு	-10.8681
▁கடலோர	-10.8681
▁பிந்தைய	-10.8681
▁உறுப்ப	-10.8692
▁தனித்துவமான	-10.8694
▁கண்டுபிடித்தார்	-10.8695
▁செய்துள்ளார்	-10.8696
▁தோற்றுவித்த	-10.8707
▁அமினோ	-10.8707
▁ஆண்களுக்கு	-10.8708
▁ஐயர்	-10.8709
முதல	-10.8711
▁பொற்	-10.8717
க்கேற்ப	-10.8718
=368	-10.8719
▁இம்மாவட்டத்தில்	-10.872
▁ரசிகர்	-10.872
▁மோட்டார்	-10.872
%25	-10.8721
▁மீட்ப	-10.8722
வேண்டுமென்ற	-10.8725
▁படிநிலை	-10.8726
▁சித்தர்	-10.8726
ூடாக	-10.8727
▁விஞ்ஞானி	-10.8731
▁மருத்துவமனையில்	-10.8731
▁எளிமையான	-10.8733
▁தொடங்கின	-10.8735
140	-10.8749
▁மாணவர்களுக்கு	-10.8751
▁அங்குள்ள	-10.8758
பரப்பு	-10.8762
▁சிதைவு	-10.8764
▁தெரியாத	-10.8765
OH	-10.8769
▁பின்புற	-10.8774
▁அரசியலில்	-10.8776
▁ராதா	-10.8779
▁காங்கிரச	-10.878
▁வெற்றியை	-10.8783
▁பெருநகர	-10.8787
▁நினைவக	-10.8788
▁நீண்டகால	-10.8793
வெட்டி	-10.8793
▁நிறுவனமான	-10.8794
Se	-10.8796
▁சப்த	-10.8797
▁தாமத	-10.8797
▁அமர்த்த	-10.8797
சல்பைடு	-10.8798
▁பௌ	-10.8798
▁ஒல்லாந்த	-10.8799
அதாவது	-10.881
▁இறக்கை	-10.8817
▁கொங்கு	-10.8817
▁தொடங்கினர்	-10.8819
ப்படுகிற	-10.8824
க்குடும்ப	-10.8824
▁ஏஞ்சல	-10.8831
▁முன்னால்	-10.8836
▁மூலிகை	-10.8837
▁கூறுவர்	-10.8837
▁வெறும்	-10.8848
▁ஐதராபாத்	-10.885
▁தீபகற்ப	-10.885
▁ஆயிரக்கணக்கான	-10.8863
▁தெற்க	-10.8865
▁கருதப்படுகிறார்	-10.8866
Per	-10.8874
▁ஈடுபட்டார்	-10.8875
▁விரிவாக	-10.8875
▁வோல்	-10.8883
க்கொடி	-10.8887
▁யோவான்	-10.8908
ரெய்	-10.8915
▁விருதினை	-10.8916
மூட்ட	-10.8918
▁கலவர	-10.8918
▁பயின்ற	-10.8927
▁சுட்டிக்காட்ட	-10.8929
▁ஆகையால்	-10.8929
ிறோம்	-10.8933
amp	-10.8934
▁தெளிவான	-10.8942
▁நிபந்தனை	-10.8942
▁இயக்குநராக	-10.8942
▁சினிமா	-10.8943
SO	-10.8945
▁சிற்பங்கள்	-10.8946
யாவார்	-10.8947
▁தடுத்து	-10.8955
நூல	-10.8955
வராய	-10.8956
▁சிரம	-10.8959
▁மின்காந்த	-10.8959
▁துவார	-10.8967
மலர்	-10.897
▁கிரிக்கெட்	-10.8971
வீட்ட	-10.8971
▁விடுமுறை	-10.8971
▁கடத்தி	-10.8975
கர்ண	-10.8981
▁செயலாளராக	-10.8983
▁வாழ்நாள்	-10.8985
▁1934	-10.899
▁பிரிவினை	-10.8994
▁வைகாசி	-10.8995
▁போக்குவரத்த	-10.8997
▁குளிர	-10.8999
▁படுக்கை	-10.8999
தீஸ்வரர்	-10.9003
▁ஏதும்	-10.9019
▁விதத்தில்	-10.902
▁கண்காட்சி	-10.9022
▁கொல்லப்பட்டனர்	-10.9023
▁கருதப்படுகின்றன	-10.9026
▁நாட்காட்டியில்	-10.9028
▁கூறுகின்றன	-10.9035
▁கல்வியறிவான	-10.9035
▁துல்லியமாக	-10.9036
▁1935	-10.9045
▁அடைந்தார்	-10.9045
▁நிச்சய	-10.905
▁ஈராக்	-10.9051
▁ட்ர	-10.9053
▁குறுக்கு	-10.9062
▁பேச்ச	-10.9063
▁கூற்று	-10.9067
வுண்ட்	-10.9075
▁தேயிலை	-10.9076
▁இயல்ப	-10.9076
▁மலைத்தொடர்	-10.9081
மெண்ட்	-10.9084
▁இக்கோயிலின்	-10.9085
▁மில்லி	-10.9088
▁தொங்க	-10.9088
▁இப்படத்தை	-10.909
ப்பிரிவு	-10.91
Man	-10.9103
▁தெரிவ	-10.9104
▁உறுப்பினர	-10.9111
▁நிறுவனங்களின்	-10.9115
▁இராமாயண	-10.9116
▁பணத்தை	-10.9118
▁புரிந்தார்	-10.9119
▁காய்கறி	-10.9129
▁வாழ்வில்	-10.913
▁தரவுத்தள	-10.9131
▁தாண்டவ	-10.9132
▁சமன்பாட்ட	-10.9147
த்தாக்குதல	-10.9149
▁இடைமுக	-10.917
▁விளங்கி	-10.9179
ரீதியாக	-10.9181
ச்சொல்ல	-10.9183
▁இயற்பெயர்	-10.9183
▁உறவினர்	-10.9183
▁தெற்காசிய	-10.9183
▁நிறுவனத்தால்	-10.9186
▁புறநகர்	-10.9188
▁தேர்ச்சி	-10.9189
log	-10.9192
▁அத்தகைய	-10.9197
▁நிற்கும்	-10.92
▁ஸ்காட்	-10.9204
ick	-10.9206
▁1929	-10.9207
ேஸ்வரி	-10.921
▁நியமித்த	-10.9213
▁நடக்கிறது	-10.9215
▁கைப்பற்றினார்	-10.9215
▁சாஸ்தா	-10.9225
▁போராளி	-10.9227
▁அறிவியலாளர்	-10.9229
▁மாநாட்டில்	-10.9232
ாச்சாரி	-10.9234
▁மந்திரி	-10.9237
▁ஏற்படுத்தியது	-10.9238
▁மூடப்பட்ட	-10.9244
▁தொகுதியிலும்	-10.9245
▁திருமலை	-10.9263
▁ஒப்பீட்ட	-10.9264
▁உருளை	-10.9272
▁இலக்குகளை	-10.9277
▁மெய்யியல	-10.9277
▁வைகுண்ட	-10.9279
▁தலைநகரமாக	-10.9281
▁கணவன	-10.9286
▁உபகரண	-10.9292
▁எவ்வித	-10.9292
▁புலமை	-10.93
▁சூடான	-10.9304
▁சிதைவ	-10.9304
▁படப்பிடிப்பு	-10.9306
ja	-10.9313
▁ஆகியோருடன்	-10.9315
=370	-10.9319
▁சனிக்கிழமை	-10.932
▁ஏனென்றால்	-10.932
▁கர்தினால்	-10.932
▁அவ்வப்போது	-10.932
▁திரௌபதியம்மன்	-10.932
▁புரிய	-10.9325
▁கிராமப்புற	-10.9328
களஞ்சிய	-10.9337
▁இரவில்	-10.9339
▁பிற்கால	-10.9345
▁பிரான்சின்	-10.9347
▁இத்திரு	-10.935
▁வேட்பாளர	-10.9355
ப்பதிவு	-10.9359
=371	-10.9363
oph	-10.9366
▁பிரச்சார	-10.9367
▁ஹொ	-10.9372
▁செறிவ	-10.9375
▁ராயல்	-10.938
▁துருக்கிய	-10.9383
▁ஆரம்பித்தார்	-10.9383
▁நிகர	-10.9386
▁தாமஸ்	-10.939
▁இசையமைப்பாளர்	-10.9395
▁மேலான	-10.9397
tra	-10.9407
="370	-10.9409
El	-10.9409
▁விரிகுடா	-10.9416
▁ஜம்மு	-10.9417
▁பிரேசில்	-10.9419
▁குடியேறிய	-10.9427
▁கறுப்பு	-10.9431
2011	-10.9433
▁பிரிவுகளாக	-10.9434
▁பிரான்ஸ்	-10.944
ance	-10.9442
▁எகிப்திய	-10.9443
▁கிறித்துவ	-10.9444
▁ஏற்படலாம்	-10.9445
▁வல்லுநர்	-10.9446
▁காண்பிக்க	-10.9447
தெலுங்க	-10.9447
▁வெற்றிபெற்ற	-10.9455
▁ஒளிப்பதி	-10.9455
▁துர்க்கை	-10.9458
▁ஊட்டச்சத்து	-10.9458
▁கருதப்பட்டது	-10.9464
▁சொத்துக்கள	-10.9464
▁ஆரம்பகால	-10.9481
▁வாசிக்க	-10.9487
▁வடிவமைக்க	-10.9488
▁ரஷ்ய	-10.9491
ஹீ	-10.9497
▁பரவலான	-10.9499
▁பிடிப்ப	-10.9507
▁அழைக்கப்படுகிறா	-10.9518
▁நியாய	-10.9527
▁மைக்ரோ	-10.9528
▁ஆதரித்த	-10.953
▁கௌதம	-10.9532
▁ஏதாவது	-10.9542
மண்டப	-10.9544
▁கொம்பு	-10.9549
▁அனுப்பப்பட்ட	-10.9552
▁சமிக்ஞை	-10.9556
▁நுண்ணுயிர்	-10.9557
▁விடுவிக்க	-10.9567
புளோரோ	-10.9567
▁அல்லாமல்	-10.9568
▁கூழ்	-10.9571
▁விண்ணப்ப	-10.9582
▁செல்சியசு	-10.9584
▁ஆத்திரேலியா	-10.9585
▁வேற்றுமை	-10.9585
▁பலவீன	-10.9585
▁கதிர்வீச்சு	-10.9589
தொடர்பு	-10.9591
ிலிருக்கும்	-10.96
▁ஆண்டிலிருந்து	-10.96
="371	-10.9604
ுயிரி	-10.961
▁திட்டமிடப்பட்ட	-10.9612
▁குற்றவாளி	-10.9613
▁வெண்மை	-10.9625
▁கோயிலுக்கு	-10.9627
▁குறைந்தபட்ச	-10.9628
▁ஆழமான	-10.9635
▁வகித்தார்	-10.9637
சென்னை	-10.9638
▁கணிசமான	-10.9641
தெய்வ	-10.9642
ப்படுவதற்கு	-10.9643
▁சட்டசபை	-10.9646
▁நடராஜ	-10.9662
▁வரையப்பட்ட	-10.9663
ிறக்க	-10.9663
▁புளோ	-10.9669
IC	-10.9677
▁கொடுமை	-10.9679
▁அசுர	-10.9681
▁இங்கிருந்து	-10.9684
▁காற்பந்து	-10.9684
▁முடிவடைந்த	-10.9687
▁பிரான்சிஸ்	-10.9698
புராண	-10.9705
▁அபிவிருத்தி	-10.9712
▁அற்புத	-10.9712
தொலை	-10.9713
▁அகராதி	-10.9728
ச்சந்திரன்	-10.973
▁தாய்லாந்து	-10.9732
▁வெளியாகி	-10.9737
▁தீவிரமாக	-10.9738
▁இப்பறவை	-10.9741
▁முதலாளி	-10.9745
▁இருக்கிற	-10.9748
▁இரகசிய	-10.9749
▁அதிகப்படியான	-10.9755
▁ஏற்படுத்திய	-10.9757
▁பின்னால்	-10.9759
▁முடியாமல்	-10.9763
▁கிருஷ்ணா	-10.977
▁நமக்கு	-10.9777
▁வளைவு	-10.978
கற்கால	-10.9782
▁மலாய்	-10.9785
▁வழிநடத்த	-10.9798
▁பழங்குடியினர	-10.9799
▁ஆதரவாக	-10.9801
▁ஈரப்பத	-10.9803
▁சேகரித்த	-10.9806
▁மலாக்கா	-10.9813
▁அகவையில்	-10.9813
▁நெருப்ப	-10.9822
▁வினையூக்கி	-10.9827
▁விளங்குகின்றது	-10.9832
van	-10.9836
▁வாங்கிய	-10.984
▁நிலப்பரப்பு	-10.9849
▁விஜயநகர	-10.985
சுப்பிரமணிய	-10.9855
குறியீட	-10.9858
▁பற்றாக்குறை	-10.9871
▁ஆறாவது	-10.9871
▁கவர்ந்த	-10.9875
கொல்லி	-10.9883
▁திகழ்கிறது	-10.9885
▁கணக்கெடுப்பு	-10.9885
▁எல்லோர	-10.9889
▁%)	-10.9895
▁எடுத்துக்கொண்ட	-10.9898
▁அழைக்கின்றனர்	-10.9902
ிருக்கின்றது	-10.9903
▁பண்டார	-10.9908
▁பணியாற்றியவர்	-10.9912
▁சாப்பிட	-10.9915
▁குரங்கு	-10.9915
▁பரிமாற	-10.9917
▁கிடைப்பத	-10.9921
கொண்டிருக்கின்றன	-10.9926
முருக	-10.9926
▁மேளகர்த்தா	-10.9929
▁ரிச்சர்ட்	-10.9929
▁கொண்டாட்ட	-10.9932
▁அலைவரிசை	-10.9932
▁இவ்வமைப்ப	-10.9942
▁இயற்கணித	-10.9944
▁சான்றிதழ்	-10.9944
▁மகனான	-10.9948
▁அழகான	-10.9962
▁ஊதிய	-10.9965
▁உலகளவில்	-10.9974
▁அநேக	-10.9975
நியூ	-10.9975
▁புதுமை	-10.9981
▁வழக்கறிஞர்	-10.9988
ிருப்பதை	-10.9994
▁கவனத்தை	-10.9995
▁சுருள்	-10.9999
▁கொலம்பியா	-11.0017
▁மொழிபெயர்க்க	-11.0018
ood	-11.0023
▁வேற	-11.0024
▁தலைவரான	-11.0025
▁முந்திய	-11.0027
▁போதனை	-11.0029
▁சந்திப்ப	-11.003
▁பொறியியல	-11.0034
▁இவ்வூரில்	-11.0041
வள்ளுவ	-11.0041
▁உரிமையாளர்	-11.0044
▁சாளுக்கிய	-11.0047
▁மறுமலர்ச்சி	-11.0047
▁சேகரிக்க	-11.0048
az	-11.0053
▁சுருங்க	-11.0057
▁இணைக்கிறது	-11.0058
கருதப்படுகின்றது	-11.0062
▁இவ்வூர	-11.0068
IP	-11.008
▁வளர்ச்சியடைந்த	-11.0086
▁காப்பிய	-11.0086
க்கொள்வத	-11.0089
▁சுவிட்சர்லாந்த	-11.0091
▁அப்பொழுது	-11.0091
▁தானியங்கி	-11.01
▁நெட்வொர்க்	-11.0106
▁என்பதோடு	-11.0113
▁ரஷ்யா	-11.0116
▁மைக்ரோசாப்ட்	-11.0121
▁சுற்றுப்பயண	-11.0136
நூற்ற	-11.014
குமாரி	-11.014
▁விக்ரம	-11.0147
▁பிணைப்ப	-11.0148
▁விக்டோரியா	-11.0151
▁தெளிவு	-11.0156
▁தோன்றினார்	-11.0156
▁பாக்கித்தான	-11.0159
▁தினமும்	-11.0164
▁ஆக்கிரமிப்ப	-11.0166
▁ஐதராக்சைடு	-11.0166
▁பொழுதுபோக்கு	-11.0181
▁நிரல	-11.0183
▁வேறுபாட்ட	-11.0187
▁இசைத்தொகுப்ப	-11.019
நாதசுவாமி	-11.0195
▁ஆராய்ச்சியாளர்	-11.0196
▁உண்டாகும்	-11.0196
▁ஷோ	-11.0197
▁கழித்த	-11.0197
▁வடகிழக்க	-11.0198
▁வினைபுரிந்து	-11.0211
we	-11.0212
▁இயக்கியுள்ளார்	-11.0212
▁என்பவற்றை	-11.0213
▁ஆழ்ந்த	-11.0219
▁திருத்தல	-11.0224
▁டைம்ஸ்	-11.0228
▁குஞ்சு	-11.024
▁வியட்நாம்	-11.0256
▁தெரிவிக்கின்றன	-11.0256
▁மகாராட்டிர	-11.0257
▁பிரான்சிசு	-11.0271
▁ஒருங்கிணைக்க	-11.0271
மட்டத்திலிருந்து	-11.028
▁Com	-11.0284
▁இப்பிரிவு	-11.0286
▁முடுக்க	-11.0295
▁முன்வைத்த	-11.0298
NO	-11.0298
ப்பிடிப்ப	-11.0308
▁அதிகாரபூர்வ	-11.0313
▁ஆப்பிள்	-11.0318
▁ஜனாதிபதி	-11.0331
▁நிரலாக்க	-11.0333
ினதும்	-11.0333
▁திரும்பினார்	-11.0342
▁டெட்ரா	-11.0342
▁அதற்க	-11.0342
▁தங்கியிருந்த	-11.0353
▁அளிக்கிறது	-11.0358
▁அவனுக்கு	-11.0358
▁விரிவுபடுத்த	-11.0362
▁வெளிப்பாடு	-11.0362
▁மேம்பாடு	-11.0362
▁புதுப்பிக்க	-11.0363
▁Pro	-11.0365
▁தமக்கு	-11.0366
▁ஏழாம்	-11.0377
▁உயிரிழந்த	-11.0378
▁செய்கின்ற	-11.0379
▁கிழமை	-11.0379
lor	-11.0388
▁இப்படத்தின்	-11.0393
▁மயக்க	-11.0406
▁வயதான	-11.0408
▁பெண்ணை	-11.0409
▁நிறமாலை	-11.0413
▁பூர்த்தி	-11.0413
க்ளோ	-11.0414
▁அடுத்தடுத்த	-11.0424
▁இறகு	-11.0424
▁மிகுதி	-11.0429
புவன	-11.0436
▁கம்யூனிஸ்ட்	-11.0439
▁சித்தாந்த	-11.0439
▁சமாதி	-11.0447
ாசிரியர	-11.0448
▁பிரிவினர	-11.0455
▁ஆத்ம	-11.0464
▁சிறுநீர்	-11.0468
▁சிவராத்திரி	-11.0469
▁வித்யா	-11.0471
ச்சொற்கள	-11.0475
▁அறநிலைய	-11.0483
▁அறிவுறுத்த	-11.0486
▁ஏமாற்ற	-11.0489
▁முனிவர	-11.0517
▁தாவரவியல்	-11.0518
▁நண்பர	-11.0529
▁துருக்கி	-11.053
▁பிரித்தெடுக்க	-11.0548
▁நினைக்க	-11.0559
▁படைத்துறை	-11.0561
▁திரையரங்க	-11.0563
▁ஊக்குவிக்க	-11.0578
▁கோதுமை	-11.0596
John	-11.0609
▁எச்சரிக்கை	-11.0609
▁வகுக்க	-11.0609
▁விவரித்த	-11.0619
▁இறுக்க	-11.0627
▁வயதிலேயே	-11.0627
▁கனடிய	-11.0631
ung	-11.0633
▁பெல்ஜிய	-11.0641
▁நிகழ்கிறது	-11.0651
▁பயன்படுகின்றது	-11.0658
▁தேங்காய்	-11.0672
▁விவகார	-11.0672
▁அனந்த	-11.0674
▁மகேந்திர	-11.0678
▁பொறியாளர்	-11.0684
▁மட்டுமன்றி	-11.0688
▁துரித	-11.0702
▁அன்றாட	-11.0703
▁பெண்மணி	-11.0706
▁பாண்டவர்	-11.0709
▁விசாக	-11.0718
▁உலகக்கோப்பை	-11.0719
▁மறைமாவட்ட	-11.0719
▁இலண்டன்	-11.0719
▁நெஞ்ச	-11.0726
▁அசாம்	-11.0727
▁பொதுநலவாய	-11.0735
▁முழுதும்	-11.0747
▁தங்களுடைய	-11.0751
▁சிவலிங்க	-11.0757
▁தொடங்குகிறது	-11.0759
ளவிலான	-11.0763
▁இன்றியமையாத	-11.0767
▁வாக்காளர்	-11.0769
▁பொங்கல்	-11.0773
தொகுதியிலிருந்து	-11.0778
ங	-11.0798
▁நிர்ணயிக்க	-11.0798
▁பிரீமியர்	-11.0814
▁ஆழ்வார்	-11.0814
▁ராமசாமி	-11.0826
▁இறங்கி	-11.0828
▁செயல்திறன	-11.0831
▁சங்கீத	-11.0833
▁கொண்டவையாக	-11.0833
▁பிரசுர	-11.0834
▁அவருடன்	-11.0836
▁வாழ்கின்றன	-11.0844
▁புற்றுநோய	-11.0846
▁சிறிதளவு	-11.0846
▁பரிணாம	-11.0846
▁பரிமாண	-11.0848
adu	-11.085
ஆக்சைட	-11.0853
ook	-11.0861
▁வேண்டுகோள	-11.0863
▁வைத்திருப்ப	-11.0864
▁மதிப்பீட்டின்	-11.0864
▁மொழிபெயர்ப்ப	-11.0869
▁நுழைவாயில	-11.0871
▁நுண்ணுயிரி	-11.0871
நுட்ப	-11.0873
▁கிடைக்கவில்லை	-11.0875
டபிள்யூ	-11.0879
▁வேளைகளில்	-11.0879
▁மக்களாட்சி	-11.0882
ாசிரியராக	-11.0885
ஃபை	-11.0891
▁ஜொ	-11.0891
app	-11.0918
▁வருகின்றார்	-11.0919
▁மாபெரும்	-11.0925
▁திருகோணமலை	-11.0927
ிருக்கிற	-11.0932
▁மிருக	-11.0933
▁நேர்மின்	-11.0939
▁பிலிப்பைன்	-11.0943
▁இப்போர	-11.095
▁வழிகாட்டி	-11.0957
தூத	-11.0959
▁இசைக்கருவி	-11.0965
▁பாதிக்கப்பட	-11.0971
ாயினும்	-11.0971
ology	-11.0976
▁ஒதுக்கப்பட்ட	-11.0978
=375	-11.0991
▁சமீபத்திய	-11.0992
▁இக்கோவில்	-11.0994
▁வானியலாளர்	-11.0995
▁பொறுத்தவரை	-11.0995
▁கள்ளக்குறிச்சி	-11.1008
▁செருமானிய	-11.1008
▁சப்பானிய	-11.1008
▁வருகின்ற	-11.1018
▁ஏகாதசி	-11.1024
▁வான்படை	-11.1026
▁விலங்கின	-11.1027
▁யூனியன்	-11.1041
▁வெளிப்படையாக	-11.1041
ஞ்சேரி	-11.1056
ock	-11.1056
▁காலப்போக்கில்	-11.1057
▁வழிபாட்ட	-11.1073
▁பூஞ்சை	-11.1074
▁அம்சங்களை	-11.1082
=333	-11.1085
▁எலிசபெத்	-11.109
▁வசிப்ப	-11.111
=355	-11.1118
களிலுள்ள	-11.1118
▁விளைபொருள	-11.112
▁கதாநாயகன	-11.1122
ava	-11.1125
▁செய்முறை	-11.1127
="375	-11.113
▁நிறமற்ற	-11.1136
=366	-11.1138
▁முதுகெலும்ப	-11.1139
▁பத்தாம்	-11.1141
▁தென்கிழக்க	-11.1141
கொள்கின்ற	-11.1149
▁மட்டுமின்றி	-11.1155
▁வான்காணக	-11.1155
▁தென்காசி	-11.1156
கொள்வதற்கு	-11.1156
▁வேறொரு	-11.1156
▁வாரிசு	-11.1157
ுணர்ச்சி	-11.1159
▁அண்ணாமலை	-11.116
=374	-11.1165
▁நெகிழி	-11.1172
▁குரல	-11.1175
▁நடைமுறைப்படுத்த	-11.1181
▁இளவரசி	-11.1189
▁இந்நிகழ்வ	-11.1189
▁நகர்ப்புற	-11.1196
▁நடைபெறுகின்றன	-11.1197
▁தினசரி	-11.1205
▁வேண்டுமென	-11.1211
▁மரபியல்	-11.1214
▁ஆகியவற்றுடன்	-11.1221
▁வகிக்கிறது	-11.1222
▁மகரந்த	-11.1222
▁கோயிலை	-11.1223
▁வாசித்த	-11.1225
▁தோன்றுகிறது	-11.1233
▁ஈடுபடுத்த	-11.1235
▁இறக்குமதி	-11.1238
=350	-11.1246
▁அருகாமையில்	-11.1255
பயிற்சி	-11.1257
▁சோதிட	-11.1258
="355	-11.126
▁என்னுமிடத்தில்	-11.1272
▁மட்டுமல்லாமல்	-11.1272
="366	-11.1276
▁அதேவேளை	-11.1277
=364	-11.128
▁எசுப்பானியா	-11.1283
▁மெக்சிக்கோ	-11.1288
▁இணையதள	-11.1293
▁செய்வதற்காக	-11.1296
▁பாதுகாப்பான	-11.1301
▁கர்நாடகா	-11.1316
க்கொண்டிருந்த	-11.1321
▁மகாத்மா	-11.1322
▁உருமாற்ற	-11.1323
="374	-11.1334
National	-11.1339
▁பீரங்கி	-11.1339
▁மூலக்கூற	-11.1339
▁சமையல்	-11.1339
▁கவர்ச்சி	-11.1356
▁இருக்காது	-11.1368
▁அடையாளப்படுத்த	-11.137
▁வசிக்க	-11.1372
▁எபிரேய	-11.1372
▁சிலப்பதிகார	-11.1389
▁வைட்டமின்	-11.1389
▁பரப்பளவைக்	-11.1391
▁குழாய	-11.1395
▁பெங்களூர்	-11.1407
="350	-11.1409
="364	-11.1413
▁பிரகடன	-11.1423
▁சற்றே	-11.1424
▁மகாதேவ	-11.1427
▁மதிப்பெண்	-11.143
▁கைவிடப்பட்ட	-11.1432
ாமலும்	-11.1438
▁பின்வாங்க	-11.145
▁தொகுத்த	-11.1451
▁முதலீட்டாளர்	-11.1455
புதினம்	-11.1457
▁முழுவதிலும்	-11.1457
▁இருபதாம	-11.1458
களாவன	-11.1463
▁பெரிதாக	-11.147
=360	-11.1472
▁இயல்பாக	-11.1474
▁சுண்ணாம்பு	-11.1474
▁மசூதி	-11.1474
▁வாசகர்	-11.1478
▁பள்ளிவாசல்	-11.148
=373	-11.1486
▁அனைவருக்கும்	-11.1493
▁அதனுடைய	-11.1494
கடவுள	-11.1495
▁இதழாகும்	-11.1503
▁படையெடுப்ப	-11.1511
▁திபெத்	-11.1512
ராட்டிர	-11.152
▁அரசியலமைப்ப	-11.1531
▁மீட்க	-11.1537
ெதிர்	-11.154
▁முன்வைக்க	-11.1543
▁எட்டாம்	-11.1544
▁தொழிற்துறை	-11.1545
▁நச்சுத்தன்மை	-11.1545
ருமேனிய	-11.1583
நம்பிக்கை	-11.1584
=363	-11.1589
பூர்வமாக	-11.1593
▁சமசுகிருத	-11.1594
▁நிரூபிக்க	-11.1594
▁அதிர்ச்சி	-11.1594
▁கைலாசநாதர்	-11.1595
ாழ்வார்	-11.1595
▁வணக்க	-11.16
ப்பலகை	-11.1603
="360	-11.1611
▁மெய்யெண்	-11.1612
▁திபெத்திய	-11.1613
▁மொழிபெயர்த்த	-11.1613
▁பெங்களூரு	-11.1615
▁பணியாற்றியுள்ளா	-11.1616
▁ஒடிசா	-11.1629
▁அடங்குவர்	-11.163
▁எங்கும்	-11.1631
▁ஸ்ரீதேவி	-11.1636
சக்கர	-11.1638
பூர்வமான	-11.1642
▁ஒழுங்குபடுத்த	-11.1644
▁ஆளுநராக	-11.165
▁சவ்வ	-11.1654
▁செவ்வாய்	-11.1667
▁அட்லாண்டிக்	-11.1681
▁சஞ்சிகை	-11.1681
▁மேலதிக	-11.1682
பிறழ்	-11.1684
▁இப்பொழுது	-11.1684
பேரூராட்சி	-11.1689
▁பண்டித	-11.1694
▁கல்கத்தா	-11.1698
▁கோளாறு	-11.17
▁கோடைக்கால	-11.17
▁வெற்றிகரமான	-11.1703
="373	-11.1716
▁எடுத்துக்காட்ட	-11.1733
▁கலாசார	-11.1733
▁ஒப்பிடுகையில்	-11.1734
செய்யப்படுகின்றன	-11.1735
▁மற்றொன்று	-11.1746
▁கண்காணிக்க	-11.1751
▁தணிக்கை	-11.1751
பட்ச	-11.1764
▁எக்ஸ்பிரஸ்	-11.1768
▁விசுவநாத	-11.1768
▁சந்திரசேகர	-11.1771
▁நெருக்கமாக	-11.1786
▁அதிரடி	-11.1786
▁இவர்களது	-11.1786
▁எப்போது	-11.1802
▁அக்கறை	-11.1804
அறிவ	-11.1814
▁இணக்க	-11.1832
="363	-11.1836
▁பிரசாத்	-11.1839
▁பண்டிகை	-11.1839
=372	-11.1844
பொழுத	-11.1851
▁ஆப்கானிஸ்தான	-11.1857
▁நன்கொடை	-11.1857
▁அகன்ற	-11.1864
பேறு	-11.1873
▁கருணாநிதி	-11.1874
▁கூற்றுப்படி	-11.1876
▁பணிபுரிய	-11.1878
▁ஆதரவாளர்	-11.188
▁நெருங்க	-11.1891
▁சமாதான	-11.1892
▁பேதுரு	-11.1893
▁அண்மைய	-11.1896
▁மென்மையான	-11.1912
▁கவிஞர	-11.1915
பெங்களூர	-11.1921
கிருட்டிண	-11.1922
ினூடாக	-11.1923
▁நாயுடு	-11.1928
▁ரீதியில்	-11.1928
▁உத்தம	-11.1928
▁மாறுபாடு	-11.193
குளுக்கோ	-11.1932
தொகுப்ப	-11.1936
=376	-11.1944
▁தயாராக	-11.1947
▁உண்ப	-11.1949
▁உவமை	-11.195
ரத்ன	-11.1952
▁இங்கிலாந்த	-11.1958
▁துத்தநாக	-11.1963
▁மிகச்சிறந்த	-11.1964
▁பாகவத	-11.1969
▁அடர்ந்த	-11.1985
▁சுல்தானக	-11.199
Uni	-11.1995
ுவதோடு	-11.2005
▁கல்வெட்ட	-11.201
▁அரசியல	-11.201
▁களிமண்	-11.2014
▁அரியானா	-11.202
▁செட்டியார்	-11.202
=359	-11.2048
▁விக்கிரம	-11.2048
▁புரிந்துகொள்ள	-11.2056
▁பவானி	-11.2058
▁முசுலிம்	-11.2071
▁வேண்டுமா	-11.2072
▁வறண்ட	-11.2073
▁திசுக்கள	-11.2076
▁திடீரென	-11.2081
▁உருவாவத	-11.2084
ound	-11.2091
▁இருக்கின்ற	-11.2092
="376	-11.2092
▁முஸ்லீம்	-11.2108
▁ஊழல்	-11.2114
="372	-11.2118
செலுத்த	-11.2123
▁சாம்பியன்	-11.2125
▁சரஸ்வதி	-11.2126
▁பஞ்சாயத்து	-11.2126
▁தானுந்து	-11.2126
▁வேதாந்த	-11.2129
வொர்	-11.2129
▁அதேபோல	-11.2141
▁குடியுரிமை	-11.2144
▁பொதுவுடைமை	-11.2144
▁குற்றச்சாட்டு	-11.2144
2,000	-11.2151
apuram	-11.2162
▁எய்த	-11.2167
▁இசையமைப்ப	-11.2174
சுல்தான	-11.218
▁நறுமண	-11.2181
▁நிலத்தடி	-11.2181
▁சுற்றுப்பாதை	-11.2183
▁கருதுகோள	-11.2185
▁கபில	-11.2185
ஜன்னிய	-11.22
▁சேமித்து	-11.22
▁சதுப்பு	-11.2201
▁புல்வெளி	-11.2201
▁படைப்பிரிவு	-11.2203
▁செயலாற்ற	-11.2203
▁அமிர்த	-11.2219
▁பொதுவுடமை	-11.2236
▁அகமது	-11.2243
▁விளையாட்டரங்க	-11.2247
▁விஷயங்கள	-11.2253
▁வளர்சிதை	-11.2254
▁பகதூர்	-11.2254
▁வீட்டிற்கு	-11.2254
▁நீரிணை	-11.2261
▁கேட்ப	-11.2263
ஹவுஸ்	-11.2266
▁அயர்லாந்து	-11.2273
▁புளூ	-11.2282
நாடக	-11.2289
▁வல்லுனர்	-11.2291
▁மாற்றியமைக்க	-11.2295
▁ஸ்பெயின	-11.23
▁துறந்த	-11.2321
▁அரக்கோணம்	-11.2328
கண்டெடுக்கப்பட்ட	-11.2329
▁ரோமானிய	-11.233
▁பிரதமராக	-11.233
மருத்துவ	-11.2331
▁யாதவ	-11.2341
▁அமுத	-11.2344
▁பயிற்ற	-11.2357
▁ஸ்டுடியோ	-11.2365
▁சார்லஸ்	-11.2365
▁ரகசிய	-11.2367
=124	-11.2367
ெலும்பு	-11.2369
▁வெறுப்ப	-11.238
▁பாதுகாவல	-11.2384
▁முழுவதுமாக	-11.2384
▁மிகப்பெரும்	-11.2386
▁புரோமைடு	-11.2387
▁சுவீடன	-11.2388
▁விழிப்புணர்வு	-11.2403
▁பிரபஞ்ச	-11.2403
port	-11.2406
▁வெப்பமண்டல	-11.2407
=356	-11.2413
▁வழிகாட்ட	-11.2414
▁ஆளுனர	-11.2418
▁கார்பனேட்டு	-11.2421
▁மூங்கில்	-11.2422
▁பதப்படுத்த	-11.2423
▁சமஸ்தான	-11.2429
▁எரிபொருள	-11.2433
=365	-11.2461
=358	-11.2465
ப்பிடித்த	-11.2471
University	-11.2478
▁இளையராஜா	-11.2479
ஆங்கில	-11.2489
சிறப்ப	-11.2494
▁இக்கட்சி	-11.2504
கேசரி	-11.2511
▁பூர்வீக	-11.2516
▁விக்கிப்பீடியா	-11.2534
▁பகவதி	-11.2539
ுதவி	-11.2541
form	-11.2551
▁இலித்தியம்	-11.2553
=129	-11.2555
▁இருந்தபோதிலும்	-11.2572
▁வலையமைப்ப	-11.2576
திரைப்பட	-11.2588
▁துடுப்ப	-11.2591
▁தொலைத்தொடர்பு	-11.2611
▁நிதியுதவி	-11.2611
▁நாயனார்	-11.2611
▁ஆப்கானித்தான	-11.263
="365	-11.263
=367	-11.2648
▁நவராத்திரி	-11.2649
பாபிலோன	-11.2662
▁மெக்சிகோ	-11.2668
ிருக்கவில்லை	-11.2668
▁எத்தனை	-11.2669
▁வீழ்ந்த	-11.2669
▁மகாராஷ்டிரா	-11.2688
ிழப்பு	-11.2688
▁நீடிக்க	-11.2689
▁சனத்தொகை	-11.2707
▁சரவண	-11.2709
▁ராஜஸ்தான்	-11.271
▁புகையிலை	-11.2726
▁பறக்க	-11.273
▁வெளியீட்டு	-11.274
=120	-11.2742
▁பிரதிபலிக்க	-11.2745
▁சிட்னி	-11.2747
▁செயின்ட்	-11.2747
="129	-11.2757
▁கடைப்பிடிக்க	-11.2765
▁மக்னீசியம்	-11.2765
▁புளிய	-11.2777
▁கணிதவியலாளர்	-11.2784
▁இணங்க	-11.2784
▁ஆசிரம	-11.2784
▁அதிர்வு	-11.2786
▁ஆரஞ்சு	-11.2787
="367	-11.2791
▁ஒன்றுக்கொன்று	-11.2803
▁மீதமுள்ள	-11.2803
விஜய	-11.2812
த்தொகுப்பு	-11.2831
▁குசராத்	-11.2832
▁குடிபெயர்ந்த	-11.2843
ிருத்தல்	-11.2845
▁அங்கத்தினர்	-11.2846
▁கோடைகால	-11.2855
▁வருவாய	-11.2856
▁வாடகை	-11.2862
▁வாய்ப்பாட்டால	-11.2882
ாம்பிகை	-11.2885
▁காரணத்தினால்	-11.2885
▁நியூட்டன	-11.2893
▁மர்ம	-11.2894
="120	-11.2894
▁Jump	-11.2901
▁நெசவு	-11.2902
▁பழுத	-11.2902
▁பாக்கிஸ்தான	-11.2903
▁பேச்சுவார்த்தை	-11.2921
▁முரண்பாடு	-11.2921
▁நுணுக்க	-11.2922
▁தாயார	-11.2923
=334	-11.2928
▁ஏதுவாக	-11.2938
▁அருணாசல	-11.2941
▁மேல்நிலைப்பள்ளி	-11.296
▁வியாழன	-11.2961
▁உளவியல	-11.2961
▁நாகர்கோவில	-11.2963
ஃபோர்ட்	-11.2968
▁தட்சிணாமூர்த்தி	-11.298
▁காரணங்களுக்காக	-11.2984
▁அருள்மிகு	-11.3
▁பங்கேற்ப	-11.3
▁காந்தாரம்	-11.3
▁திரையுலக	-11.3
=128	-11.3017
களினதும்	-11.3038
▁மென்பொருட்	-11.3041
▁உபநிடத	-11.3043
கணினி	-11.3046
▁ஏழாவது	-11.306
▁வாக்கெடுப்ப	-11.306
▁தன்னார்வ	-11.3063
▁ஒப்பிட்டு	-11.3069
▁பாலிவுட்	-11.3074
▁வியட்	-11.3077
▁வனவிலங்கு	-11.308
International	-11.31
▁இலகுவாக	-11.3119
▁ஜெயலலிதா	-11.312
▁செயிண்ட்	-11.312
▁முப்பத்த	-11.3148
=106	-11.3156
ிழந்த	-11.3158
ுதலுக்கு	-11.316
▁செய்பவர்	-11.3162
புளோர	-11.3164
▁தற்காப்பு	-11.318
▁பனிக்கட்டி	-11.3181
▁ஐம்பது	-11.3181
▁நண்பன	-11.3182
க்குள்ளாக	-11.3193
="128	-11.3196
▁அகாடமி	-11.3201
▁இலத்திரன்	-11.3201
▁அதிசய	-11.3202
▁செங்குத்து	-11.3202
="334	-11.3213
▁கவுன்சில	-11.3222
▁கையொப்ப	-11.3241
▁அமீரக	-11.3241
=104	-11.3242
▁காவேரி	-11.3243
▁அந்தோனி	-11.3245
பொம்ம	-11.3252
▁டிஜிட்டல்	-11.3262
▁நீர்த்தேக்க	-11.3262
▁இழுத்து	-11.3263
▁பேராசிரிய	-11.3275
▁தூண்டுதல	-11.3277
▁பொள்ளாச்சி	-11.3282
▁மூதாதை	-11.3282
▁நூற்றுக்கணக்கான	-11.3303
நாயக்கன்பட்டி	-11.3303
▁பின்தங்கிய	-11.3303
=130	-11.3303
▁கதவு	-11.3335
வளர்ச்சி	-11.3336
▁ஓய்வூதிய	-11.3344
▁சொற்றொடர	-11.3344
▁வினைபுரிய	-11.3346
▁விரத	-11.3347
▁சிகாகோ	-11.3351
▁கார்த்திக்	-11.3389
▁ஆக்சிசன	-11.3403
▁திணைக்கள	-11.3405
▁ரேடியோ	-11.3405
▁மின்னஞ்சல்	-11.3405
▁வழிவகுக்க	-11.3406
▁சாம்பியன்ஷிப்	-11.3407
▁குடியிருப்ப	-11.341
▁பன்னிரண்டு	-11.3426
▁நெருக்கமான	-11.3426
="106	-11.3433
▁சீரமைப்ப	-11.3433
▁பிரகாஷ்	-11.3447
▁புள்ளிவிவர	-11.3447
▁வரையறுத்த	-11.3447
▁குவாண்டம்	-11.3447
▁திவ்ய	-11.3451
▁அலுவலரால	-11.3469
வெளியிட்டுள்ளார்	-11.3469
▁இளவரசன	-11.3469
="130	-11.3474
கொலம்ப	-11.3476
ுதலில்	-11.3488
▁சோசலிச	-11.3488
▁மொபைல்	-11.3489
▁அருச்சுனன	-11.3489
▁ஜேர்சி	-11.3489
=123	-11.3502
graph	-11.3509
▁ஆற்றங்கரை	-11.3509
▁முதன்முறையாக	-11.3509
▁விரைவுவண்டி	-11.353
முயற்சி	-11.3546
▁வெங்கடேச	-11.3547
▁டென்மார்க்	-11.3551
க்குள்ளான	-11.3555
▁உபதேச	-11.3563
▁முதலாவதாக	-11.3572
▁ஜெனரல்	-11.3572
▁அவையாவன	-11.3572
▁நிவாரண	-11.3573
▁சூடுபடுத்த	-11.3573
பழைய	-11.358
▁திருவனந்தபுரம்	-11.3593
புகழ்	-11.3606
ஹைட்ர	-11.3625
palayam	-11.3636
▁உடற்பயிற்சி	-11.3636
▁சனநாயக	-11.3636
▁காய்ச்சல்	-11.3638
▁அவ்வாறே	-11.3657
மீட்டர	-11.3666
குப்தர்	-11.3676
▁பறப்ப	-11.3683
சிகிச்சை	-11.3699
▁கம்போடியா	-11.3699
▁அலைநீள	-11.3721
▁மாநிலங்களவை	-11.3721
▁நெகிழ்	-11.3721
▁நோர்வே	-11.3721
▁ஓய்வ	-11.3724
▁வானியற்பியல	-11.3742
▁உயர்நிலைப்பள்ளி	-11.3743
1,000	-11.3743
▁உள்வாங்க	-11.3746
தென்னிந்தியாவில்	-11.3758
▁ஐந்தாண்டு	-11.3763
▁செங்கிஸ்	-11.3764
▁சதுக்க	-11.377
▁வசித்த	-11.3773
▁அயோடைடு	-11.3785
▁உலகக்கிண்ண	-11.3785
▁மறுபடியும்	-11.3785
▁திடீர்	-11.3787
▁தைவதம்	-11.3806
▁பட்டப்படிப்பு	-11.3806
ெண்ணெய்	-11.3811
▁மேம்பாட்ட	-11.3812
▁இருபத்தி	-11.3813
▁சந்தர்ப்ப	-11.3816
சமூக	-11.3824
▁வற்புறுத்த	-11.3828
▁கூகுள்	-11.3828
▁பிரசித்தி	-11.3828
▁சீக்கியர்கள	-11.3847
▁மத்திமம்	-11.385
“	-11.7047
‘	-11.9458
